#include "model.h"

alignas(16) const unsigned char g_model[] = {
    0x1c, 0x00, 0x00, 0x00, 0x54, 0x46, 0x4c, 0x33, 0x14, 0x00, 0x20, 0x00,
    0x1c, 0x00, 0x18, 0x00, 0x14, 0x00, 0x10, 0x00, 0x0c, 0x00, 0x00, 0x00,
    0x08, 0x00, 0x04, 0x00, 0x14, 0x00, 0x00, 0x00, 0x1c, 0x00, 0x00, 0x00,
    0xb0, 0x00, 0x00, 0x00, 0x08, 0x01, 0x00, 0x00, 0xdc, 0x0d, 0x00, 0x00,
    0xec, 0x0d, 0x00, 0x00, 0x44, 0x28, 0x00, 0x00, 0x03, 0x00, 0x00, 0x00,
    0x01, 0x00, 0x00, 0x00, 0x04, 0x00, 0x00, 0x00, 0x6a, 0xf1, 0xff, 0xff,
    0x0c, 0x00, 0x00, 0x00, 0x1c, 0x00, 0x00, 0x00, 0x5c, 0x00, 0x00, 0x00,
    0x0f, 0x00, 0x00, 0x00, 0x73, 0x65, 0x72, 0x76, 0x69, 0x6e, 0x67, 0x5f,
    0x64, 0x65, 0x66, 0x61, 0x75, 0x6c, 0x74, 0x00, 0x02, 0x00, 0x00, 0x00,
    0x24, 0x00, 0x00, 0x00, 0x04, 0x00, 0x00, 0x00, 0x70, 0xff, 0xff, 0xff,
    0x19, 0x00, 0x00, 0x00, 0x04, 0x00, 0x00, 0x00, 0x08, 0x00, 0x00, 0x00,
    0x6f, 0x75, 0x74, 0x70, 0x75, 0x74, 0x5f, 0x31, 0x00, 0x00, 0x00, 0x00,
    0x8c, 0xff, 0xff, 0xff, 0x17, 0x00, 0x00, 0x00, 0x04, 0x00, 0x00, 0x00,
    0x08, 0x00, 0x00, 0x00, 0x6f, 0x75, 0x74, 0x70, 0x75, 0x74, 0x5f, 0x30,
    0x00, 0x00, 0x00, 0x00, 0x01, 0x00, 0x00, 0x00, 0x04, 0x00, 0x00, 0x00,
    0xce, 0xf2, 0xff, 0xff, 0x04, 0x00, 0x00, 0x00, 0x10, 0x00, 0x00, 0x00,
    0x6b, 0x65, 0x72, 0x61, 0x73, 0x5f, 0x74, 0x65, 0x6e, 0x73, 0x6f, 0x72,
    0x5f, 0x31, 0x34, 0x35, 0x00, 0x00, 0x00, 0x00, 0x02, 0x00, 0x00, 0x00,
    0x34, 0x00, 0x00, 0x00, 0x04, 0x00, 0x00, 0x00, 0xdc, 0xff, 0xff, 0xff,
    0x1c, 0x00, 0x00, 0x00, 0x04, 0x00, 0x00, 0x00, 0x13, 0x00, 0x00, 0x00,
    0x43, 0x4f, 0x4e, 0x56, 0x45, 0x52, 0x53, 0x49, 0x4f, 0x4e, 0x5f, 0x4d,
    0x45, 0x54, 0x41, 0x44, 0x41, 0x54, 0x41, 0x00, 0x08, 0x00, 0x0c, 0x00,
    0x08, 0x00, 0x04, 0x00, 0x08, 0x00, 0x00, 0x00, 0x1b, 0x00, 0x00, 0x00,
    0x04, 0x00, 0x00, 0x00, 0x13, 0x00, 0x00, 0x00, 0x6d, 0x69, 0x6e, 0x5f,
    0x72, 0x75, 0x6e, 0x74, 0x69, 0x6d, 0x65, 0x5f, 0x76, 0x65, 0x72, 0x73,
    0x69, 0x6f, 0x6e, 0x00, 0x1d, 0x00, 0x00, 0x00, 0xd0, 0x0c, 0x00, 0x00,
    0xc8, 0x0c, 0x00, 0x00, 0xb0, 0x0c, 0x00, 0x00, 0x94, 0x0c, 0x00, 0x00,
    0x44, 0x0c, 0x00, 0x00, 0x30, 0x0c, 0x00, 0x00, 0xe0, 0x0b, 0x00, 0x00,
    0xd0, 0x0a, 0x00, 0x00, 0xc0, 0x06, 0x00, 0x00, 0x70, 0x06, 0x00, 0x00,
    0xa0, 0x05, 0x00, 0x00, 0x24, 0x05, 0x00, 0x00, 0xe4, 0x04, 0x00, 0x00,
    0xdc, 0x04, 0x00, 0x00, 0x6c, 0x01, 0x00, 0x00, 0x3c, 0x01, 0x00, 0x00,
    0xe4, 0x00, 0x00, 0x00, 0xdc, 0x00, 0x00, 0x00, 0xd4, 0x00, 0x00, 0x00,
    0xcc, 0x00, 0x00, 0x00, 0xc4, 0x00, 0x00, 0x00, 0xbc, 0x00, 0x00, 0x00,
    0xb4, 0x00, 0x00, 0x00, 0xac, 0x00, 0x00, 0x00, 0xa4, 0x00, 0x00, 0x00,
    0x9c, 0x00, 0x00, 0x00, 0x94, 0x00, 0x00, 0x00, 0x74, 0x00, 0x00, 0x00,
    0x04, 0x00, 0x00, 0x00, 0xc2, 0xf3, 0xff, 0xff, 0x04, 0x00, 0x00, 0x00,
    0x60, 0x00, 0x00, 0x00, 0x0c, 0x00, 0x00, 0x00, 0x08, 0x00, 0x0e, 0x00,
    0x08, 0x00, 0x04, 0x00, 0x08, 0x00, 0x00, 0x00, 0x10, 0x00, 0x00, 0x00,
    0x28, 0x00, 0x00, 0x00, 0x00, 0x00, 0x06, 0x00, 0x08, 0x00, 0x04, 0x00,
    0x06, 0x00, 0x00, 0x00, 0x04, 0x00, 0x00, 0x00, 0x01, 0x00, 0x00, 0x00,
    0xeb, 0x03, 0x00, 0x00, 0x0c, 0x00, 0x18, 0x00, 0x14, 0x00, 0x10, 0x00,
    0x0c, 0x00, 0x04, 0x00, 0x0c, 0x00, 0x00, 0x00, 0x32, 0x5d, 0x17, 0x42,
    0x61, 0x83, 0x2d, 0xe9, 0x02, 0x00, 0x00, 0x00, 0x02, 0x00, 0x00, 0x00,
    0x04, 0x00, 0x00, 0x00, 0x06, 0x00, 0x00, 0x00, 0x32, 0x2e, 0x32, 0x30,
    0x2e, 0x30, 0x00, 0x00, 0x2e, 0xf4, 0xff, 0xff, 0x04, 0x00, 0x00, 0x00,
    0x10, 0x00, 0x00, 0x00, 0x31, 0x2e, 0x31, 0x34, 0x2e, 0x30, 0x00, 0x00,
    0x00, 0x00, 0x00, 0x00, 0x00, 0x00, 0x00, 0x00, 0x94, 0xda, 0xff, 0xff,
    0x98, 0xda, 0xff, 0xff, 0x9c, 0xda, 0xff, 0xff, 0xa0, 0xda, 0xff, 0xff,
    0xa4, 0xda, 0xff, 0xff, 0xa8, 0xda, 0xff, 0xff, 0xac, 0xda, 0xff, 0xff,
    0xb0, 0xda, 0xff, 0xff, 0xb4, 0xda, 0xff, 0xff, 0xb8, 0xda, 0xff, 0xff,
    0x72, 0xf4, 0xff, 0xff, 0x04, 0x00, 0x00, 0x00, 0x48, 0x00, 0x00, 0x00,
    0x81, 0xfe, 0xf6, 0xf4, 0x24, 0x28, 0xfa, 0x37, 0x0f, 0x5f, 0xf7, 0x8e,
    0x30, 0xee, 0x04, 0x7f, 0x5c, 0xf1, 0x3f, 0x7f, 0xcc, 0xdb, 0x35, 0x51,
    0x00, 0xef, 0x02, 0xbf, 0x21, 0x31, 0xc5, 0x18, 0x71, 0xa9, 0xc4, 0x7f,
    0x7f, 0xd1, 0x39, 0x45, 0xd8, 0xc2, 0xfb, 0xaf, 0xf3, 0x0a, 0x0d, 0xaa,
    0x7f, 0x23, 0x47, 0x40, 0xb7, 0xbe, 0x72, 0x9f, 0xc8, 0x7f, 0x02, 0x38,
    0x34, 0x83, 0xbd, 0xf4, 0xc8, 0x81, 0x2e, 0x1f, 0x7a, 0xc5, 0xe3, 0x53,
    0xc6, 0xf4, 0xff, 0xff, 0x04, 0x00, 0x00, 0x00, 0x20, 0x00, 0x00, 0x00,
    0x00, 0x00, 0x00, 0x00, 0x00, 0x00, 0x00, 0x00, 0x00, 0x00, 0x00, 0x00,
    0x00, 0x00, 0x00, 0x00, 0x00, 0x00, 0x00, 0x00, 0x00, 0x00, 0x00, 0x00,
    0x00, 0x00, 0x00, 0x00, 0x00, 0x00, 0x00, 0x00, 0xf2, 0xf4, 0xff, 0xff,
    0x04, 0x00, 0x00, 0x00, 0x60, 0x03, 0x00, 0x00, 0x04, 0x2a, 0xe4, 0xc2,
    0x7f, 0x3a, 0x44, 0xd1, 0x9c, 0x2a, 0x1d, 0xa2, 0x45, 0xe1, 0x21, 0x1d,
    0xeb, 0xcc, 0xda, 0xb9, 0x12, 0xca, 0x16, 0xdf, 0x15, 0x20, 0xcf, 0xc5,
    0x0b, 0xda, 0x18, 0xbd, 0x05, 0x05, 0xe2, 0xa7, 0xf8, 0x2e, 0x15, 0xe7,
    0x1f, 0xe3, 0x9e, 0xe2, 0xd1, 0xcd, 0x87, 0xc8, 0xe7, 0x2e, 0xda, 0xe9,
    0xe8, 0xda, 0xb8, 0xec, 0xd6, 0xd9, 0xb7, 0xd4, 0xfb, 0x31, 0x56, 0x2c,
    0xca, 0xaf, 0xb8, 0xb6, 0xf5, 0xba, 0xdc, 0x02, 0xfa, 0x0d, 0xf4, 0xcf,
    0xf0, 0x14, 0xfc, 0xf2, 0x15, 0xf0, 0xf5, 0xbf, 0xe0, 0xf1, 0xeb, 0xf7,
    0xf0, 0x09, 0xe6, 0xa6, 0xd9, 0x05, 0x12, 0x11, 0xb4, 0x0f, 0x00, 0xf3,
    0xdb, 0x0a, 0x04, 0xfd, 0xfb, 0xff, 0xf8, 0xe4, 0xe8, 0x0c, 0xed, 0x26,
    0xfa, 0x05, 0xf8, 0x9e, 0xd3, 0x06, 0x23, 0x0f, 0x9a, 0x2a, 0x14, 0xf4,
    0xdf, 0x1f, 0x14, 0x6b, 0x69, 0x27, 0xf8, 0xe4, 0xd8, 0x0d, 0x0b, 0x7f,
    0x54, 0x1e, 0xe7, 0xb1, 0xe3, 0x04, 0x08, 0x72, 0x82, 0x0f, 0xcc, 0x8b,
    0x29, 0x19, 0x05, 0xf9, 0xf1, 0xc4, 0xc4, 0xad, 0x8c, 0xc4, 0xa5, 0xf2,
    0x04, 0xc8, 0xbd, 0xc6, 0xb5, 0xcb, 0xf9, 0x08, 0x24, 0xfd, 0x18, 0x23,
    0xf2, 0xb5, 0x88, 0x22, 0xf9, 0x22, 0x03, 0xea, 0xc3, 0x16, 0x1c, 0x0b,
    0x1c, 0x1c, 0x16, 0x1a, 0xe8, 0x13, 0x13, 0x16, 0x2a, 0x0f, 0x1d, 0x39,
    0x81, 0xe2, 0x86, 0xea, 0xb0, 0x25, 0x13, 0xc8, 0x21, 0x2c, 0x18, 0x02,
    0xed, 0x1c, 0x09, 0xed, 0xdf, 0x14, 0x0f, 0x01, 0xe6, 0xfb, 0x06, 0x11,
    0x14, 0xf1, 0xdb, 0x1f, 0x07, 0xe2, 0x0a, 0x1d, 0xfc, 0x10, 0x0a, 0x15,
    0x34, 0xf0, 0x18, 0x42, 0xf2, 0x1c, 0x0b, 0x27, 0xed, 0xec, 0xdf, 0x0d,
    0xe4, 0xe4, 0xf2, 0x16, 0xdf, 0xe6, 0xf9, 0x1b, 0xd5, 0x02, 0xe7, 0x2a,
    0x3f, 0x0e, 0x1a, 0x36, 0xc8, 0x07, 0x01, 0x33, 0x81, 0xf6, 0x05, 0x2b,
    0xa1, 0xf6, 0xc1, 0x94, 0xad, 0xf5, 0x0d, 0x11, 0xbf, 0xee, 0xe0, 0xce,
    0xba, 0xee, 0xfe, 0x33, 0xd2, 0xee, 0xe5, 0xbe, 0x0b, 0x00, 0x06, 0xe3,
    0x17, 0x05, 0x1f, 0x01, 0x01, 0x02, 0xfd, 0xd9, 0x21, 0x0c, 0x07, 0x0a,
    0xef, 0xfd, 0xf5, 0xf3, 0x0b, 0x0e, 0x1a, 0x05, 0x19, 0x1c, 0x0a, 0xe8,
    0x2f, 0x1a, 0x1e, 0x0f, 0xf9, 0xf9, 0xf7, 0xdf, 0x0d, 0x04, 0x13, 0xf8,
    0xec, 0xfc, 0xf7, 0xee, 0x0c, 0x14, 0x02, 0x05, 0x08, 0x02, 0x18, 0xeb,
    0x14, 0xfb, 0x05, 0xae, 0x81, 0x10, 0x02, 0xd6, 0x0a, 0x08, 0x0e, 0xac,
    0xea, 0xfe, 0xf7, 0xd7, 0x03, 0x03, 0xf3, 0xbf, 0x0c, 0x3c, 0x22, 0xc6,
    0x40, 0x2b, 0x3a, 0x24, 0xf3, 0x0d, 0xe1, 0xb4, 0x19, 0xee, 0x54, 0x24,
    0xfe, 0x0a, 0xe5, 0xc0, 0x3e, 0x03, 0x07, 0xfd, 0x1e, 0x06, 0x34, 0xe8,
    0x1e, 0x00, 0x2a, 0x16, 0x1c, 0xf0, 0x0f, 0xc2, 0x51, 0xea, 0x06, 0x2b,
    0xfc, 0x07, 0xf2, 0xd8, 0x32, 0xf0, 0x02, 0x05, 0x10, 0x43, 0x1f, 0xb6,
    0x01, 0xfe, 0x17, 0xb3, 0x3a, 0xec, 0xea, 0xa1, 0xf0, 0x10, 0x25, 0xcd,
    0x7f, 0x0b, 0x08, 0xc4, 0xef, 0x28, 0x20, 0xe6, 0xf9, 0x09, 0x13, 0x21,
    0x2e, 0x03, 0x36, 0xe8, 0xf2, 0x16, 0xfa, 0x05, 0xcc, 0x0a, 0xfb, 0xc5,
    0x0a, 0xe8, 0x0f, 0x32, 0xee, 0x14, 0x01, 0xe6, 0xee, 0xfd, 0x14, 0x24,
    0x33, 0xfc, 0x35, 0x38, 0xef, 0x01, 0xf9, 0xf7, 0x24, 0x05, 0x1e, 0x34,
    0x32, 0xe3, 0x00, 0x0b, 0x45, 0x0d, 0x0a, 0x10, 0x12, 0x03, 0xdd, 0x0a,
    0xf1, 0x0a, 0x0c, 0x7a, 0xfe, 0xdf, 0xdc, 0xe7, 0xf7, 0xf3, 0x00, 0x7f,
    0x7e, 0xd4, 0xc2, 0xda, 0xea, 0xc8, 0xd2, 0x5e, 0x2c, 0x0b, 0x1e, 0xfe,
    0x37, 0x11, 0x1c, 0x31, 0x2b, 0x07, 0xf8, 0xf7, 0x55, 0x05, 0x22, 0x25,
    0x46, 0x0b, 0x0f, 0x02, 0x5d, 0x1c, 0x34, 0x33, 0x1d, 0xec, 0x0c, 0xed,
    0x45, 0xeb, 0x0e, 0x42, 0x2a, 0xf0, 0x13, 0xe1, 0x42, 0xf6, 0x1b, 0x45,
    0x40, 0xf8, 0x0b, 0x00, 0x3c, 0xed, 0x13, 0x39, 0xc6, 0x01, 0xf0, 0xed,
    0x07, 0xd6, 0xbd, 0xc1, 0xc9, 0xf0, 0xe8, 0xdd, 0x0f, 0xf6, 0xd7, 0xf4,
    0x81, 0xf3, 0xe2, 0xee, 0xfd, 0xdb, 0xcd, 0x02, 0xea, 0x10, 0x0e, 0x17,
    0xd7, 0x14, 0xf4, 0xf8, 0xf0, 0x09, 0x0f, 0x19, 0xee, 0xfd, 0xfb, 0x10,
    0x07, 0x05, 0x02, 0x21, 0xe4, 0x07, 0x06, 0x1f, 0xf0, 0x0d, 0x04, 0x07,
    0xf4, 0xf7, 0xf3, 0xed, 0xf9, 0x13, 0x00, 0x08, 0xee, 0xf0, 0xef, 0x07,
    0xf2, 0x05, 0x19, 0x02, 0xe1, 0x06, 0xe3, 0x0e, 0xeb, 0xfa, 0x10, 0x00,
    0xfc, 0x0a, 0xf5, 0xdb, 0xcb, 0x0c, 0x0a, 0x18, 0xe7, 0x0d, 0xe7, 0xe1,
    0x81, 0x0f, 0x05, 0x0c, 0xdf, 0xf3, 0xf3, 0xd9, 0x08, 0x0e, 0xfa, 0xff,
    0x27, 0x08, 0x06, 0x07, 0x0e, 0x0e, 0x0b, 0xf3, 0x13, 0x0e, 0x05, 0x08,
    0x0d, 0x09, 0xfd, 0xf8, 0x1d, 0x09, 0xfd, 0xfd, 0x0a, 0xfd, 0x0a, 0xf1,
    0xfd, 0x06, 0x06, 0x05, 0xf6, 0xf7, 0x01, 0xfd, 0x04, 0xf6, 0xfa, 0x11,
    0xb6, 0xf6, 0xf6, 0xed, 0x03, 0x09, 0x03, 0x18, 0xfa, 0x13, 0x06, 0xed,
    0xe7, 0xfe, 0xeb, 0xd6, 0xf5, 0x0b, 0xf6, 0x07, 0xe1, 0xf5, 0xef, 0xf3,
    0x81, 0xf8, 0x0c, 0x01, 0xe7, 0xf9, 0xf0, 0xfb, 0x04, 0x2c, 0x01, 0xfc,
    0xd6, 0x16, 0x3c, 0x21, 0xfc, 0x41, 0x21, 0xbb, 0xb1, 0x21, 0x36, 0xfa,
    0xe0, 0xd3, 0xad, 0xa7, 0xb4, 0xbe, 0xed, 0xea, 0x1b, 0x38, 0x1d, 0x00,
    0x39, 0x41, 0x45, 0x2b, 0x3b, 0x28, 0x32, 0x16, 0xe7, 0x3d, 0x21, 0x2c,
    0x55, 0xfa, 0xd7, 0x24, 0x81, 0x1e, 0x13, 0x3b, 0xf3, 0x4c, 0x26, 0x1d,
    0x4c, 0x3f, 0x56, 0x2a, 0x0f, 0x3a, 0x2d, 0x16, 0x12, 0x48, 0x30, 0x4e,
    0x39, 0xf2, 0xea, 0x3d, 0xce, 0x0b, 0x1c, 0x2e, 0x02, 0xf1, 0xfc, 0x0a,
    0xcd, 0xd7, 0x81, 0xde, 0x14, 0xfd, 0x13, 0x02, 0x32, 0x07, 0x12, 0xff,
    0xef, 0x0e, 0x12, 0xf9, 0x23, 0x09, 0x13, 0x05, 0x11, 0xdb, 0xfe, 0x10,
    0xb5, 0xd4, 0x97, 0xe4, 0x0a, 0xf9, 0x0f, 0x04, 0x31, 0xf9, 0x05, 0xfb,
    0x02, 0x09, 0x07, 0xf4, 0x18, 0x07, 0x11, 0x02, 0x09, 0xd5, 0xf7, 0x00,
    0xd1, 0xcc, 0xba, 0xe6, 0x01, 0xf7, 0x12, 0x0d, 0x20, 0x03, 0xfc, 0xf6,
    0xd8, 0x01, 0xff, 0xf9, 0x17, 0x0d, 0x0c, 0xed, 0xa8, 0xde, 0xff, 0xff,
    0x62, 0xf8, 0xff, 0xff, 0x04, 0x00, 0x00, 0x00, 0x30, 0x00, 0x00, 0x00,
    0x00, 0x00, 0x00, 0x00, 0x00, 0x00, 0x00, 0x00, 0x00, 0x00, 0x00, 0x00,
    0x00, 0x00, 0x00, 0x00, 0x00, 0x00, 0x00, 0x00, 0x00, 0x00, 0x00, 0x00,
    0x00, 0x00, 0x00, 0x00, 0x00, 0x00, 0x00, 0x00, 0x00, 0x00, 0x00, 0x00,
    0x00, 0x00, 0x00, 0x00, 0x00, 0x00, 0x00, 0x00, 0x00, 0x00, 0x00, 0x00,
    0x9e, 0xf8, 0xff, 0xff, 0x04, 0x00, 0x00, 0x00, 0x6c, 0x00, 0x00, 0x00,
    0x5f, 0x64, 0xcc, 0x73, 0x7f, 0x3e, 0x45, 0x27, 0x28, 0x79, 0xd0, 0x59,
    0x5f, 0x70, 0xe6, 0x7f, 0x2f, 0x7f, 0x46, 0x66, 0x02, 0x0e, 0x12, 0x3e,
    0x7f, 0x60, 0x31, 0x69, 0x64, 0x4e, 0x2f, 0x7f, 0x7f, 0xb5, 0x40, 0x81,
    0x26, 0x50, 0x81, 0x74, 0x23, 0x3e, 0x09, 0x1e, 0x65, 0x2e, 0xd1, 0x26,
    0x2a, 0x53, 0x1d, 0x53, 0x55, 0x7d, 0x3c, 0x2a, 0x73, 0x81, 0x32, 0x2a,
    0x11, 0x36, 0x2a, 0x3b, 0x33, 0x16, 0x37, 0x22, 0x03, 0xb5, 0x7d, 0xbe,
    0xc5, 0x7f, 0x04, 0x3e, 0x52, 0x57, 0x7f, 0x28, 0x70, 0x6f, 0x81, 0x4d,
    0x6e, 0x4f, 0xff, 0x36, 0x56, 0x54, 0x5c, 0x3a, 0x68, 0x45, 0x89, 0x19,
    0xee, 0x5f, 0x0f, 0x73, 0x06, 0xf4, 0x79, 0x64, 0x2a, 0x1d, 0x2f, 0x0f,
    0x16, 0xf9, 0xff, 0xff, 0x04, 0x00, 0x00, 0x00, 0xc0, 0x00, 0x00, 0x00,
    0x5e, 0xec, 0x05, 0x1a, 0x82, 0x1a, 0x81, 0x93, 0x90, 0x2a, 0x9f, 0x8a,
    0x1c, 0x22, 0x81, 0x4f, 0xa8, 0xc5, 0xe3, 0x2d, 0xf6, 0x27, 0x38, 0xe6,
    0x10, 0x22, 0xdc, 0xf6, 0x33, 0xef, 0x81, 0x23, 0x36, 0x08, 0x1b, 0x03,
    0x47, 0xe6, 0x7f, 0x1a, 0x1b, 0x24, 0xd8, 0x20, 0xe8, 0x23, 0xef, 0x48,
    0xe5, 0xc9, 0xb4, 0x20, 0x12, 0xe2, 0xb5, 0x1a, 0x2e, 0xf7, 0x4d, 0x81,
    0x16, 0xe6, 0x7f, 0xdd, 0x1d, 0x32, 0x96, 0x17, 0x02, 0x16, 0xe8, 0x38,
    0x2e, 0xf9, 0x6a, 0xe5, 0x55, 0x5e, 0x12, 0xea, 0xf3, 0x23, 0xc6, 0x7f,
    0x14, 0xf7, 0x7f, 0x09, 0x05, 0xe9, 0xe1, 0x02, 0x09, 0x13, 0x27, 0x4b,
    0xea, 0xf8, 0xd7, 0x7f, 0x1b, 0x0e, 0x92, 0xff, 0x28, 0xc1, 0x2d, 0xdd,
    0x2b, 0xb1, 0x64, 0x26, 0x21, 0x2f, 0x81, 0x01, 0x03, 0x26, 0xde, 0x18,
    0xf0, 0x7f, 0xfa, 0xa8, 0xe4, 0x4b, 0x06, 0xcb, 0x3c, 0x2e, 0x93, 0x33,
    0xaa, 0x71, 0x8e, 0x26, 0xd9, 0x31, 0x05, 0x00, 0xe5, 0x12, 0x55, 0x81,
    0xfa, 0xc8, 0x8d, 0x7f, 0xdf, 0x06, 0x84, 0x2f, 0x2b, 0x2e, 0x4c, 0x9e,
    0x1b, 0x7f, 0x9b, 0xe3, 0xb5, 0xc6, 0x42, 0xb4, 0x3e, 0xf5, 0x22, 0x07,
    0x35, 0xc4, 0x7f, 0xec, 0x1c, 0x23, 0xb9, 0x1c, 0xe6, 0x06, 0xf9, 0x04,
    0x0e, 0x19, 0x0c, 0xe1, 0x3e, 0x25, 0x81, 0x19, 0x07, 0x2c, 0xde, 0x29,
    0xe2, 0xf9, 0xff, 0xff, 0x04, 0x00, 0x00, 0x00, 0x40, 0x00, 0x00, 0x00,
    0x00, 0x00, 0x00, 0x00, 0x00, 0x00, 0x00, 0x00, 0x00, 0x00, 0x00, 0x00,
    0x00, 0x00, 0x00, 0x00, 0x00, 0x00, 0x00, 0x00, 0x00, 0x00, 0x00, 0x00,
    0x00, 0x00, 0x00, 0x00, 0x00, 0x00, 0x00, 0x00, 0x00, 0x00, 0x00, 0x00,
    0x00, 0x00, 0x00, 0x00, 0x00, 0x00, 0x00, 0x00, 0x00, 0x00, 0x00, 0x00,
    0x00, 0x00, 0x00, 0x00, 0x00, 0x00, 0x00, 0x00, 0x00, 0x00, 0x00, 0x00,
    0x00, 0x00, 0x00, 0x00, 0x2e, 0xfa, 0xff, 0xff, 0x04, 0x00, 0x00, 0x00,
    0x00, 0x04, 0x00, 0x00, 0xfd, 0xba, 0x12, 0xdd, 0xe3, 0xf7, 0xd1, 0xcf,
    0x0c, 0xeb, 0x53, 0x50, 0xca, 0x7f, 0xb1, 0xe9, 0xb9, 0xc8, 0x21, 0xa8,
    0x51, 0xb8, 0xb9, 0x46, 0x03, 0x8b, 0xdd, 0xc5, 0xca, 0xb2, 0x92, 0x81,
    0xf9, 0x3d, 0xbe, 0x20, 0x30, 0x27, 0xd6, 0x81, 0xe2, 0xcc, 0x32, 0xcb,
    0x36, 0x8a, 0xb3, 0xa0, 0x1b, 0x81, 0x1d, 0x20, 0xe3, 0x2e, 0x19, 0x1c,
    0x24, 0x1e, 0x08, 0x92, 0x21, 0xd5, 0x45, 0x12, 0x81, 0xd1, 0x06, 0xdc,
    0xdf, 0xc7, 0xa6, 0x39, 0x87, 0x7d, 0x9f, 0x7d, 0x15, 0xa9, 0x31, 0x1b,
    0x13, 0x4f, 0x7d, 0x81, 0x13, 0x02, 0xd4, 0xe7, 0x7d, 0xc0, 0x9c, 0x7c,
    0x72, 0xc9, 0x08, 0xf5, 0x3e, 0x0c, 0x81, 0x60, 0xe9, 0x94, 0x3a, 0x52,
    0x1a, 0x3c, 0x9a, 0xcc, 0xe9, 0xad, 0x54, 0x25, 0x9c, 0xd7, 0xad, 0xa0,
    0x94, 0x0b, 0x1e, 0xe7, 0x8f, 0x84, 0x5e, 0x5b, 0x95, 0x89, 0x81, 0x42,
    0xfc, 0xb6, 0x23, 0x09, 0xf9, 0x40, 0xea, 0xfe, 0xf7, 0xfe, 0x28, 0x81,
    0xd6, 0xc1, 0x36, 0xec, 0xc0, 0xb4, 0x30, 0x44, 0x9b, 0x2f, 0x3a, 0xf8,
    0x45, 0x81, 0xaf, 0xac, 0x4f, 0x14, 0x41, 0xa7, 0x2a, 0x60, 0x16, 0xd9,
    0x49, 0x8a, 0xa6, 0x91, 0xd9, 0xf9, 0x59, 0x66, 0xa9, 0xa9, 0x2d, 0x81,
    0x3f, 0x15, 0xbf, 0x99, 0x01, 0xf0, 0x1f, 0x0d, 0xc0, 0xf5, 0xcd, 0x17,
    0xeb, 0x3e, 0x81, 0xbb, 0xd4, 0x28, 0x99, 0x35, 0xf6, 0xed, 0x38, 0x86,
    0x81, 0x45, 0xb3, 0x02, 0x54, 0xe2, 0x0c, 0x04, 0xae, 0x2d, 0x03, 0x28,
    0xbe, 0x2b, 0x39, 0xf0, 0x85, 0xb4, 0xd3, 0xe8, 0xfb, 0x81, 0x2c, 0x85,
    0x94, 0xff, 0x20, 0x9b, 0xb4, 0xa4, 0xa6, 0xb2, 0xae, 0x44, 0x5f, 0xfd,
    0xdc, 0xae, 0xa8, 0x7f, 0x2a, 0x81, 0x31, 0xd8, 0x0c, 0xef, 0x25, 0x1c,
    0xfe, 0xfc, 0x13, 0xe6, 0x24, 0x21, 0x44, 0x30, 0xd9, 0x81, 0x03, 0x12,
    0xc4, 0x6f, 0x5b, 0xe9, 0x26, 0x2b, 0x4a, 0x9d, 0xed, 0x00, 0x16, 0x3f,
    0x32, 0x90, 0x2e, 0x12, 0x16, 0x1c, 0x37, 0x33, 0x1b, 0x16, 0xcb, 0x81,
    0x02, 0xf8, 0x67, 0x1d, 0xd3, 0xfb, 0xe6, 0xc5, 0x69, 0x7c, 0xfe, 0x95,
    0xd4, 0x81, 0x8d, 0x5a, 0xdf, 0xc5, 0x26, 0x06, 0x25, 0xbc, 0x39, 0x41,
    0xfe, 0x45, 0x1c, 0xf6, 0x33, 0x0b, 0x16, 0x81, 0xd8, 0xda, 0x4c, 0xe3,
    0x05, 0x7f, 0x20, 0x00, 0xf3, 0x18, 0x2a, 0x24, 0x0b, 0x0d, 0xdb, 0x29,
    0x2a, 0xd0, 0xf7, 0x04, 0xf1, 0xc9, 0x30, 0x1b, 0x43, 0xd0, 0xd9, 0xc6,
    0x6c, 0x5d, 0xf2, 0x2f, 0x7f, 0x39, 0x93, 0x52, 0x13, 0x81, 0xf2, 0x2e,
    0xd4, 0x26, 0x18, 0x1d, 0x07, 0xf5, 0xf7, 0xd7, 0xee, 0x2a, 0x0d, 0xed,
    0x20, 0x81, 0x4a, 0x6c, 0x06, 0x46, 0xb6, 0xee, 0x23, 0x40, 0xc8, 0xcc,
    0x2e, 0x50, 0x19, 0xe8, 0xbf, 0xd8, 0x91, 0x81, 0xad, 0xd1, 0x63, 0x8b,
    0x49, 0x8e, 0x06, 0xe6, 0xaf, 0xeb, 0x4e, 0xa6, 0xac, 0xd1, 0x06, 0x44,
    0x2c, 0xf2, 0xfc, 0xce, 0x81, 0xfb, 0x18, 0x61, 0xb0, 0xd4, 0x24, 0xb8,
    0xe2, 0x7f, 0xf4, 0x1c, 0x20, 0xdc, 0x0f, 0x12, 0x2d, 0xf1, 0xec, 0xe4,
    0x32, 0x12, 0xf2, 0xf3, 0x1d, 0x7f, 0xfc, 0x17, 0xd6, 0x07, 0x00, 0x11,
    0x2a, 0xff, 0xe9, 0xf0, 0x1a, 0xe6, 0x68, 0xfa, 0xe3, 0x7f, 0x28, 0xe4,
    0x39, 0xc2, 0x13, 0x0a, 0x15, 0x34, 0xa9, 0xf3, 0xfd, 0x8f, 0xbe, 0x0e,
    0xe2, 0xa4, 0x94, 0x0d, 0xbd, 0x31, 0xf7, 0xcf, 0x33, 0xe3, 0x82, 0x41,
    0x81, 0x1d, 0x67, 0x58, 0xd8, 0xdf, 0x01, 0xaa, 0x02, 0xac, 0xe4, 0xfd,
    0xef, 0xde, 0x2f, 0x54, 0x2f, 0x7f, 0xbf, 0xd9, 0xe1, 0x7f, 0x0b, 0xe2,
    0x25, 0xec, 0x1d, 0x17, 0x1d, 0x0c, 0xd6, 0x01, 0x22, 0xbd, 0x0e, 0xe8,
    0x44, 0xba, 0x76, 0xad, 0xa1, 0x86, 0x3c, 0x71, 0x85, 0xea, 0x3b, 0x81,
    0xfb, 0xad, 0xb9, 0x9a, 0xb8, 0xbd, 0x91, 0xd6, 0x4a, 0xea, 0x43, 0x8b,
    0xe8, 0x52, 0x9b, 0x45, 0x07, 0x19, 0x81, 0xa3, 0xcc, 0x1d, 0x1e, 0x50,
    0x28, 0x86, 0xaa, 0xc7, 0x62, 0xfb, 0xbd, 0x69, 0x81, 0xb3, 0x25, 0x40,
    0x34, 0x3a, 0xef, 0xe1, 0xcd, 0x81, 0xf4, 0x38, 0xe3, 0x1b, 0x57, 0xef,
    0x85, 0x0c, 0xc9, 0xb2, 0x66, 0xe2, 0xdf, 0x8f, 0x3d, 0xb2, 0x43, 0x10,
    0xf3, 0xc4, 0x97, 0xfa, 0x2b, 0x81, 0xfd, 0xce, 0xd1, 0x81, 0x13, 0xf2,
    0x17, 0xdd, 0x02, 0x00, 0x13, 0xc6, 0x49, 0x47, 0xe0, 0x47, 0xa0, 0xe6,
    0x68, 0x5b, 0xc1, 0x07, 0xb7, 0xb5, 0x44, 0x34, 0x95, 0x81, 0x5d, 0xf2,
    0xe2, 0xb8, 0x31, 0x9c, 0x9b, 0x72, 0xe9, 0x11, 0xa5, 0xeb, 0x01, 0x96,
    0x8c, 0x2e, 0x9e, 0xdc, 0x42, 0xab, 0x8e, 0x81, 0x4d, 0xfc, 0x08, 0x36,
    0xbc, 0x42, 0x35, 0xcd, 0x9d, 0x23, 0xd5, 0xac, 0xd1, 0x58, 0x0e, 0x81,
    0xe0, 0x81, 0x08, 0xfd, 0x14, 0x25, 0x0f, 0xe3, 0xdc, 0xec, 0x10, 0x21,
    0x18, 0x18, 0x0c, 0x29, 0x57, 0x2f, 0x94, 0xbb, 0x12, 0x2d, 0x29, 0x15,
    0xed, 0x11, 0x3b, 0x81, 0xbc, 0xb6, 0xa9, 0x2c, 0xfc, 0x8e, 0xcb, 0x50,
    0x14, 0x45, 0x0a, 0x5a, 0x40, 0x31, 0x00, 0x81, 0x4f, 0x27, 0x48, 0x11,
    0x0c, 0xa5, 0x24, 0xc5, 0x33, 0x90, 0x81, 0xb9, 0x3c, 0xbc, 0xbe, 0xf8,
    0x20, 0xb0, 0xdb, 0xd8, 0x57, 0x3c, 0x55, 0x1d, 0x1c, 0xd7, 0xbb, 0x0b,
    0x32, 0xbf, 0x9f, 0x24, 0x81, 0xf3, 0x84, 0xc5, 0x00, 0x7f, 0x1b, 0x13,
    0x13, 0x2c, 0x28, 0x36, 0xf1, 0xe9, 0xaf, 0xd7, 0xf9, 0xd3, 0x55, 0xfc,
    0xda, 0x6e, 0xf6, 0xd3, 0x31, 0xa7, 0xbb, 0xe7, 0xf5, 0xcc, 0x2d, 0x7f,
    0x20, 0x4b, 0x08, 0x4f, 0x12, 0x08, 0x00, 0x81, 0x9b, 0xc6, 0xff, 0x05,
    0x8e, 0x51, 0xa8, 0x63, 0x14, 0xbc, 0x5e, 0x38, 0x33, 0x81, 0x21, 0x62,
    0xf4, 0x26, 0x46, 0xf0, 0x4f, 0x15, 0xed, 0x82, 0xec, 0xea, 0x1e, 0x1e,
    0x16, 0x7f, 0x2b, 0xd1, 0xf6, 0x0f, 0xe4, 0xcb, 0x3b, 0x2e, 0xf2, 0x62,
    0x31, 0x18, 0x9c, 0xd8, 0xe4, 0x65, 0x0e, 0x11, 0x0f, 0x0b, 0xe4, 0x12,
    0x33, 0xf4, 0xe8, 0xc3, 0x1e, 0xfd, 0x7f, 0xdc, 0x26, 0x69, 0x01, 0xd5,
    0x5a, 0xe6, 0x2c, 0x9a, 0x5f, 0xc8, 0x81, 0xb7, 0xb0, 0x9e, 0x0c, 0x3f,
    0x04, 0x81, 0x10, 0x5b, 0xcb, 0x15, 0x01, 0xeb, 0xcb, 0x1b, 0x2c, 0xee,
    0xe2, 0x0d, 0x1c, 0x28, 0x08, 0x91, 0xe2, 0x48, 0xe8, 0x47, 0xf0, 0x29,
    0xde, 0x14, 0xf7, 0xaf, 0xd9, 0x01, 0x7f, 0x09, 0x77, 0xaa, 0x81, 0x2c,
    0x5a, 0xae, 0xf8, 0x58, 0x8f, 0x8a, 0xcd, 0xc5, 0xd2, 0xc2, 0x52, 0xa4,
    0x7f, 0xee, 0xf9, 0x3e, 0x89, 0xbc, 0x19, 0xed, 0x97, 0xf8, 0x15, 0xa0,
    0x94, 0x8f, 0xaf, 0x66, 0x7f, 0xd5, 0xe7, 0x4b, 0x5a, 0xfc, 0xd6, 0xa9,
    0xc5, 0xf7, 0x10, 0xd3, 0x81, 0x17, 0x2d, 0xd3, 0x99, 0x00, 0xec, 0xa8,
    0x27, 0x81, 0xd7, 0xca, 0xb9, 0x09, 0x0e, 0xa3, 0x50, 0xac, 0x94, 0x8a,
    0xe6, 0x81, 0x25, 0x19, 0xfe, 0x2b, 0x27, 0xea, 0xe3, 0xec, 0x39, 0x21,
    0xe8, 0xf0, 0x10, 0x10, 0x1f, 0x81, 0x2e, 0xf1, 0x2a, 0x41, 0x0c, 0x12,
    0xe2, 0x2e, 0x05, 0xd2, 0x11, 0x01, 0x12, 0x06, 0xb8, 0x65, 0x81, 0x3e,
    0xec, 0x0d, 0x6c, 0x30, 0x84, 0x14, 0x17, 0x84, 0x8b, 0x36, 0x9d, 0xa6,
    0xec, 0x1b, 0xf7, 0xfe, 0x1b, 0xc8, 0x81, 0xed, 0x10, 0x12, 0xd0, 0x11,
    0x1f, 0x25, 0xfd, 0xc5, 0xe4, 0x51, 0x1d, 0x3b, 0xdd, 0x81, 0x4f, 0x08,
    0xa9, 0xc7, 0xa7, 0xe0, 0x51, 0xba, 0xbb, 0xaf, 0x3a, 0xfe, 0xff, 0xff,
    0x04, 0x00, 0x00, 0x00, 0x00, 0x01, 0x00, 0x00, 0xf0, 0x12, 0x00, 0x00,
    0x00, 0x00, 0x00, 0x00, 0x5d, 0xef, 0xff, 0xff, 0x7c, 0xfb, 0xff, 0xff,
    0x00, 0x00, 0x00, 0x00, 0x0a, 0xc9, 0xff, 0xff, 0x3f, 0xf3, 0xff, 0xff,
    0x63, 0xfe, 0xff, 0xff, 0xba, 0x04, 0x00, 0x00, 0x5c, 0xf1, 0xff, 0xff,
    0x82, 0xee, 0xff, 0xff, 0x1b, 0x3a, 0x00, 0x00, 0x59, 0xf3, 0xff, 0xff,
    0x32, 0xf2, 0xff, 0xff, 0x00, 0x00, 0x00, 0x00, 0x0a, 0xf9, 0xff, 0xff,
    0x6e, 0xcd, 0xff, 0xff, 0xb6, 0xf0, 0xff, 0xff, 0x00, 0x00, 0x00, 0x00,
    0xfb, 0xf5, 0xff, 0xff, 0x11, 0x0d, 0x00, 0x00, 0x6a, 0xa0, 0xff, 0xff,
    0x5c, 0x15, 0x00, 0x00, 0x5b, 0xe1, 0xff, 0xff, 0x00, 0x00, 0x00, 0x00,
    0x4b, 0xe8, 0xff, 0xff, 0x7a, 0x0c, 0x00, 0x00, 0x93, 0x00, 0x00, 0x00,
    0x28, 0x11, 0x00, 0x00, 0x00, 0x00, 0x00, 0x00, 0xa7, 0x14, 0x00, 0x00,
    0xc4, 0x0b, 0x00, 0x00, 0xb6, 0xfa, 0xff, 0xff, 0x86, 0xf1, 0xff, 0xff,
    0xe0, 0xf4, 0xff, 0xff, 0x44, 0xf2, 0xff, 0xff, 0xa8, 0xed, 0xff, 0xff,
    0x96, 0x06, 0x00, 0x00, 0xbc, 0xec, 0xff, 0xff, 0x8b, 0xf1, 0xff, 0xff,
    0x50, 0xf3, 0xff, 0xff, 0x95, 0x08, 0x00, 0x00, 0x5d, 0xf2, 0xff, 0xff,
    0x71, 0xfb, 0xff, 0xff, 0x60, 0xf9, 0xff, 0xff, 0xd4, 0xeb, 0xff, 0xff,
    0x15, 0x08, 0x00, 0x00, 0x22, 0x19, 0x00, 0x00, 0x64, 0xf3, 0xff, 0xff,
    0xbf, 0xf7, 0xff, 0xff, 0xe5, 0x10, 0x00, 0x00, 0x28, 0xff, 0xff, 0xff,
    0xf5, 0xf2, 0xff, 0xff, 0xb6, 0x1c, 0x00, 0x00, 0xdb, 0x1b, 0x00, 0x00,
    0x00, 0x00, 0x00, 0x00, 0x00, 0x00, 0x00, 0x00, 0x00, 0x00, 0x00, 0x00,
    0x48, 0xf6, 0xff, 0xff, 0x8b, 0x10, 0x00, 0x00, 0x96, 0xe3, 0xff, 0xff,
    0x9e, 0xfc, 0xff, 0xff, 0x78, 0xf6, 0xff, 0xff, 0xdb, 0xf0, 0xff, 0xff,
    0x46, 0xff, 0xff, 0xff, 0x04, 0x00, 0x00, 0x00, 0x40, 0x00, 0x00, 0x00,
    0xfb, 0xf8, 0xfd, 0xea, 0xe0, 0xde, 0xea, 0x1e, 0x4f, 0xfc, 0xfe, 0x5d,
    0xf7, 0x1b, 0x20, 0xfc, 0x7f, 0xff, 0xf7, 0xf6, 0x17, 0x91, 0xcc, 0xf1,
    0xe7, 0x03, 0x0d, 0xff, 0x10, 0x08, 0x07, 0x0a, 0xfb, 0xe7, 0xe5, 0x1f,
    0x06, 0x04, 0x14, 0x16, 0xef, 0xfb, 0x03, 0xf1, 0x06, 0xf3, 0x03, 0x14,
    0x11, 0xf7, 0x10, 0xfe, 0xe3, 0xbf, 0x9b, 0x0f, 0x10, 0x06, 0xf9, 0xe1,
    0x62, 0x01, 0xdb, 0xfd, 0x92, 0xff, 0xff, 0xff, 0x04, 0x00, 0x00, 0x00,
    0x04, 0x00, 0x00, 0x00, 0xfb, 0x08, 0x00, 0x00, 0xa2, 0xff, 0xff, 0xff,
    0x04, 0x00, 0x00, 0x00, 0x40, 0x00, 0x00, 0x00, 0x81, 0xf9, 0xf6, 0x0f,
    0xfd, 0x26, 0xf2, 0x0e, 0x2b, 0xfd, 0xfe, 0xf3, 0x0c, 0xef, 0x10, 0xf9,
    0x01, 0x0d, 0x00, 0x12, 0x13, 0xf8, 0xf8, 0xfa, 0x00, 0xff, 0x16, 0x21,
    0x12, 0xef, 0xb3, 0x19, 0xf3, 0x04, 0x0e, 0x10, 0x0c, 0x9d, 0xf5, 0x10,
    0x10, 0xe2, 0xfc, 0x12, 0xf0, 0x05, 0x24, 0xfb, 0x06, 0x12, 0x05, 0x15,
    0x04, 0xee, 0x55, 0xf5, 0x0f, 0xfc, 0xfd, 0xdb, 0x1a, 0x05, 0xe9, 0xf0,
    0xee, 0xff, 0xff, 0xff, 0x04, 0x00, 0x00, 0x00, 0x04, 0x00, 0x00, 0x00,
    0x2b, 0x02, 0x00, 0x00, 0x00, 0x00, 0x06, 0x00, 0x08, 0x00, 0x04, 0x00,
    0x06, 0x00, 0x00, 0x00, 0x04, 0x00, 0x00, 0x00, 0x08, 0x00, 0x00, 0x00,
    0x01, 0x00, 0x00, 0x00, 0x02, 0x00, 0x00, 0x00, 0x64, 0xe6, 0xff, 0xff,
    0x68, 0xe6, 0xff, 0xff, 0x0f, 0x00, 0x00, 0x00, 0x4d, 0x4c, 0x49, 0x52,
    0x20, 0x43, 0x6f, 0x6e, 0x76, 0x65, 0x72, 0x74, 0x65, 0x64, 0x2e, 0x00,
    0x01, 0x00, 0x00, 0x00, 0x14, 0x00, 0x00, 0x00, 0x00, 0x00, 0x0e, 0x00,
    0x18, 0x00, 0x14, 0x00, 0x10, 0x00, 0x0c, 0x00, 0x08, 0x00, 0x04, 0x00,
    0x0e, 0x00, 0x00, 0x00, 0x14, 0x00, 0x00, 0x00, 0x1c, 0x00, 0x00, 0x00,
    0xac, 0x02, 0x00, 0x00, 0xb4, 0x02, 0x00, 0x00, 0xb8, 0x02, 0x00, 0x00,
    0x04, 0x00, 0x00, 0x00, 0x6d, 0x61, 0x69, 0x6e, 0x00, 0x00, 0x00, 0x00,
    0x0a, 0x00, 0x00, 0x00, 0x48, 0x02, 0x00, 0x00, 0xf8, 0x01, 0x00, 0x00,
    0xa0, 0x01, 0x00, 0x00, 0x50, 0x01, 0x00, 0x00, 0x1c, 0x01, 0x00, 0x00,
    0xc8, 0x00, 0x00, 0x00, 0x90, 0x00, 0x00, 0x00, 0x6c, 0x00, 0x00, 0x00,
    0x28, 0x00, 0x00, 0x00, 0x04, 0x00, 0x00, 0x00, 0xaa, 0xff, 0xff, 0xff,
    0x0c, 0x00, 0x00, 0x00, 0x10, 0x00, 0x00, 0x00, 0x05, 0x00, 0x00, 0x00,
    0x01, 0x00, 0x00, 0x00, 0x19, 0x00, 0x00, 0x00, 0x01, 0x00, 0x00, 0x00,
    0x18, 0x00, 0x00, 0x00, 0x2a, 0xff, 0xff, 0xff, 0x14, 0x00, 0x00, 0x00,
    0x00, 0x00, 0x00, 0x08, 0x10, 0x00, 0x00, 0x00, 0x14, 0x00, 0x00, 0x00,
    0x03, 0x00, 0x00, 0x00, 0x20, 0xe7, 0xff, 0xff, 0x01, 0x00, 0x00, 0x00,
    0x18, 0x00, 0x00, 0x00, 0x03, 0x00, 0x00, 0x00, 0x15, 0x00, 0x00, 0x00,
    0x03, 0x00, 0x00, 0x00, 0x02, 0x00, 0x00, 0x00, 0x00, 0x00, 0x0a, 0x00,
    0x10, 0x00, 0x0c, 0x00, 0x08, 0x00, 0x04, 0x00, 0x0a, 0x00, 0x00, 0x00,
    0x0c, 0x00, 0x00, 0x00, 0x10, 0x00, 0x00, 0x00, 0x04, 0x00, 0x00, 0x00,
    0x01, 0x00, 0x00, 0x00, 0x17, 0x00, 0x00, 0x00, 0x01, 0x00, 0x00, 0x00,
    0x16, 0x00, 0x00, 0x00, 0x8a, 0xff, 0xff, 0xff, 0x14, 0x00, 0x00, 0x00,
    0x00, 0x00, 0x00, 0x08, 0x10, 0x00, 0x00, 0x00, 0x14, 0x00, 0x00, 0x00,
    0x03, 0x00, 0x00, 0x00, 0x80, 0xe7, 0xff, 0xff, 0x01, 0x00, 0x00, 0x00,
    0x16, 0x00, 0x00, 0x00, 0x03, 0x00, 0x00, 0x00, 0x15, 0x00, 0x00, 0x00,
    0x05, 0x00, 0x00, 0x00, 0x04, 0x00, 0x00, 0x00, 0x42, 0xff, 0xff, 0xff,
    0x1c, 0x00, 0x00, 0x00, 0x00, 0x00, 0x00, 0x08, 0x1c, 0x00, 0x00, 0x00,
    0x20, 0x00, 0x00, 0x00, 0x03, 0x00, 0x00, 0x00, 0x00, 0x00, 0x06, 0x00,
    0x08, 0x00, 0x07, 0x00, 0x06, 0x00, 0x00, 0x00, 0x00, 0x00, 0x00, 0x03,
    0x01, 0x00, 0x00, 0x00, 0x15, 0x00, 0x00, 0x00, 0x03, 0x00, 0x00, 0x00,
    0x14, 0x00, 0x00, 0x00, 0x07, 0x00, 0x00, 0x00, 0x06, 0x00, 0x00, 0x00,
    0x00, 0x00, 0x0e, 0x00, 0x18, 0x00, 0x14, 0x00, 0x10, 0x00, 0x0c, 0x00,
    0x0b, 0x00, 0x04, 0x00, 0x0e, 0x00, 0x00, 0x00, 0x14, 0x00, 0x00, 0x00,
    0x00, 0x00, 0x00, 0x1b, 0x10, 0x00, 0x00, 0x00, 0x14, 0x00, 0x00, 0x00,
    0x02, 0x00, 0x00, 0x00, 0x04, 0xe8, 0xff, 0xff, 0x01, 0x00, 0x00, 0x00,
    0x14, 0x00, 0x00, 0x00, 0x02, 0x00, 0x00, 0x00, 0x13, 0x00, 0x00, 0x00,
    0x01, 0x00, 0x00, 0x00, 0x22, 0xff, 0xff, 0xff, 0x10, 0x00, 0x00, 0x00,
    0x00, 0x00, 0x00, 0x01, 0x18, 0x00, 0x00, 0x00, 0x1c, 0x00, 0x00, 0x00,
    0x14, 0xff, 0xff, 0xff, 0x00, 0x00, 0x00, 0x03, 0x01, 0x00, 0x00, 0x00,
    0x01, 0x00, 0x00, 0x00, 0x01, 0x00, 0x00, 0x00, 0x13, 0x00, 0x00, 0x00,
    0x03, 0x00, 0x00, 0x00, 0x12, 0x00, 0x00, 0x00, 0x09, 0x00, 0x00, 0x00,
    0x08, 0x00, 0x00, 0x00, 0x00, 0x00, 0x0e, 0x00, 0x1a, 0x00, 0x14, 0x00,
    0x10, 0x00, 0x0c, 0x00, 0x0b, 0x00, 0x04, 0x00, 0x0e, 0x00, 0x00, 0x00,
    0x24, 0x00, 0x00, 0x00, 0x00, 0x00, 0x00, 0x02, 0x30, 0x00, 0x00, 0x00,
    0x34, 0x00, 0x00, 0x00, 0x01, 0x00, 0x00, 0x00, 0x00, 0x00, 0x0e, 0x00,
    0x14, 0x00, 0x00, 0x00, 0x10, 0x00, 0x0c, 0x00, 0x08, 0x00, 0x07, 0x00,
    0x0e, 0x00, 0x00, 0x00, 0x00, 0x00, 0x00, 0x03, 0x01, 0x00, 0x00, 0x00,
    0x01, 0x00, 0x00, 0x00, 0x01, 0x00, 0x00, 0x00, 0x01, 0x00, 0x00, 0x00,
    0x12, 0x00, 0x00, 0x00, 0x03, 0x00, 0x00, 0x00, 0x11, 0x00, 0x00, 0x00,
    0x0a, 0x00, 0x00, 0x00, 0x0c, 0x00, 0x00, 0x00, 0xc2, 0xff, 0xff, 0xff,
    0x10, 0x00, 0x00, 0x00, 0x00, 0x00, 0x00, 0x01, 0x18, 0x00, 0x00, 0x00,
    0x1c, 0x00, 0x00, 0x00, 0xb4, 0xff, 0xff, 0xff, 0x00, 0x00, 0x00, 0x03,
    0x01, 0x00, 0x00, 0x00, 0x01, 0x00, 0x00, 0x00, 0x01, 0x00, 0x00, 0x00,
    0x11, 0x00, 0x00, 0x00, 0x03, 0x00, 0x00, 0x00, 0x10, 0x00, 0x00, 0x00,
    0x0d, 0x00, 0x00, 0x00, 0x0b, 0x00, 0x00, 0x00, 0x00, 0x00, 0x0e, 0x00,
    0x14, 0x00, 0x00, 0x00, 0x10, 0x00, 0x0c, 0x00, 0x0b, 0x00, 0x04, 0x00,
    0x0e, 0x00, 0x00, 0x00, 0x1c, 0x00, 0x00, 0x00, 0x00, 0x00, 0x00, 0x01,
    0x24, 0x00, 0x00, 0x00, 0x28, 0x00, 0x00, 0x00, 0x0c, 0x00, 0x10, 0x00,
    0x00, 0x00, 0x0c, 0x00, 0x08, 0x00, 0x07, 0x00, 0x0c, 0x00, 0x00, 0x00,
    0x00, 0x00, 0x00, 0x03, 0x01, 0x00, 0x00, 0x00, 0x01, 0x00, 0x00, 0x00,
    0x01, 0x00, 0x00, 0x00, 0x10, 0x00, 0x00, 0x00, 0x03, 0x00, 0x00, 0x00,
    0x00, 0x00, 0x00, 0x00, 0x0f, 0x00, 0x00, 0x00, 0x0e, 0x00, 0x00, 0x00,
    0x02, 0x00, 0x00, 0x00, 0x19, 0x00, 0x00, 0x00, 0x17, 0x00, 0x00, 0x00,
    0x01, 0x00, 0x00, 0x00, 0x00, 0x00, 0x00, 0x00, 0x1a, 0x00, 0x00, 0x00,
    0xd4, 0x16, 0x00, 0x00, 0x78, 0x16, 0x00, 0x00, 0x00, 0x16, 0x00, 0x00,
    0x9c, 0x15, 0x00, 0x00, 0x38, 0x15, 0x00, 0x00, 0xd4, 0x14, 0x00, 0x00,
    0x80, 0x11, 0x00, 0x00, 0x24, 0x0e, 0x00, 0x00, 0x10, 0x0d, 0x00, 0x00,
    0xec, 0x0b, 0x00, 0x00, 0xe0, 0x0a, 0x00, 0x00, 0xe4, 0x09, 0x00, 0x00,
    0x00, 0x09, 0x00, 0x00, 0x0c, 0x08, 0x00, 0x00, 0x58, 0x07, 0x00, 0x00,
    0x94, 0x06, 0x00, 0x00, 0xd8, 0x05, 0x00, 0x00, 0x1c, 0x05, 0x00, 0x00,
    0x58, 0x04, 0x00, 0x00, 0x9c, 0x03, 0x00, 0x00, 0x08, 0x03, 0x00, 0x00,
    0x44, 0x02, 0x00, 0x00, 0xa0, 0x01, 0x00, 0x00, 0x24, 0x01, 0x00, 0x00,
    0x80, 0x00, 0x00, 0x00, 0x04, 0x00, 0x00, 0x00, 0xaa, 0xe9, 0xff, 0xff,
    0x00, 0x00, 0x00, 0x01, 0x18, 0x00, 0x00, 0x00, 0x20, 0x00, 0x00, 0x00,
    0x3c, 0x00, 0x00, 0x00, 0x1a, 0x00, 0x00, 0x00, 0x00, 0x00, 0x00, 0x09,
    0x50, 0x00, 0x00, 0x00, 0x02, 0x00, 0x00, 0x00, 0xff, 0xff, 0xff, 0xff,
    0x01, 0x00, 0x00, 0x00, 0x8c, 0xe9, 0xff, 0xff, 0x08, 0x00, 0x00, 0x00,
    0x10, 0x00, 0x00, 0x00, 0x01, 0x00, 0x00, 0x00, 0x80, 0xff, 0xff, 0xff,
    0xff, 0xff, 0xff, 0xff, 0x01, 0x00, 0x00, 0x00, 0x00, 0x00, 0x80, 0x3b,
    0x1b, 0x00, 0x00, 0x00, 0x53, 0x74, 0x61, 0x74, 0x65, 0x66, 0x75, 0x6c,
    0x50, 0x61, 0x72, 0x74, 0x69, 0x74, 0x69, 0x6f, 0x6e, 0x65, 0x64, 0x43,
    0x61, 0x6c, 0x6c, 0x5f, 0x31, 0x3a, 0x31, 0x00, 0x02, 0x00, 0x00, 0x00,
    0x01, 0x00, 0x00, 0x00, 0x01, 0x00, 0x00, 0x00, 0x22, 0xea, 0xff, 0xff,
    0x00, 0x00, 0x00, 0x01, 0x18, 0x00, 0x00, 0x00, 0x20, 0x00, 0x00, 0x00,
    0x40, 0x00, 0x00, 0x00, 0x19, 0x00, 0x00, 0x00, 0x00, 0x00, 0x00, 0x09,
    0x78, 0x00, 0x00, 0x00, 0x02, 0x00, 0x00, 0x00, 0xff, 0xff, 0xff, 0xff,
    0x01, 0x00, 0x00, 0x00, 0x04, 0xea, 0xff, 0xff, 0x08, 0x00, 0x00, 0x00,
    0x14, 0x00, 0x00, 0x00, 0x01, 0x00, 0x00, 0x00, 0x2e, 0x00, 0x00, 0x00,
    0x00, 0x00, 0x00, 0x00, 0x00, 0x00, 0x00, 0x00, 0x01, 0x00, 0x00, 0x00,
    0x51, 0x1c, 0xd0, 0x3c, 0x3e, 0x00, 0x00, 0x00, 0x66, 0x75, 0x6e, 0x63,
    0x74, 0x69, 0x6f, 0x6e, 0x61, 0x6c, 0x5f, 0x35, 0x5f, 0x31, 0x2f, 0x74,
    0x68, 0x72, 0x6f, 0x74, 0x74, 0x6c, 0x65, 0x5f, 0x31, 0x2f, 0x4d, 0x61,
    0x74, 0x4d, 0x75, 0x6c, 0x3b, 0x66, 0x75, 0x6e, 0x63, 0x74, 0x69, 0x6f,
    0x6e, 0x61, 0x6c, 0x5f, 0x35, 0x5f, 0x31, 0x2f, 0x74, 0x68, 0x72, 0x6f,
    0x74, 0x74, 0x6c, 0x65, 0x5f, 0x31, 0x2f, 0x41, 0x64, 0x64, 0x00, 0x00,
    0x02, 0x00, 0x00, 0x00, 0x01, 0x00, 0x00, 0x00, 0x01, 0x00, 0x00, 0x00,
    0xc2, 0xea, 0xff, 0xff, 0x00, 0x00, 0x00, 0x01, 0x18, 0x00, 0x00, 0x00,
    0x20, 0x00, 0x00, 0x00, 0x3c, 0x00, 0x00, 0x00, 0x18, 0x00, 0x00, 0x00,
    0x00, 0x00, 0x00, 0x09, 0x50, 0x00, 0x00, 0x00, 0x02, 0x00, 0x00, 0x00,
    0xff, 0xff, 0xff, 0xff, 0x01, 0x00, 0x00, 0x00, 0xa4, 0xea, 0xff, 0xff,
    0x08, 0x00, 0x00, 0x00, 0x10, 0x00, 0x00, 0x00, 0x01, 0x00, 0x00, 0x00,
    0x00, 0x00, 0x00, 0x00, 0x00, 0x00, 0x00, 0x00, 0x01, 0x00, 0x00, 0x00,
    0x00, 0x00, 0x00, 0x3c, 0x1b, 0x00, 0x00, 0x00, 0x53, 0x74, 0x61, 0x74,
    0x65, 0x66, 0x75, 0x6c, 0x50, 0x61, 0x72, 0x74, 0x69, 0x74, 0x69, 0x6f,
    0x6e, 0x65, 0x64, 0x43, 0x61, 0x6c, 0x6c, 0x5f, 0x31, 0x3a, 0x30, 0x00,
    0x02, 0x00, 0x00, 0x00, 0x01, 0x00, 0x00, 0x00, 0x01, 0x00, 0x00, 0x00,
    0x3a, 0xeb, 0xff, 0xff, 0x00, 0x00, 0x00, 0x01, 0x18, 0x00, 0x00, 0x00,
    0x20, 0x00, 0x00, 0x00, 0x40, 0x00, 0x00, 0x00, 0x17, 0x00, 0x00, 0x00,
    0x00, 0x00, 0x00, 0x09, 0x78, 0x00, 0x00, 0x00, 0x02, 0x00, 0x00, 0x00,
    0xff, 0xff, 0xff, 0xff, 0x01, 0x00, 0x00, 0x00, 0x1c, 0xeb, 0xff, 0xff,
    0x08, 0x00, 0x00, 0x00, 0x14, 0x00, 0x00, 0x00, 0x01, 0x00, 0x00, 0x00,
    0x03, 0x00, 0x00, 0x00, 0x00, 0x00, 0x00, 0x00, 0x00, 0x00, 0x00, 0x00,
    0x01, 0x00, 0x00, 0x00, 0x65, 0x81, 0x96, 0x3b, 0x3e, 0x00, 0x00, 0x00,
    0x66, 0x75, 0x6e, 0x63, 0x74, 0x69, 0x6f, 0x6e, 0x61, 0x6c, 0x5f, 0x35,
    0x5f, 0x31, 0x2f, 0x73, 0x74, 0x65, 0x65, 0x72, 0x69, 0x6e, 0x67, 0x5f,
    0x31, 0x2f, 0x4d, 0x61, 0x74, 0x4d, 0x75, 0x6c, 0x3b, 0x66, 0x75, 0x6e,
    0x63, 0x74, 0x69, 0x6f, 0x6e, 0x61, 0x6c, 0x5f, 0x35, 0x5f, 0x31, 0x2f,
    0x73, 0x74, 0x65, 0x65, 0x72, 0x69, 0x6e, 0x67, 0x5f, 0x31, 0x2f, 0x41,
    0x64, 0x64, 0x00, 0x00, 0x02, 0x00, 0x00, 0x00, 0x01, 0x00, 0x00, 0x00,
    0x01, 0x00, 0x00, 0x00, 0xda, 0xeb, 0xff, 0xff, 0x00, 0x00, 0x00, 0x01,
    0x18, 0x00, 0x00, 0x00, 0x20, 0x00, 0x00, 0x00, 0x3c, 0x00, 0x00, 0x00,
    0x16, 0x00, 0x00, 0x00, 0x00, 0x00, 0x00, 0x09, 0x98, 0x00, 0x00, 0x00,
    0x02, 0x00, 0x00, 0x00, 0xff, 0xff, 0xff, 0xff, 0x40, 0x00, 0x00, 0x00,
    0xbc, 0xeb, 0xff, 0xff, 0x08, 0x00, 0x00, 0x00, 0x10, 0x00, 0x00, 0x00,
    0x01, 0x00, 0x00, 0x00, 0x80, 0xff, 0xff, 0xff, 0xff, 0xff, 0xff, 0xff,
    0x01, 0x00, 0x00, 0x00, 0x32, 0x90, 0x83, 0x3b, 0x62, 0x00, 0x00, 0x00,
    0x66, 0x75, 0x6e, 0x63, 0x74, 0x69, 0x6f, 0x6e, 0x61, 0x6c, 0x5f, 0x35,
    0x5f, 0x31, 0x2f, 0x64, 0x65, 0x6e, 0x73, 0x65, 0x5f, 0x31, 0x31, 0x5f,
    0x31, 0x2f, 0x4d, 0x61, 0x74, 0x4d, 0x75, 0x6c, 0x3b, 0x66, 0x75, 0x6e,
    0x63, 0x74, 0x69, 0x6f, 0x6e, 0x61, 0x6c, 0x5f, 0x35, 0x5f, 0x31, 0x2f,
    0x64, 0x65, 0x6e, 0x73, 0x65, 0x5f, 0x31, 0x31, 0x5f, 0x31, 0x2f, 0x52,
    0x65, 0x6c, 0x75, 0x36, 0x3b, 0x66, 0x75, 0x6e, 0x63, 0x74, 0x69, 0x6f,
    0x6e, 0x61, 0x6c, 0x5f, 0x35, 0x5f, 0x31, 0x2f, 0x64, 0x65, 0x6e, 0x73,
    0x65, 0x5f, 0x31, 0x31, 0x5f, 0x31, 0x2f, 0x42, 0x69, 0x61, 0x73, 0x41,
    0x64, 0x64, 0x00, 0x00, 0x02, 0x00, 0x00, 0x00, 0x01, 0x00, 0x00, 0x00,
    0x40, 0x00, 0x00, 0x00, 0x9a, 0xec, 0xff, 0xff, 0x00, 0x00, 0x00, 0x01,
    0x18, 0x00, 0x00, 0x00, 0x20, 0x00, 0x00, 0x00, 0x3c, 0x00, 0x00, 0x00,
    0x15, 0x00, 0x00, 0x00, 0x00, 0x00, 0x00, 0x09, 0x68, 0x00, 0x00, 0x00,
    0x02, 0x00, 0x00, 0x00, 0xff, 0xff, 0xff, 0xff, 0x10, 0x00, 0x00, 0x00,
    0x7c, 0xec, 0xff, 0xff, 0x08, 0x00, 0x00, 0x00, 0x10, 0x00, 0x00, 0x00,
    0x01, 0x00, 0x00, 0x00, 0x80, 0xff, 0xff, 0xff, 0xff, 0xff, 0xff, 0xff,
    0x01, 0x00, 0x00, 0x00, 0x1e, 0xc7, 0x84, 0x3b, 0x30, 0x00, 0x00, 0x00,
    0x66, 0x75, 0x6e, 0x63, 0x74, 0x69, 0x6f, 0x6e, 0x61, 0x6c, 0x5f, 0x35,
    0x5f, 0x31, 0x2f, 0x67, 0x6c, 0x6f, 0x62, 0x61, 0x6c, 0x5f, 0x61, 0x76,
    0x65, 0x72, 0x61, 0x67, 0x65, 0x5f, 0x70, 0x6f, 0x6f, 0x6c, 0x69, 0x6e,
    0x67, 0x32, 0x64, 0x5f, 0x35, 0x5f, 0x31, 0x2f, 0x4d, 0x65, 0x61, 0x6e,
    0x00, 0x00, 0x00, 0x00, 0x02, 0x00, 0x00, 0x00, 0x01, 0x00, 0x00, 0x00,
    0x10, 0x00, 0x00, 0x00, 0x2a, 0xed, 0xff, 0xff, 0x00, 0x00, 0x00, 0x01,
    0x18, 0x00, 0x00, 0x00, 0x28, 0x00, 0x00, 0x00, 0x44, 0x00, 0x00, 0x00,
    0x14, 0x00, 0x00, 0x00, 0x00, 0x00, 0x00, 0x09, 0x88, 0x00, 0x00, 0x00,
    0x04, 0x00, 0x00, 0x00, 0xff, 0xff, 0xff, 0xff, 0x18, 0x00, 0x00, 0x00,
    0x18, 0x00, 0x00, 0x00, 0x10, 0x00, 0x00, 0x00, 0x14, 0xed, 0xff, 0xff,
    0x08, 0x00, 0x00, 0x00, 0x10, 0x00, 0x00, 0x00, 0x01, 0x00, 0x00, 0x00,
    0x80, 0xff, 0xff, 0xff, 0xff, 0xff, 0xff, 0xff, 0x01, 0x00, 0x00, 0x00,
    0xc1, 0xc0, 0xc0, 0x3c, 0x4b, 0x00, 0x00, 0x00, 0x66, 0x75, 0x6e, 0x63,
    0x74, 0x69, 0x6f, 0x6e, 0x61, 0x6c, 0x5f, 0x35, 0x5f, 0x31, 0x2f, 0x61,
    0x63, 0x74, 0x69, 0x76, 0x61, 0x74, 0x69, 0x6f, 0x6e, 0x5f, 0x32, 0x35,
    0x5f, 0x31, 0x2f, 0x52, 0x65, 0x6c, 0x75, 0x36, 0x3b, 0x66, 0x75, 0x6e,
    0x63, 0x74, 0x69, 0x6f, 0x6e, 0x61, 0x6c, 0x5f, 0x35, 0x5f, 0x31, 0x2f,
    0x63, 0x6f, 0x6e, 0x76, 0x32, 0x64, 0x5f, 0x31, 0x37, 0x5f, 0x31, 0x2f,
    0x63, 0x6f, 0x6e, 0x76, 0x6f, 0x6c, 0x75, 0x74, 0x69, 0x6f, 0x6e, 0x00,
    0x04, 0x00, 0x00, 0x00, 0x01, 0x00, 0x00, 0x00, 0x18, 0x00, 0x00, 0x00,
    0x18, 0x00, 0x00, 0x00, 0x10, 0x00, 0x00, 0x00, 0xe2, 0xed, 0xff, 0xff,
    0x00, 0x00, 0x00, 0x01, 0x18, 0x00, 0x00, 0x00, 0x28, 0x00, 0x00, 0x00,
    0x44, 0x00, 0x00, 0x00, 0x13, 0x00, 0x00, 0x00, 0x00, 0x00, 0x00, 0x09,
    0x90, 0x00, 0x00, 0x00, 0x04, 0x00, 0x00, 0x00, 0xff, 0xff, 0xff, 0xff,
    0x18, 0x00, 0x00, 0x00, 0x18, 0x00, 0x00, 0x00, 0x0c, 0x00, 0x00, 0x00,
    0xcc, 0xed, 0xff, 0xff, 0x08, 0x00, 0x00, 0x00, 0x10, 0x00, 0x00, 0x00,
    0x01, 0x00, 0x00, 0x00, 0x80, 0xff, 0xff, 0xff, 0xff, 0xff, 0xff, 0xff,
    0x01, 0x00, 0x00, 0x00, 0xc1, 0xc0, 0xc0, 0x3c, 0x52, 0x00, 0x00, 0x00,
    0x66, 0x75, 0x6e, 0x63, 0x74, 0x69, 0x6f, 0x6e, 0x61, 0x6c, 0x5f, 0x35,
    0x5f, 0x31, 0x2f, 0x61, 0x63, 0x74, 0x69, 0x76, 0x61, 0x74, 0x69, 0x6f,
    0x6e, 0x5f, 0x32, 0x34, 0x5f, 0x31, 0x2f, 0x52, 0x65, 0x6c, 0x75, 0x36,
    0x3b, 0x66, 0x75, 0x6e, 0x63, 0x74, 0x69, 0x6f, 0x6e, 0x61, 0x6c, 0x5f,
    0x35, 0x5f, 0x31, 0x2f, 0x64, 0x65, 0x70, 0x74, 0x68, 0x77, 0x69, 0x73,
    0x65, 0x5f, 0x63, 0x6f, 0x6e, 0x76, 0x32, 0x64, 0x5f, 0x35, 0x5f, 0x31,
    0x2f, 0x64, 0x65, 0x70, 0x74, 0x68, 0x77, 0x69, 0x73, 0x65, 0x00, 0x00,
    0x04, 0x00, 0x00, 0x00, 0x01, 0x00, 0x00, 0x00, 0x18, 0x00, 0x00, 0x00,
    0x18, 0x00, 0x00, 0x00, 0x0c, 0x00, 0x00, 0x00, 0xa2, 0xee, 0xff, 0xff,
    0x00, 0x00, 0x00, 0x01, 0x18, 0x00, 0x00, 0x00, 0x28, 0x00, 0x00, 0x00,
    0x44, 0x00, 0x00, 0x00, 0x12, 0x00, 0x00, 0x00, 0x00, 0x00, 0x00, 0x09,
    0x88, 0x00, 0x00, 0x00, 0x04, 0x00, 0x00, 0x00, 0xff, 0xff, 0xff, 0xff,
    0x18, 0x00, 0x00, 0x00, 0x18, 0x00, 0x00, 0x00, 0x0c, 0x00, 0x00, 0x00,
    0x8c, 0xee, 0xff, 0xff, 0x08, 0x00, 0x00, 0x00, 0x10, 0x00, 0x00, 0x00,
    0x01, 0x00, 0x00, 0x00, 0x80, 0xff, 0xff, 0xff, 0xff, 0xff, 0xff, 0xff,
    0x01, 0x00, 0x00, 0x00, 0xc1, 0xc0, 0xc0, 0x3c, 0x4b, 0x00, 0x00, 0x00,
    0x66, 0x75, 0x6e, 0x63, 0x74, 0x69, 0x6f, 0x6e, 0x61, 0x6c, 0x5f, 0x35,
    0x5f, 0x31, 0x2f, 0x61, 0x63, 0x74, 0x69, 0x76, 0x61, 0x74, 0x69, 0x6f,
    0x6e, 0x5f, 0x32, 0x33, 0x5f, 0x31, 0x2f, 0x52, 0x65, 0x6c, 0x75, 0x36,
    0x3b, 0x66, 0x75, 0x6e, 0x63, 0x74, 0x69, 0x6f, 0x6e, 0x61, 0x6c, 0x5f,
    0x35, 0x5f, 0x31, 0x2f, 0x63, 0x6f, 0x6e, 0x76, 0x32, 0x64, 0x5f, 0x31,
    0x36, 0x5f, 0x31, 0x2f, 0x63, 0x6f, 0x6e, 0x76, 0x6f, 0x6c, 0x75, 0x74,
    0x69, 0x6f, 0x6e, 0x00, 0x04, 0x00, 0x00, 0x00, 0x01, 0x00, 0x00, 0x00,
    0x18, 0x00, 0x00, 0x00, 0x18, 0x00, 0x00, 0x00, 0x0c, 0x00, 0x00, 0x00,
    0x5a, 0xef, 0xff, 0xff, 0x00, 0x00, 0x00, 0x01, 0x18, 0x00, 0x00, 0x00,
    0x28, 0x00, 0x00, 0x00, 0x44, 0x00, 0x00, 0x00, 0x11, 0x00, 0x00, 0x00,
    0x00, 0x00, 0x00, 0x09, 0x88, 0x00, 0x00, 0x00, 0x04, 0x00, 0x00, 0x00,
    0xff, 0xff, 0xff, 0xff, 0x18, 0x00, 0x00, 0x00, 0x18, 0x00, 0x00, 0x00,
    0x08, 0x00, 0x00, 0x00, 0x44, 0xef, 0xff, 0xff, 0x08, 0x00, 0x00, 0x00,
    0x10, 0x00, 0x00, 0x00, 0x01, 0x00, 0x00, 0x00, 0x80, 0xff, 0xff, 0xff,
    0xff, 0xff, 0xff, 0xff, 0x01, 0x00, 0x00, 0x00, 0x1a, 0x01, 0xac, 0x3b,
    0x4b, 0x00, 0x00, 0x00, 0x66, 0x75, 0x6e, 0x63, 0x74, 0x69, 0x6f, 0x6e,
    0x61, 0x6c, 0x5f, 0x35, 0x5f, 0x31, 0x2f, 0x61, 0x63, 0x74, 0x69, 0x76,
    0x61, 0x74, 0x69, 0x6f, 0x6e, 0x5f, 0x32, 0x32, 0x5f, 0x31, 0x2f, 0x52,
    0x65, 0x6c, 0x75, 0x36, 0x3b, 0x66, 0x75, 0x6e, 0x63, 0x74, 0x69, 0x6f,
    0x6e, 0x61, 0x6c, 0x5f, 0x35, 0x5f, 0x31, 0x2f, 0x63, 0x6f, 0x6e, 0x76,
    0x32, 0x64, 0x5f, 0x31, 0x35, 0x5f, 0x31, 0x2f, 0x63, 0x6f, 0x6e, 0x76,
    0x6f, 0x6c, 0x75, 0x74, 0x69, 0x6f, 0x6e, 0x00, 0x04, 0x00, 0x00, 0x00,
    0x01, 0x00, 0x00, 0x00, 0x18, 0x00, 0x00, 0x00, 0x18, 0x00, 0x00, 0x00,
    0x08, 0x00, 0x00, 0x00, 0x6a, 0xf0, 0xff, 0xff, 0x00, 0x00, 0x00, 0x01,
    0x14, 0x00, 0x00, 0x00, 0x88, 0x00, 0x00, 0x00, 0x10, 0x00, 0x00, 0x00,
    0x00, 0x00, 0x00, 0x09, 0x94, 0x00, 0x00, 0x00, 0xe4, 0xef, 0xff, 0xff,
    0x08, 0x00, 0x00, 0x00, 0x4c, 0x00, 0x00, 0x00, 0x08, 0x00, 0x00, 0x00,
    0x00, 0x00, 0x00, 0x00, 0x00, 0x00, 0x00, 0x00, 0x00, 0x00, 0x00, 0x00,
    0x00, 0x00, 0x00, 0x00, 0x00, 0x00, 0x00, 0x00, 0x00, 0x00, 0x00, 0x00,
    0x00, 0x00, 0x00, 0x00, 0x00, 0x00, 0x00, 0x00, 0x00, 0x00, 0x00, 0x00,
    0x00, 0x00, 0x00, 0x00, 0x00, 0x00, 0x00, 0x00, 0x00, 0x00, 0x00, 0x00,
    0x00, 0x00, 0x00, 0x00, 0x00, 0x00, 0x00, 0x00, 0x00, 0x00, 0x00, 0x00,
    0x00, 0x00, 0x00, 0x00, 0x00, 0x00, 0x00, 0x00, 0x08, 0x00, 0x00, 0x00,
    0x50, 0x03, 0x16, 0x3c, 0xff, 0xc0, 0x2b, 0x3b, 0xc6, 0x44, 0x3a, 0x3b,
    0xd0, 0x96, 0x26, 0x3b, 0x9f, 0x23, 0x52, 0x3b, 0x01, 0xb3, 0x33, 0x3b,
    0x88, 0x87, 0x0a, 0x3b, 0x28, 0xcc, 0x3c, 0x3b, 0x13, 0x00, 0x00, 0x00,
    0x74, 0x66, 0x6c, 0x2e, 0x70, 0x73, 0x65, 0x75, 0x64, 0x6f, 0x5f, 0x71,
    0x63, 0x6f, 0x6e, 0x73, 0x74, 0x31, 0x33, 0x00, 0x04, 0x00, 0x00, 0x00,
    0x08, 0x00, 0x00, 0x00, 0x03, 0x00, 0x00, 0x00, 0x03, 0x00, 0x00, 0x00,
    0x01, 0x00, 0x00, 0x00, 0x2a, 0xf1, 0xff, 0xff, 0x00, 0x00, 0x00, 0x01,
    0x14, 0x00, 0x00, 0x00, 0x84, 0x00, 0x00, 0x00, 0x0f, 0x00, 0x00, 0x00,
    0x00, 0x00, 0x00, 0x02, 0x90, 0x00, 0x00, 0x00, 0xa4, 0xf0, 0xff, 0xff,
    0x08, 0x00, 0x00, 0x00, 0x48, 0x00, 0x00, 0x00, 0x08, 0x00, 0x00, 0x00,
    0x00, 0x00, 0x00, 0x00, 0x00, 0x00, 0x00, 0x00, 0x00, 0x00, 0x00, 0x00,
    0x00, 0x00, 0x00, 0x00, 0x00, 0x00, 0x00, 0x00, 0x00, 0x00, 0x00, 0x00,
    0x00, 0x00, 0x00, 0x00, 0x00, 0x00, 0x00, 0x00, 0x00, 0x00, 0x00, 0x00,
    0x00, 0x00, 0x00, 0x00, 0x00, 0x00, 0x00, 0x00, 0x00, 0x00, 0x00, 0x00,
    0x00, 0x00, 0x00, 0x00, 0x00, 0x00, 0x00, 0x00, 0x00, 0x00, 0x00, 0x00,
    0x00, 0x00, 0x00, 0x00, 0x08, 0x00, 0x00, 0x00, 0xea, 0x99, 0x16, 0x38,
    0x6d, 0x6d, 0x2c, 0x37, 0xc6, 0xff, 0x3a, 0x37, 0x0f, 0x3e, 0x27, 0x37,
    0x96, 0xf6, 0x52, 0x37, 0x69, 0x67, 0x34, 0x37, 0x9b, 0x12, 0x0b, 0x37,
    0xb2, 0x89, 0x3d, 0x37, 0x13, 0x00, 0x00, 0x00, 0x74, 0x66, 0x6c, 0x2e,
    0x70, 0x73, 0x65, 0x75, 0x64, 0x6f, 0x5f, 0x71, 0x63, 0x6f, 0x6e, 0x73,
    0x74, 0x31, 0x32, 0x00, 0x01, 0x00, 0x00, 0x00, 0x08, 0x00, 0x00, 0x00,
    0xda, 0xf1, 0xff, 0xff, 0x00, 0x00, 0x00, 0x01, 0x14, 0x00, 0x00, 0x00,
    0xb8, 0x00, 0x00, 0x00, 0x0e, 0x00, 0x00, 0x00, 0x00, 0x00, 0x00, 0x09,
    0xc4, 0x00, 0x00, 0x00, 0x54, 0xf1, 0xff, 0xff, 0x08, 0x00, 0x00, 0x00,
    0x6c, 0x00, 0x00, 0x00, 0x0c, 0x00, 0x00, 0x00, 0x00, 0x00, 0x00, 0x00,
    0x00, 0x00, 0x00, 0x00, 0x00, 0x00, 0x00, 0x00, 0x00, 0x00, 0x00, 0x00,
    0x00, 0x00, 0x00, 0x00, 0x00, 0x00, 0x00, 0x00, 0x00, 0x00, 0x00, 0x00,
    0x00, 0x00, 0x00, 0x00, 0x00, 0x00, 0x00, 0x00, 0x00, 0x00, 0x00, 0x00,
    0x00, 0x00, 0x00, 0x00, 0x00, 0x00, 0x00, 0x00, 0x00, 0x00, 0x00, 0x00,
    0x00, 0x00, 0x00, 0x00, 0x00, 0x00, 0x00, 0x00, 0x00, 0x00, 0x00, 0x00,
    0x00, 0x00, 0x00, 0x00, 0x00, 0x00, 0x00, 0x00, 0x00, 0x00, 0x00, 0x00,
    0x00, 0x00, 0x00, 0x00, 0x00, 0x00, 0x00, 0x00, 0x00, 0x00, 0x00, 0x00,
    0x00, 0x00, 0x00, 0x00, 0x00, 0x00, 0x00, 0x00, 0x00, 0x00, 0x00, 0x00,
    0x0c, 0x00, 0x00, 0x00, 0x06, 0x7e, 0x42, 0x3b, 0x45, 0x31, 0xff, 0x3b,
    0x15, 0x5f, 0x83, 0x3c, 0xb1, 0x72, 0x00, 0x3c, 0xb6, 0xe9, 0x29, 0x3c,
    0xe0, 0x77, 0x96, 0x3b, 0x36, 0x5d, 0x23, 0x3c, 0x63, 0x57, 0x0b, 0x3c,
    0x63, 0x0e, 0x1c, 0x3c, 0xf5, 0xe6, 0x62, 0x3c, 0x54, 0x4d, 0x12, 0x3c,
    0x5e, 0x8c, 0x8a, 0x3c, 0x13, 0x00, 0x00, 0x00, 0x74, 0x66, 0x6c, 0x2e,
    0x70, 0x73, 0x65, 0x75, 0x64, 0x6f, 0x5f, 0x71, 0x63, 0x6f, 0x6e, 0x73,
    0x74, 0x31, 0x31, 0x00, 0x04, 0x00, 0x00, 0x00, 0x0c, 0x00, 0x00, 0x00,
    0x03, 0x00, 0x00, 0x00, 0x03, 0x00, 0x00, 0x00, 0x08, 0x00, 0x00, 0x00,
    0xca, 0xf2, 0xff, 0xff, 0x00, 0x00, 0x00, 0x01, 0x14, 0x00, 0x00, 0x00,
    0xb4, 0x00, 0x00, 0x00, 0x0c, 0x00, 0x00, 0x00, 0x00, 0x00, 0x00, 0x02,
    0xc0, 0x00, 0x00, 0x00, 0x44, 0xf2, 0xff, 0xff, 0x08, 0x00, 0x00, 0x00,
    0x68, 0x00, 0x00, 0x00, 0x0c, 0x00, 0x00, 0x00, 0x00, 0x00, 0x00, 0x00,
    0x00, 0x00, 0x00, 0x00, 0x00, 0x00, 0x00, 0x00, 0x00, 0x00, 0x00, 0x00,
    0x00, 0x00, 0x00, 0x00, 0x00, 0x00, 0x00, 0x00, 0x00, 0x00, 0x00, 0x00,
    0x00, 0x00, 0x00, 0x00, 0x00, 0x00, 0x00, 0x00, 0x00, 0x00, 0x00, 0x00,
    0x00, 0x00, 0x00, 0x00, 0x00, 0x00, 0x00, 0x00, 0x00, 0x00, 0x00, 0x00,
    0x00, 0x00, 0x00, 0x00, 0x00, 0x00, 0x00, 0x00, 0x00, 0x00, 0x00, 0x00,
    0x00, 0x00, 0x00, 0x00, 0x00, 0x00, 0x00, 0x00, 0x00, 0x00, 0x00, 0x00,
    0x00, 0x00, 0x00, 0x00, 0x00, 0x00, 0x00, 0x00, 0x00, 0x00, 0x00, 0x00,
    0x00, 0x00, 0x00, 0x00, 0x00, 0x00, 0x00, 0x00, 0x0c, 0x00, 0x00, 0x00,
    0xcd, 0xe1, 0xbc, 0x38, 0x06, 0x2a, 0x08, 0x39, 0xfc, 0x30, 0xc6, 0x39,
    0x11, 0x01, 0xd1, 0x38, 0xa4, 0xfc, 0xcd, 0x38, 0x41, 0xf8, 0xb9, 0x38,
    0xbc, 0xd1, 0x89, 0x39, 0xb1, 0x34, 0xab, 0x38, 0xb0, 0x26, 0x55, 0x38,
    0x9e, 0x59, 0x38, 0x38, 0x73, 0x92, 0xab, 0x38, 0x70, 0x30, 0x0d, 0x39,
    0x13, 0x00, 0x00, 0x00, 0x74, 0x66, 0x6c, 0x2e, 0x70, 0x73, 0x65, 0x75,
    0x64, 0x6f, 0x5f, 0x71, 0x63, 0x6f, 0x6e, 0x73, 0x74, 0x31, 0x30, 0x00,
    0x01, 0x00, 0x00, 0x00, 0x0c, 0x00, 0x00, 0x00, 0xaa, 0xf3, 0xff, 0xff,
    0x00, 0x00, 0x00, 0x01, 0x14, 0x00, 0x00, 0x00, 0xb4, 0x00, 0x00, 0x00,
    0x0c, 0x00, 0x00, 0x00, 0x00, 0x00, 0x00, 0x02, 0xc0, 0x00, 0x00, 0x00,
    0x24, 0xf3, 0xff, 0xff, 0x08, 0x00, 0x00, 0x00, 0x68, 0x00, 0x00, 0x00,
    0x0c, 0x00, 0x00, 0x00, 0x00, 0x00, 0x00, 0x00, 0x00, 0x00, 0x00, 0x00,
    0x00, 0x00, 0x00, 0x00, 0x00, 0x00, 0x00, 0x00, 0x00, 0x00, 0x00, 0x00,
    0x00, 0x00, 0x00, 0x00, 0x00, 0x00, 0x00, 0x00, 0x00, 0x00, 0x00, 0x00,
    0x00, 0x00, 0x00, 0x00, 0x00, 0x00, 0x00, 0x00, 0x00, 0x00, 0x00, 0x00,
    0x00, 0x00, 0x00, 0x00, 0x00, 0x00, 0x00, 0x00, 0x00, 0x00, 0x00, 0x00,
    0x00, 0x00, 0x00, 0x00, 0x00, 0x00, 0x00, 0x00, 0x00, 0x00, 0x00, 0x00,
    0x00, 0x00, 0x00, 0x00, 0x00, 0x00, 0x00, 0x00, 0x00, 0x00, 0x00, 0x00,
    0x00, 0x00, 0x00, 0x00, 0x00, 0x00, 0x00, 0x00, 0x00, 0x00, 0x00, 0x00,
    0x00, 0x00, 0x00, 0x00, 0x0c, 0x00, 0x00, 0x00, 0x82, 0xad, 0x82, 0x37,
    0x33, 0x76, 0x2b, 0x38, 0xe6, 0x88, 0xb0, 0x38, 0x39, 0x9b, 0x2c, 0x38,
    0x83, 0x53, 0x64, 0x38, 0x61, 0x32, 0xca, 0x37, 0xa8, 0x86, 0x5b, 0x38,
    0xa0, 0x3e, 0x3b, 0x38, 0xad, 0xb4, 0x51, 0x38, 0x27, 0x74, 0x98, 0x38,
    0x2b, 0x99, 0x44, 0x38, 0xd0, 0x2d, 0xba, 0x38, 0x12, 0x00, 0x00, 0x00,
    0x74, 0x66, 0x6c, 0x2e, 0x70, 0x73, 0x65, 0x75, 0x64, 0x6f, 0x5f, 0x71,
    0x63, 0x6f, 0x6e, 0x73, 0x74, 0x39, 0x00, 0x00, 0x01, 0x00, 0x00, 0x00,
    0x0c, 0x00, 0x00, 0x00, 0x00, 0x00, 0x16, 0x00, 0x1e, 0x00, 0x18, 0x00,
    0x17, 0x00, 0x10, 0x00, 0x0c, 0x00, 0x08, 0x00, 0x00, 0x00, 0x00, 0x00,
    0x00, 0x00, 0x07, 0x00, 0x16, 0x00, 0x00, 0x00, 0x00, 0x00, 0x00, 0x01,
    0x28, 0x00, 0x00, 0x00, 0xd0, 0x00, 0x00, 0x00, 0x0b, 0x00, 0x00, 0x00,
    0x00, 0x00, 0x00, 0x09, 0xdc, 0x00, 0x00, 0x00, 0x00, 0x00, 0x12, 0x00,
    0x10, 0x00, 0x00, 0x00, 0x00, 0x00, 0x0c, 0x00, 0x08, 0x00, 0x00, 0x00,
    0x00, 0x00, 0x04, 0x00, 0x12, 0x00, 0x00, 0x00, 0x03, 0x00, 0x00, 0x00,
    0x08, 0x00, 0x00, 0x00, 0x6c, 0x00, 0x00, 0x00, 0x0c, 0x00, 0x00, 0x00,
    0x00, 0x00, 0x00, 0x00, 0x00, 0x00, 0x00, 0x00, 0x00, 0x00, 0x00, 0x00,
    0x00, 0x00, 0x00, 0x00, 0x00, 0x00, 0x00, 0x00, 0x00, 0x00, 0x00, 0x00,
    0x00, 0x00, 0x00, 0x00, 0x00, 0x00, 0x00, 0x00, 0x00, 0x00, 0x00, 0x00,
    0x00, 0x00, 0x00, 0x00, 0x00, 0x00, 0x00, 0x00, 0x00, 0x00, 0x00, 0x00,
    0x00, 0x00, 0x00, 0x00, 0x00, 0x00, 0x00, 0x00, 0x00, 0x00, 0x00, 0x00,
    0x00, 0x00, 0x00, 0x00, 0x00, 0x00, 0x00, 0x00, 0x00, 0x00, 0x00, 0x00,
    0x00, 0x00, 0x00, 0x00, 0x00, 0x00, 0x00, 0x00, 0x00, 0x00, 0x00, 0x00,
    0x00, 0x00, 0x00, 0x00, 0x00, 0x00, 0x00, 0x00, 0x00, 0x00, 0x00, 0x00,
    0x00, 0x00, 0x00, 0x00, 0x0c, 0x00, 0x00, 0x00, 0xe4, 0xdb, 0x7a, 0x3b,
    0xd0, 0xd7, 0xb4, 0x3b, 0x87, 0x9c, 0x83, 0x3c, 0xb5, 0xca, 0x8a, 0x3b,
    0xc5, 0xc9, 0x88, 0x3b, 0xb6, 0xfd, 0x76, 0x3b, 0x8d, 0x0a, 0x37, 0x3c,
    0xfb, 0x61, 0x63, 0x3b, 0xb1, 0x8b, 0x0d, 0x3b, 0x05, 0xd7, 0xf4, 0x3a,
    0x80, 0xde, 0x63, 0x3b, 0x54, 0x84, 0xbb, 0x3b, 0x12, 0x00, 0x00, 0x00,
    0x74, 0x66, 0x6c, 0x2e, 0x70, 0x73, 0x65, 0x75, 0x64, 0x6f, 0x5f, 0x71,
    0x63, 0x6f, 0x6e, 0x73, 0x74, 0x38, 0x00, 0x00, 0x04, 0x00, 0x00, 0x00,
    0x01, 0x00, 0x00, 0x00, 0x03, 0x00, 0x00, 0x00, 0x03, 0x00, 0x00, 0x00,
    0x0c, 0x00, 0x00, 0x00, 0xaa, 0xf5, 0xff, 0xff, 0x00, 0x00, 0x00, 0x01,
    0x14, 0x00, 0x00, 0x00, 0xe8, 0x00, 0x00, 0x00, 0x0a, 0x00, 0x00, 0x00,
    0x00, 0x00, 0x00, 0x09, 0xf4, 0x00, 0x00, 0x00, 0x24, 0xf5, 0xff, 0xff,
    0x08, 0x00, 0x00, 0x00, 0x8c, 0x00, 0x00, 0x00, 0x10, 0x00, 0x00, 0x00,
    0x00, 0x00, 0x00, 0x00, 0x00, 0x00, 0x00, 0x00, 0x00, 0x00, 0x00, 0x00,
    0x00, 0x00, 0x00, 0x00, 0x00, 0x00, 0x00, 0x00, 0x00, 0x00, 0x00, 0x00,
    0x00, 0x00, 0x00, 0x00, 0x00, 0x00, 0x00, 0x00, 0x00, 0x00, 0x00, 0x00,
    0x00, 0x00, 0x00, 0x00, 0x00, 0x00, 0x00, 0x00, 0x00, 0x00, 0x00, 0x00,
    0x00, 0x00, 0x00, 0x00, 0x00, 0x00, 0x00, 0x00, 0x00, 0x00, 0x00, 0x00,
    0x00, 0x00, 0x00, 0x00, 0x00, 0x00, 0x00, 0x00, 0x00, 0x00, 0x00, 0x00,
    0x00, 0x00, 0x00, 0x00, 0x00, 0x00, 0x00, 0x00, 0x00, 0x00, 0x00, 0x00,
    0x00, 0x00, 0x00, 0x00, 0x00, 0x00, 0x00, 0x00, 0x00, 0x00, 0x00, 0x00,
    0x00, 0x00, 0x00, 0x00, 0x00, 0x00, 0x00, 0x00, 0x00, 0x00, 0x00, 0x00,
    0x00, 0x00, 0x00, 0x00, 0x00, 0x00, 0x00, 0x00, 0x00, 0x00, 0x00, 0x00,
    0x00, 0x00, 0x00, 0x00, 0x00, 0x00, 0x00, 0x00, 0x00, 0x00, 0x00, 0x00,
    0x10, 0x00, 0x00, 0x00, 0xaa, 0xe6, 0x65, 0x3b, 0x43, 0xfe, 0x32, 0x3c,
    0x8a, 0xa0, 0x08, 0x3c, 0x54, 0x1a, 0x16, 0x3c, 0xf3, 0x0f, 0x20, 0x3c,
    0x0b, 0xbe, 0x58, 0x3c, 0xf9, 0xd0, 0x92, 0x3b, 0x85, 0xa6, 0x1a, 0x3c,
    0xef, 0x63, 0xe5, 0x3b, 0xb3, 0xbf, 0x32, 0x3c, 0xad, 0x4e, 0x13, 0x3c,
    0xf3, 0x43, 0x17, 0x3c, 0xbe, 0x13, 0x0e, 0x3c, 0xdf, 0x65, 0xdd, 0x3b,
    0xf6, 0xc9, 0x47, 0x3c, 0x87, 0x01, 0x0a, 0x3c, 0x12, 0x00, 0x00, 0x00,
    0x74, 0x66, 0x6c, 0x2e, 0x70, 0x73, 0x65, 0x75, 0x64, 0x6f, 0x5f, 0x71,
    0x63, 0x6f, 0x6e, 0x73, 0x74, 0x37, 0x00, 0x00, 0x04, 0x00, 0x00, 0x00,
    0x10, 0x00, 0x00, 0x00, 0x01, 0x00, 0x00, 0x00, 0x01, 0x00, 0x00, 0x00,
    0x0c, 0x00, 0x00, 0x00, 0xca, 0xf6, 0xff, 0xff, 0x00, 0x00, 0x00, 0x01,
    0x14, 0x00, 0x00, 0x00, 0xe4, 0x00, 0x00, 0x00, 0x09, 0x00, 0x00, 0x00,
    0x00, 0x00, 0x00, 0x02, 0xf0, 0x00, 0x00, 0x00, 0x44, 0xf6, 0xff, 0xff,
    0x08, 0x00, 0x00, 0x00, 0x88, 0x00, 0x00, 0x00, 0x10, 0x00, 0x00, 0x00,
    0x00, 0x00, 0x00, 0x00, 0x00, 0x00, 0x00, 0x00, 0x00, 0x00, 0x00, 0x00,
    0x00, 0x00, 0x00, 0x00, 0x00, 0x00, 0x00, 0x00, 0x00, 0x00, 0x00, 0x00,
    0x00, 0x00, 0x00, 0x00, 0x00, 0x00, 0x00, 0x00, 0x00, 0x00, 0x00, 0x00,
    0x00, 0x00, 0x00, 0x00, 0x00, 0x00, 0x00, 0x00, 0x00, 0x00, 0x00, 0x00,
    0x00, 0x00, 0x00, 0x00, 0x00, 0x00, 0x00, 0x00, 0x00, 0x00, 0x00, 0x00,
    0x00, 0x00, 0x00, 0x00, 0x00, 0x00, 0x00, 0x00, 0x00, 0x00, 0x00, 0x00,
    0x00, 0x00, 0x00, 0x00, 0x00, 0x00, 0x00, 0x00, 0x00, 0x00, 0x00, 0x00,
    0x00, 0x00, 0x00, 0x00, 0x00, 0x00, 0x00, 0x00, 0x00, 0x00, 0x00, 0x00,
    0x00, 0x00, 0x00, 0x00, 0x00, 0x00, 0x00, 0x00, 0x00, 0x00, 0x00, 0x00,
    0x00, 0x00, 0x00, 0x00, 0x00, 0x00, 0x00, 0x00, 0x00, 0x00, 0x00, 0x00,
    0x00, 0x00, 0x00, 0x00, 0x00, 0x00, 0x00, 0x00, 0x10, 0x00, 0x00, 0x00,
    0x1a, 0x1a, 0xad, 0x38, 0x78, 0xc5, 0x86, 0x39, 0x8e, 0xbe, 0x4d, 0x39,
    0x88, 0x09, 0x62, 0x39, 0xf6, 0x08, 0x71, 0x39, 0xba, 0x31, 0xa3, 0x39,
    0x8c, 0x16, 0xdd, 0x38, 0xaa, 0xe2, 0x68, 0x39, 0xab, 0xb7, 0x2c, 0x39,
    0x5d, 0x96, 0x86, 0x39, 0xd8, 0xd3, 0x5d, 0x39, 0xb7, 0xc9, 0x63, 0x39,
    0x91, 0xf3, 0x55, 0x39, 0x1b, 0xb3, 0x26, 0x39, 0xe7, 0x6d, 0x96, 0x39,
    0x1d, 0xd2, 0x4f, 0x39, 0x12, 0x00, 0x00, 0x00, 0x74, 0x66, 0x6c, 0x2e,
    0x70, 0x73, 0x65, 0x75, 0x64, 0x6f, 0x5f, 0x71, 0x63, 0x6f, 0x6e, 0x73,
    0x74, 0x36, 0x00, 0x00, 0x01, 0x00, 0x00, 0x00, 0x10, 0x00, 0x00, 0x00,
    0xda, 0xf7, 0xff, 0xff, 0x00, 0x00, 0x00, 0x01, 0x14, 0x00, 0x00, 0x00,
    0x28, 0x03, 0x00, 0x00, 0x08, 0x00, 0x00, 0x00, 0x00, 0x00, 0x00, 0x09,
    0x34, 0x03, 0x00, 0x00, 0x54, 0xf7, 0xff, 0xff, 0x08, 0x00, 0x00, 0x00,
    0x0c, 0x02, 0x00, 0x00, 0x40, 0x00, 0x00, 0x00, 0x00, 0x00, 0x00, 0x00,
    0x00, 0x00, 0x00, 0x00, 0x00, 0x00, 0x00, 0x00, 0x00, 0x00, 0x00, 0x00,
    0x00, 0x00, 0x00, 0x00, 0x00, 0x00, 0x00, 0x00, 0x00, 0x00, 0x00, 0x00,
    0x00, 0x00, 0x00, 0x00, 0x00, 0x00, 0x00, 0x00, 0x00, 0x00, 0x00, 0x00,
    0x00, 0x00, 0x00, 0x00, 0x00, 0x00, 0x00, 0x00, 0x00, 0x00, 0x00, 0x00,
    0x00, 0x00, 0x00, 0x00, 0x00, 0x00, 0x00, 0x00, 0x00, 0x00, 0x00, 0x00,
    0x00, 0x00, 0x00, 0x00, 0x00, 0x00, 0x00, 0x00, 0x00, 0x00, 0x00, 0x00,
    0x00, 0x00, 0x00, 0x00, 0x00, 0x00, 0x00, 0x00, 0x00, 0x00, 0x00, 0x00,
    0x00, 0x00, 0x00, 0x00, 0x00, 0x00, 0x00, 0x00, 0x00, 0x00, 0x00, 0x00,
    0x00, 0x00, 0x00, 0x00, 0x00, 0x00, 0x00, 0x00, 0x00, 0x00, 0x00, 0x00,
    0x00, 0x00, 0x00, 0x00, 0x00, 0x00, 0x00, 0x00, 0x00, 0x00, 0x00, 0x00,
    0x00, 0x00, 0x00, 0x00, 0x00, 0x00, 0x00, 0x00, 0x00, 0x00, 0x00, 0x00,
    0x00, 0x00, 0x00, 0x00, 0x00, 0x00, 0x00, 0x00, 0x00, 0x00, 0x00, 0x00,
    0x00, 0x00, 0x00, 0x00, 0x00, 0x00, 0x00, 0x00, 0x00, 0x00, 0x00, 0x00,
    0x00, 0x00, 0x00, 0x00, 0x00, 0x00, 0x00, 0x00, 0x00, 0x00, 0x00, 0x00,
    0x00, 0x00, 0x00, 0x00, 0x00, 0x00, 0x00, 0x00, 0x00, 0x00, 0x00, 0x00,
    0x00, 0x00, 0x00, 0x00, 0x00, 0x00, 0x00, 0x00, 0x00, 0x00, 0x00, 0x00,
    0x00, 0x00, 0x00, 0x00, 0x00, 0x00, 0x00, 0x00, 0x00, 0x00, 0x00, 0x00,
    0x00, 0x00, 0x00, 0x00, 0x00, 0x00, 0x00, 0x00, 0x00, 0x00, 0x00, 0x00,
    0x00, 0x00, 0x00, 0x00, 0x00, 0x00, 0x00, 0x00, 0x00, 0x00, 0x00, 0x00,
    0x00, 0x00, 0x00, 0x00, 0x00, 0x00, 0x00, 0x00, 0x00, 0x00, 0x00, 0x00,
    0x00, 0x00, 0x00, 0x00, 0x00, 0x00, 0x00, 0x00, 0x00, 0x00, 0x00, 0x00,
    0x00, 0x00, 0x00, 0x00, 0x00, 0x00, 0x00, 0x00, 0x00, 0x00, 0x00, 0x00,
    0x00, 0x00, 0x00, 0x00, 0x00, 0x00, 0x00, 0x00, 0x00, 0x00, 0x00, 0x00,
    0x00, 0x00, 0x00, 0x00, 0x00, 0x00, 0x00, 0x00, 0x00, 0x00, 0x00, 0x00,
    0x00, 0x00, 0x00, 0x00, 0x00, 0x00, 0x00, 0x00, 0x00, 0x00, 0x00, 0x00,
    0x00, 0x00, 0x00, 0x00, 0x00, 0x00, 0x00, 0x00, 0x00, 0x00, 0x00, 0x00,
    0x00, 0x00, 0x00, 0x00, 0x00, 0x00, 0x00, 0x00, 0x00, 0x00, 0x00, 0x00,
    0x00, 0x00, 0x00, 0x00, 0x00, 0x00, 0x00, 0x00, 0x00, 0x00, 0x00, 0x00,
    0x00, 0x00, 0x00, 0x00, 0x00, 0x00, 0x00, 0x00, 0x00, 0x00, 0x00, 0x00,
    0x00, 0x00, 0x00, 0x00, 0x00, 0x00, 0x00, 0x00, 0x00, 0x00, 0x00, 0x00,
    0x00, 0x00, 0x00, 0x00, 0x00, 0x00, 0x00, 0x00, 0x00, 0x00, 0x00, 0x00,
    0x00, 0x00, 0x00, 0x00, 0x00, 0x00, 0x00, 0x00, 0x00, 0x00, 0x00, 0x00,
    0x00, 0x00, 0x00, 0x00, 0x00, 0x00, 0x00, 0x00, 0x00, 0x00, 0x00, 0x00,
    0x00, 0x00, 0x00, 0x00, 0x00, 0x00, 0x00, 0x00, 0x00, 0x00, 0x00, 0x00,
    0x00, 0x00, 0x00, 0x00, 0x00, 0x00, 0x00, 0x00, 0x00, 0x00, 0x00, 0x00,
    0x00, 0x00, 0x00, 0x00, 0x00, 0x00, 0x00, 0x00, 0x00, 0x00, 0x00, 0x00,
    0x00, 0x00, 0x00, 0x00, 0x00, 0x00, 0x00, 0x00, 0x00, 0x00, 0x00, 0x00,
    0x00, 0x00, 0x00, 0x00, 0x00, 0x00, 0x00, 0x00, 0x00, 0x00, 0x00, 0x00,
    0x00, 0x00, 0x00, 0x00, 0x00, 0x00, 0x00, 0x00, 0x00, 0x00, 0x00, 0x00,
    0x00, 0x00, 0x00, 0x00, 0x00, 0x00, 0x00, 0x00, 0x00, 0x00, 0x00, 0x00,
    0x00, 0x00, 0x00, 0x00, 0x00, 0x00, 0x00, 0x00, 0x00, 0x00, 0x00, 0x00,
    0x00, 0x00, 0x00, 0x00, 0x00, 0x00, 0x00, 0x00, 0x00, 0x00, 0x00, 0x00,
    0x00, 0x00, 0x00, 0x00, 0x00, 0x00, 0x00, 0x00, 0x40, 0x00, 0x00, 0x00,
    0xd9, 0x85, 0xd7, 0x3b, 0xe5, 0xd5, 0x09, 0x3b, 0x5d, 0xd5, 0x21, 0x3b,
    0xe7, 0x99, 0xa1, 0x3b, 0xc8, 0x9b, 0xfb, 0x3a, 0x56, 0x4a, 0x1d, 0x3b,
    0xce, 0xba, 0x1b, 0x3b, 0x49, 0x64, 0xfa, 0x3a, 0x08, 0x2e, 0xde, 0x3b,
    0x93, 0x44, 0x25, 0x3b, 0x76, 0xcb, 0x07, 0x3b, 0x55, 0xb3, 0x8c, 0x3b,
    0xb1, 0xde, 0x1c, 0x3b, 0x27, 0x0f, 0x11, 0x3b, 0xa9, 0x71, 0x01, 0x3b,
    0x3e, 0x9a, 0x94, 0x3b, 0xe7, 0x87, 0x90, 0x3b, 0x21, 0x71, 0x8e, 0x3b,
    0xcd, 0x86, 0x0b, 0x3b, 0x63, 0xef, 0x91, 0x3b, 0x26, 0xe5, 0xd2, 0x3b,
    0xa9, 0xc9, 0x42, 0x3b, 0xaa, 0x82, 0xc8, 0x3b, 0xbd, 0x97, 0x4d, 0x3b,
    0x5e, 0x0c, 0x08, 0x3b, 0x48, 0xc7, 0xf2, 0x3a, 0x86, 0x04, 0xc4, 0x3b,
    0xb7, 0x88, 0xf0, 0x3b, 0x05, 0x94, 0x85, 0x3b, 0x34, 0x4c, 0x09, 0x3b,
    0xea, 0xd7, 0xd5, 0x3b, 0xde, 0xa7, 0xd2, 0x3b, 0x58, 0xe4, 0xfc, 0x3a,
    0xcf, 0xea, 0x08, 0x3b, 0xc2, 0x97, 0x17, 0x3b, 0xea, 0xbf, 0x17, 0x3b,
    0x54, 0x8b, 0x15, 0x3b, 0xc9, 0x5e, 0xbc, 0x3b, 0xb0, 0x15, 0x1b, 0x3b,
    0xe4, 0x19, 0x0a, 0x3b, 0xe8, 0xcb, 0x18, 0x3b, 0xcc, 0x5e, 0xe1, 0x3b,
    0x47, 0x52, 0x3c, 0x3b, 0x4d, 0xef, 0x6c, 0x3b, 0x50, 0x89, 0x35, 0x3b,
    0x8a, 0x81, 0x22, 0x3b, 0xc4, 0x53, 0xc9, 0x3b, 0x64, 0xdf, 0x56, 0x3b,
    0x8c, 0x6d, 0x1d, 0x3b, 0x89, 0x90, 0x6c, 0x3b, 0x87, 0x45, 0x88, 0x3b,
    0xf0, 0x47, 0xd1, 0x3b, 0x88, 0xed, 0xff, 0x3a, 0x59, 0x09, 0xd2, 0x3b,
    0x0f, 0x43, 0xc6, 0x3b, 0x51, 0x47, 0x0b, 0x3b, 0xb7, 0x54, 0x0c, 0x3b,
    0xc4, 0x48, 0x05, 0x3b, 0xe5, 0x96, 0x15, 0x3b, 0xfa, 0xc7, 0xd2, 0x3b,
    0x19, 0xa2, 0xe4, 0x3b, 0x0f, 0xb0, 0x00, 0x3b, 0xe8, 0x8d, 0xac, 0x3b,
    0xa4, 0x02, 0x26, 0x3b, 0x12, 0x00, 0x00, 0x00, 0x74, 0x66, 0x6c, 0x2e,
    0x70, 0x73, 0x65, 0x75, 0x64, 0x6f, 0x5f, 0x71, 0x63, 0x6f, 0x6e, 0x73,
    0x74, 0x35, 0x00, 0x00, 0x02, 0x00, 0x00, 0x00, 0x40, 0x00, 0x00, 0x00,
    0x10, 0x00, 0x00, 0x00, 0x32, 0xfb, 0xff, 0xff, 0x00, 0x00, 0x00, 0x01,
    0x14, 0x00, 0x00, 0x00, 0x24, 0x03, 0x00, 0x00, 0x07, 0x00, 0x00, 0x00,
    0x00, 0x00, 0x00, 0x02, 0x30, 0x03, 0x00, 0x00, 0xac, 0xfa, 0xff, 0xff,
    0x08, 0x00, 0x00, 0x00, 0x08, 0x02, 0x00, 0x00, 0x40, 0x00, 0x00, 0x00,
    0x00, 0x00, 0x00, 0x00, 0x00, 0x00, 0x00, 0x00, 0x00, 0x00, 0x00, 0x00,
    0x00, 0x00, 0x00, 0x00, 0x00, 0x00, 0x00, 0x00, 0x00, 0x00, 0x00, 0x00,
    0x00, 0x00, 0x00, 0x00, 0x00, 0x00, 0x00, 0x00, 0x00, 0x00, 0x00, 0x00,
    0x00, 0x00, 0x00, 0x00, 0x00, 0x00, 0x00, 0x00, 0x00, 0x00, 0x00, 0x00,
    0x00, 0x00, 0x00, 0x00, 0x00, 0x00, 0x00, 0x00, 0x00, 0x00, 0x00, 0x00,
    0x00, 0x00, 0x00, 0x00, 0x00, 0x00, 0x00, 0x00, 0x00, 0x00, 0x00, 0x00,
    0x00, 0x00, 0x00, 0x00, 0x00, 0x00, 0x00, 0x00, 0x00, 0x00, 0x00, 0x00,
    0x00, 0x00, 0x00, 0x00, 0x00, 0x00, 0x00, 0x00, 0x00, 0x00, 0x00, 0x00,
    0x00, 0x00, 0x00, 0x00, 0x00, 0x00, 0x00, 0x00, 0x00, 0x00, 0x00, 0x00,
    0x00, 0x00, 0x00, 0x00, 0x00, 0x00, 0x00, 0x00, 0x00, 0x00, 0x00, 0x00,
    0x00, 0x00, 0x00, 0x00, 0x00, 0x00, 0x00, 0x00, 0x00, 0x00, 0x00, 0x00,
    0x00, 0x00, 0x00, 0x00, 0x00, 0x00, 0x00, 0x00, 0x00, 0x00, 0x00, 0x00,
    0x00, 0x00, 0x00, 0x00, 0x00, 0x00, 0x00, 0x00, 0x00, 0x00, 0x00, 0x00,
    0x00, 0x00, 0x00, 0x00, 0x00, 0x00, 0x00, 0x00, 0x00, 0x00, 0x00, 0x00,
    0x00, 0x00, 0x00, 0x00, 0x00, 0x00, 0x00, 0x00, 0x00, 0x00, 0x00, 0x00,
    0x00, 0x00, 0x00, 0x00, 0x00, 0x00, 0x00, 0x00, 0x00, 0x00, 0x00, 0x00,
    0x00, 0x00, 0x00, 0x00, 0x00, 0x00, 0x00, 0x00, 0x00, 0x00, 0x00, 0x00,
    0x00, 0x00, 0x00, 0x00, 0x00, 0x00, 0x00, 0x00, 0x00, 0x00, 0x00, 0x00,
    0x00, 0x00, 0x00, 0x00, 0x00, 0x00, 0x00, 0x00, 0x00, 0x00, 0x00, 0x00,
    0x00, 0x00, 0x00, 0x00, 0x00, 0x00, 0x00, 0x00, 0x00, 0x00, 0x00, 0x00,
    0x00, 0x00, 0x00, 0x00, 0x00, 0x00, 0x00, 0x00, 0x00, 0x00, 0x00, 0x00,
    0x00, 0x00, 0x00, 0x00, 0x00, 0x00, 0x00, 0x00, 0x00, 0x00, 0x00, 0x00,
    0x00, 0x00, 0x00, 0x00, 0x00, 0x00, 0x00, 0x00, 0x00, 0x00, 0x00, 0x00,
    0x00, 0x00, 0x00, 0x00, 0x00, 0x00, 0x00, 0x00, 0x00, 0x00, 0x00, 0x00,
    0x00, 0x00, 0x00, 0x00, 0x00, 0x00, 0x00, 0x00, 0x00, 0x00, 0x00, 0x00,
    0x00, 0x00, 0x00, 0x00, 0x00, 0x00, 0x00, 0x00, 0x00, 0x00, 0x00, 0x00,
    0x00, 0x00, 0x00, 0x00, 0x00, 0x00, 0x00, 0x00, 0x00, 0x00, 0x00, 0x00,
    0x00, 0x00, 0x00, 0x00, 0x00, 0x00, 0x00, 0x00, 0x00, 0x00, 0x00, 0x00,
    0x00, 0x00, 0x00, 0x00, 0x00, 0x00, 0x00, 0x00, 0x00, 0x00, 0x00, 0x00,
    0x00, 0x00, 0x00, 0x00, 0x00, 0x00, 0x00, 0x00, 0x00, 0x00, 0x00, 0x00,
    0x00, 0x00, 0x00, 0x00, 0x00, 0x00, 0x00, 0x00, 0x00, 0x00, 0x00, 0x00,
    0x00, 0x00, 0x00, 0x00, 0x00, 0x00, 0x00, 0x00, 0x00, 0x00, 0x00, 0x00,
    0x00, 0x00, 0x00, 0x00, 0x00, 0x00, 0x00, 0x00, 0x00, 0x00, 0x00, 0x00,
    0x00, 0x00, 0x00, 0x00, 0x00, 0x00, 0x00, 0x00, 0x00, 0x00, 0x00, 0x00,
    0x00, 0x00, 0x00, 0x00, 0x00, 0x00, 0x00, 0x00, 0x00, 0x00, 0x00, 0x00,
    0x00, 0x00, 0x00, 0x00, 0x00, 0x00, 0x00, 0x00, 0x00, 0x00, 0x00, 0x00,
    0x00, 0x00, 0x00, 0x00, 0x00, 0x00, 0x00, 0x00, 0x00, 0x00, 0x00, 0x00,
    0x00, 0x00, 0x00, 0x00, 0x00, 0x00, 0x00, 0x00, 0x00, 0x00, 0x00, 0x00,
    0x00, 0x00, 0x00, 0x00, 0x00, 0x00, 0x00, 0x00, 0x00, 0x00, 0x00, 0x00,
    0x00, 0x00, 0x00, 0x00, 0x00, 0x00, 0x00, 0x00, 0x00, 0x00, 0x00, 0x00,
    0x00, 0x00, 0x00, 0x00, 0x00, 0x00, 0x00, 0x00, 0x00, 0x00, 0x00, 0x00,
    0x00, 0x00, 0x00, 0x00, 0x00, 0x00, 0x00, 0x00, 0x00, 0x00, 0x00, 0x00,
    0x00, 0x00, 0x00, 0x00, 0x00, 0x00, 0x00, 0x00, 0x40, 0x00, 0x00, 0x00,
    0x4c, 0x91, 0xdf, 0x37, 0xff, 0xfa, 0x0e, 0x37, 0xc8, 0xdf, 0x27, 0x37,
    0x19, 0xa2, 0xa7, 0x37, 0x07, 0x80, 0x02, 0x37, 0x57, 0x29, 0x23, 0x37,
    0xe5, 0x8a, 0x21, 0x37, 0x77, 0xde, 0x01, 0x37, 0x18, 0x79, 0xe6, 0x37,
    0xcf, 0x6f, 0x2b, 0x37, 0x10, 0xdd, 0x0c, 0x37, 0xcf, 0xf3, 0x91, 0x37,
    0xae, 0xb9, 0x22, 0x37, 0x48, 0x79, 0x16, 0x37, 0x93, 0x46, 0x06, 0x37,
    0x3b, 0x26, 0x9a, 0x37, 0xfb, 0xec, 0x95, 0x37, 0x3f, 0xc2, 0x93, 0x37,
    0x10, 0xbc, 0x10, 0x37, 0xe2, 0x61, 0x97, 0x37, 0x61, 0xc4, 0xda, 0x37,
    0xf9, 0x0e, 0x4a, 0x37, 0xa9, 0xfe, 0xcf, 0x37, 0x4d, 0x44, 0x55, 0x37,
    0x64, 0x20, 0x0d, 0x37, 0x2d, 0xd7, 0xfb, 0x36, 0x97, 0x55, 0xcb, 0x37,
    0x2a, 0x83, 0xf9, 0x37, 0x71, 0x90, 0x8a, 0x37, 0x2a, 0x6c, 0x0e, 0x37,
    0x51, 0xd3, 0xdd, 0x37, 0xcf, 0x84, 0xda, 0x37, 0x71, 0x2a, 0x03, 0x37,
    0x23, 0x07, 0x0e, 0x37, 0x52, 0x40, 0x1d, 0x37, 0xf9, 0x69, 0x1d, 0x37,
    0x50, 0x20, 0x1b, 0x37, 0xc7, 0x66, 0xc3, 0x37, 0x9e, 0xdf, 0x20, 0x37,
    0x88, 0x41, 0x0f, 0x37, 0xf8, 0x7f, 0x1e, 0x37, 0x59, 0xc8, 0xe9, 0x37,
    0xcd, 0x59, 0x43, 0x37, 0x5b, 0xc7, 0x75, 0x37, 0x01, 0x50, 0x3c, 0x37,
    0x62, 0x92, 0x28, 0x37, 0x92, 0xd7, 0xd0, 0x37, 0xa1, 0xe4, 0x5e, 0x37,
    0xde, 0x4d, 0x23, 0x37, 0x0d, 0x65, 0x75, 0x37, 0xaf, 0x5b, 0x8d, 0x37,
    0xbe, 0x17, 0xd9, 0x37, 0x8a, 0xbd, 0x04, 0x37, 0x60, 0xe0, 0xd9, 0x37,
    0x92, 0xa9, 0xcd, 0x37, 0x35, 0x7a, 0x10, 0x37, 0xa9, 0x91, 0x11, 0x37,
    0x60, 0x42, 0x0a, 0x37, 0x50, 0x2c, 0x1b, 0x37, 0x1e, 0xa6, 0xda, 0x37,
    0xd3, 0x2a, 0xed, 0x37, 0xbf, 0x7d, 0x05, 0x37, 0xc4, 0xfe, 0xb2, 0x37,
    0xf8, 0x34, 0x2c, 0x37, 0x12, 0x00, 0x00, 0x00, 0x74, 0x66, 0x6c, 0x2e,
    0x70, 0x73, 0x65, 0x75, 0x64, 0x6f, 0x5f, 0x71, 0x63, 0x6f, 0x6e, 0x73,
    0x74, 0x34, 0x00, 0x00, 0x01, 0x00, 0x00, 0x00, 0x40, 0x00, 0x00, 0x00,
    0x82, 0xfe, 0xff, 0xff, 0x00, 0x00, 0x00, 0x01, 0x14, 0x00, 0x00, 0x00,
    0x30, 0x00, 0x00, 0x00, 0x06, 0x00, 0x00, 0x00, 0x00, 0x00, 0x00, 0x09,
    0x3c, 0x00, 0x00, 0x00, 0xfc, 0xfd, 0xff, 0xff, 0x08, 0x00, 0x00, 0x00,
    0x10, 0x00, 0x00, 0x00, 0x01, 0x00, 0x00, 0x00, 0x00, 0x00, 0x00, 0x00,
    0x00, 0x00, 0x00, 0x00, 0x01, 0x00, 0x00, 0x00, 0x64, 0x7c, 0x17, 0x3c,
    0x12, 0x00, 0x00, 0x00, 0x74, 0x66, 0x6c, 0x2e, 0x70, 0x73, 0x65, 0x75,
    0x64, 0x6f, 0x5f, 0x71, 0x63, 0x6f, 0x6e, 0x73, 0x74, 0x33, 0x00, 0x00,
    0x02, 0x00, 0x00, 0x00, 0x01, 0x00, 0x00, 0x00, 0x40, 0x00, 0x00, 0x00,
    0xe2, 0xfe, 0xff, 0xff, 0x00, 0x00, 0x00, 0x01, 0x14, 0x00, 0x00, 0x00,
    0x34, 0x00, 0x00, 0x00, 0x05, 0x00, 0x00, 0x00, 0x00, 0x00, 0x00, 0x02,
    0x40, 0x00, 0x00, 0x00, 0x5c, 0xfe, 0xff, 0xff, 0x08, 0x00, 0x00, 0x00,
    0x14, 0x00, 0x00, 0x00, 0x01, 0x00, 0x00, 0x00, 0x00, 0x00, 0x00, 0x00,
    0x00, 0x00, 0x00, 0x00, 0x00, 0x00, 0x00, 0x00, 0x01, 0x00, 0x00, 0x00,
    0xf5, 0xb3, 0x1b, 0x38, 0x12, 0x00, 0x00, 0x00, 0x74, 0x66, 0x6c, 0x2e,
    0x70, 0x73, 0x65, 0x75, 0x64, 0x6f, 0x5f, 0x71, 0x63, 0x6f, 0x6e, 0x73,
    0x74, 0x32, 0x00, 0x00, 0x01, 0x00, 0x00, 0x00, 0x01, 0x00, 0x00, 0x00,
    0x42, 0xff, 0xff, 0xff, 0x00, 0x00, 0x00, 0x01, 0x14, 0x00, 0x00, 0x00,
    0x30, 0x00, 0x00, 0x00, 0x04, 0x00, 0x00, 0x00, 0x00, 0x00, 0x00, 0x09,
    0x3c, 0x00, 0x00, 0x00, 0xbc, 0xfe, 0xff, 0xff, 0x08, 0x00, 0x00, 0x00,
    0x10, 0x00, 0x00, 0x00, 0x01, 0x00, 0x00, 0x00, 0x00, 0x00, 0x00, 0x00,
    0x00, 0x00, 0x00, 0x00, 0x01, 0x00, 0x00, 0x00, 0xbd, 0xc8, 0x8c, 0x3c,
    0x12, 0x00, 0x00, 0x00, 0x74, 0x66, 0x6c, 0x2e, 0x70, 0x73, 0x65, 0x75,
    0x64, 0x6f, 0x5f, 0x71, 0x63, 0x6f, 0x6e, 0x73, 0x74, 0x31, 0x00, 0x00,
    0x02, 0x00, 0x00, 0x00, 0x01, 0x00, 0x00, 0x00, 0x40, 0x00, 0x00, 0x00,
    0xa2, 0xff, 0xff, 0xff, 0x00, 0x00, 0x00, 0x01, 0x14, 0x00, 0x00, 0x00,
    0x30, 0x00, 0x00, 0x00, 0x03, 0x00, 0x00, 0x00, 0x00, 0x00, 0x00, 0x02,
    0x3c, 0x00, 0x00, 0x00, 0x1c, 0xff, 0xff, 0xff, 0x08, 0x00, 0x00, 0x00,
    0x10, 0x00, 0x00, 0x00, 0x01, 0x00, 0x00, 0x00, 0x00, 0x00, 0x00, 0x00,
    0x00, 0x00, 0x00, 0x00, 0x01, 0x00, 0x00, 0x00, 0x0a, 0xb4, 0x90, 0x38,
    0x11, 0x00, 0x00, 0x00, 0x74, 0x66, 0x6c, 0x2e, 0x70, 0x73, 0x65, 0x75,
    0x64, 0x6f, 0x5f, 0x71, 0x63, 0x6f, 0x6e, 0x73, 0x74, 0x00, 0x00, 0x00,
    0x01, 0x00, 0x00, 0x00, 0x01, 0x00, 0x00, 0x00, 0x00, 0x00, 0x16, 0x00,
    0x1c, 0x00, 0x18, 0x00, 0x17, 0x00, 0x10, 0x00, 0x0c, 0x00, 0x08, 0x00,
    0x00, 0x00, 0x00, 0x00, 0x00, 0x00, 0x07, 0x00, 0x16, 0x00, 0x00, 0x00,
    0x00, 0x00, 0x00, 0x01, 0x18, 0x00, 0x00, 0x00, 0x18, 0x00, 0x00, 0x00,
    0x02, 0x00, 0x00, 0x00, 0x00, 0x00, 0x00, 0x02, 0x20, 0x00, 0x00, 0x00,
    0x04, 0x00, 0x04, 0x00, 0x04, 0x00, 0x00, 0x00, 0x0e, 0x00, 0x00, 0x00,
    0x61, 0x72, 0x69, 0x74, 0x68, 0x2e, 0x63, 0x6f, 0x6e, 0x73, 0x74, 0x61,
    0x6e, 0x74, 0x00, 0x00, 0x01, 0x00, 0x00, 0x00, 0x02, 0x00, 0x00, 0x00,
    0x00, 0x00, 0x16, 0x00, 0x20, 0x00, 0x1c, 0x00, 0x1b, 0x00, 0x14, 0x00,
    0x10, 0x00, 0x0c, 0x00, 0x00, 0x00, 0x00, 0x00, 0x08, 0x00, 0x07, 0x00,
    0x16, 0x00, 0x00, 0x00, 0x00, 0x00, 0x00, 0x01, 0x18, 0x00, 0x00, 0x00,
    0x34, 0x00, 0x00, 0x00, 0x54, 0x00, 0x00, 0x00, 0x01, 0x00, 0x00, 0x00,
    0x00, 0x00, 0x00, 0x09, 0x70, 0x00, 0x00, 0x00, 0x04, 0x00, 0x00, 0x00,
    0xff, 0xff, 0xff, 0xff, 0x18, 0x00, 0x00, 0x00, 0x18, 0x00, 0x00, 0x00,
    0x01, 0x00, 0x00, 0x00, 0x0c, 0x00, 0x0c, 0x00, 0x00, 0x00, 0x00, 0x00,
    0x08, 0x00, 0x04, 0x00, 0x0c, 0x00, 0x00, 0x00, 0x08, 0x00, 0x00, 0x00,
    0x14, 0x00, 0x00, 0x00, 0x01, 0x00, 0x00, 0x00, 0x80, 0xff, 0xff, 0xff,
    0xff, 0xff, 0xff, 0xff, 0x00, 0x00, 0x00, 0x00, 0x01, 0x00, 0x00, 0x00,
    0x81, 0x80, 0x80, 0x3b, 0x22, 0x00, 0x00, 0x00, 0x73, 0x65, 0x72, 0x76,
    0x69, 0x6e, 0x67, 0x5f, 0x64, 0x65, 0x66, 0x61, 0x75, 0x6c, 0x74, 0x5f,
    0x6b, 0x65, 0x72, 0x61, 0x73, 0x5f, 0x74, 0x65, 0x6e, 0x73, 0x6f, 0x72,
    0x5f, 0x31, 0x34, 0x35, 0x3a, 0x30, 0x00, 0x00, 0x04, 0x00, 0x00, 0x00,
    0x01, 0x00, 0x00, 0x00, 0x18, 0x00, 0x00, 0x00, 0x18, 0x00, 0x00, 0x00,
    0x01, 0x00, 0x00, 0x00, 0x06, 0x00, 0x00, 0x00, 0x74, 0x00, 0x00, 0x00,
    0x54, 0x00, 0x00, 0x00, 0x40, 0x00, 0x00, 0x00, 0x2c, 0x00, 0x00, 0x00,
    0x18, 0x00, 0x00, 0x00, 0x04, 0x00, 0x00, 0x00, 0xb0, 0xff, 0xff, 0xff,
    0x0e, 0x00, 0x00, 0x00, 0x02, 0x00, 0x00, 0x00, 0x00, 0x00, 0x00, 0x0e,
    0xc0, 0xff, 0xff, 0xff, 0x1c, 0x00, 0x00, 0x00, 0x02, 0x00, 0x00, 0x00,
    0x00, 0x00, 0x00, 0x1c, 0xd0, 0xff, 0xff, 0xff, 0x09, 0x00, 0x00, 0x00,
    0x04, 0x00, 0x00, 0x00, 0x00, 0x00, 0x00, 0x09, 0xe0, 0xff, 0xff, 0xff,
    0x28, 0x00, 0x00, 0x00, 0x02, 0x00, 0x00, 0x00, 0x00, 0x00, 0x00, 0x28,
    0xf0, 0xff, 0xff, 0xff, 0x04, 0x00, 0x00, 0x00, 0x03, 0x00, 0x00, 0x00,
    0x00, 0x00, 0x00, 0x04, 0x0c, 0x00, 0x10, 0x00, 0x0f, 0x00, 0x00, 0x00,
    0x08, 0x00, 0x04, 0x00, 0x0c, 0x00, 0x00, 0x00, 0x03, 0x00, 0x00, 0x00,
    0x03, 0x00, 0x00, 0x00, 0x00, 0x00, 0x00, 0x03};

const int g_model_len = sizeof(g_model);
