#include "model.h"

alignas(16) const unsigned char g_model[] = {
    0x1c, 0x00, 0x00, 0x00, 0x54, 0x46, 0x4c, 0x33, 0x14, 0x00, 0x20, 0x00,
    0x1c, 0x00, 0x18, 0x00, 0x14, 0x00, 0x10, 0x00, 0x0c, 0x00, 0x00, 0x00,
    0x08, 0x00, 0x04, 0x00, 0x14, 0x00, 0x00, 0x00, 0x1c, 0x00, 0x00, 0x00,
    0xb0, 0x00, 0x00, 0x00, 0x08, 0x01, 0x00, 0x00, 0xd4, 0x0d, 0x00, 0x00,
    0xe4, 0x0d, 0x00, 0x00, 0x98, 0x27, 0x00, 0x00, 0x03, 0x00, 0x00, 0x00,
    0x01, 0x00, 0x00, 0x00, 0x04, 0x00, 0x00, 0x00, 0x96, 0xf1, 0xff, 0xff,
    0x0c, 0x00, 0x00, 0x00, 0x1c, 0x00, 0x00, 0x00, 0x5c, 0x00, 0x00, 0x00,
    0x0f, 0x00, 0x00, 0x00, 0x73, 0x65, 0x72, 0x76, 0x69, 0x6e, 0x67, 0x5f,
    0x64, 0x65, 0x66, 0x61, 0x75, 0x6c, 0x74, 0x00, 0x02, 0x00, 0x00, 0x00,
    0x24, 0x00, 0x00, 0x00, 0x04, 0x00, 0x00, 0x00, 0x70, 0xff, 0xff, 0xff,
    0x18, 0x00, 0x00, 0x00, 0x04, 0x00, 0x00, 0x00, 0x08, 0x00, 0x00, 0x00,
    0x6f, 0x75, 0x74, 0x70, 0x75, 0x74, 0x5f, 0x31, 0x00, 0x00, 0x00, 0x00,
    0x8c, 0xff, 0xff, 0xff, 0x17, 0x00, 0x00, 0x00, 0x04, 0x00, 0x00, 0x00,
    0x08, 0x00, 0x00, 0x00, 0x6f, 0x75, 0x74, 0x70, 0x75, 0x74, 0x5f, 0x30,
    0x00, 0x00, 0x00, 0x00, 0x01, 0x00, 0x00, 0x00, 0x04, 0x00, 0x00, 0x00,
    0xd6, 0xf2, 0xff, 0xff, 0x04, 0x00, 0x00, 0x00, 0x10, 0x00, 0x00, 0x00,
    0x6b, 0x65, 0x72, 0x61, 0x73, 0x5f, 0x74, 0x65, 0x6e, 0x73, 0x6f, 0x72,
    0x5f, 0x33, 0x35, 0x35, 0x00, 0x00, 0x00, 0x00, 0x02, 0x00, 0x00, 0x00,
    0x34, 0x00, 0x00, 0x00, 0x04, 0x00, 0x00, 0x00, 0xdc, 0xff, 0xff, 0xff,
    0x1b, 0x00, 0x00, 0x00, 0x04, 0x00, 0x00, 0x00, 0x13, 0x00, 0x00, 0x00,
    0x43, 0x4f, 0x4e, 0x56, 0x45, 0x52, 0x53, 0x49, 0x4f, 0x4e, 0x5f, 0x4d,
    0x45, 0x54, 0x41, 0x44, 0x41, 0x54, 0x41, 0x00, 0x08, 0x00, 0x0c, 0x00,
    0x08, 0x00, 0x04, 0x00, 0x08, 0x00, 0x00, 0x00, 0x1a, 0x00, 0x00, 0x00,
    0x04, 0x00, 0x00, 0x00, 0x13, 0x00, 0x00, 0x00, 0x6d, 0x69, 0x6e, 0x5f,
    0x72, 0x75, 0x6e, 0x74, 0x69, 0x6d, 0x65, 0x5f, 0x76, 0x65, 0x72, 0x73,
    0x69, 0x6f, 0x6e, 0x00, 0x1c, 0x00, 0x00, 0x00, 0xc8, 0x0c, 0x00, 0x00,
    0xc0, 0x0c, 0x00, 0x00, 0xa8, 0x0c, 0x00, 0x00, 0x8c, 0x0c, 0x00, 0x00,
    0x3c, 0x0c, 0x00, 0x00, 0x28, 0x0c, 0x00, 0x00, 0xd8, 0x0b, 0x00, 0x00,
    0xc8, 0x0a, 0x00, 0x00, 0xb8, 0x06, 0x00, 0x00, 0x68, 0x06, 0x00, 0x00,
    0x98, 0x05, 0x00, 0x00, 0x1c, 0x05, 0x00, 0x00, 0xdc, 0x04, 0x00, 0x00,
    0xd4, 0x04, 0x00, 0x00, 0x64, 0x01, 0x00, 0x00, 0x34, 0x01, 0x00, 0x00,
    0xdc, 0x00, 0x00, 0x00, 0xd4, 0x00, 0x00, 0x00, 0xcc, 0x00, 0x00, 0x00,
    0xc4, 0x00, 0x00, 0x00, 0xbc, 0x00, 0x00, 0x00, 0xb4, 0x00, 0x00, 0x00,
    0xac, 0x00, 0x00, 0x00, 0xa4, 0x00, 0x00, 0x00, 0x9c, 0x00, 0x00, 0x00,
    0x94, 0x00, 0x00, 0x00, 0x74, 0x00, 0x00, 0x00, 0x04, 0x00, 0x00, 0x00,
    0xc6, 0xf3, 0xff, 0xff, 0x04, 0x00, 0x00, 0x00, 0x60, 0x00, 0x00, 0x00,
    0x0c, 0x00, 0x00, 0x00, 0x08, 0x00, 0x0e, 0x00, 0x08, 0x00, 0x04, 0x00,
    0x08, 0x00, 0x00, 0x00, 0x10, 0x00, 0x00, 0x00, 0x28, 0x00, 0x00, 0x00,
    0x00, 0x00, 0x06, 0x00, 0x08, 0x00, 0x04, 0x00, 0x06, 0x00, 0x00, 0x00,
    0x04, 0x00, 0x00, 0x00, 0x01, 0x00, 0x00, 0x00, 0xeb, 0x03, 0x00, 0x00,
    0x0c, 0x00, 0x18, 0x00, 0x14, 0x00, 0x10, 0x00, 0x0c, 0x00, 0x04, 0x00,
    0x0c, 0x00, 0x00, 0x00, 0x43, 0xa0, 0xa4, 0x20, 0x2b, 0x52, 0xe8, 0x62,
    0x02, 0x00, 0x00, 0x00, 0x02, 0x00, 0x00, 0x00, 0x04, 0x00, 0x00, 0x00,
    0x06, 0x00, 0x00, 0x00, 0x32, 0x2e, 0x32, 0x30, 0x2e, 0x30, 0x00, 0x00,
    0x32, 0xf4, 0xff, 0xff, 0x04, 0x00, 0x00, 0x00, 0x10, 0x00, 0x00, 0x00,
    0x31, 0x2e, 0x31, 0x34, 0x2e, 0x30, 0x00, 0x00, 0x00, 0x00, 0x00, 0x00,
    0x00, 0x00, 0x00, 0x00, 0x38, 0xdb, 0xff, 0xff, 0x3c, 0xdb, 0xff, 0xff,
    0x40, 0xdb, 0xff, 0xff, 0x44, 0xdb, 0xff, 0xff, 0x48, 0xdb, 0xff, 0xff,
    0x4c, 0xdb, 0xff, 0xff, 0x50, 0xdb, 0xff, 0xff, 0x54, 0xdb, 0xff, 0xff,
    0x58, 0xdb, 0xff, 0xff, 0x72, 0xf4, 0xff, 0xff, 0x04, 0x00, 0x00, 0x00,
    0x48, 0x00, 0x00, 0x00, 0xed, 0xc5, 0xcd, 0x37, 0xa8, 0xde, 0x2c, 0xc6,
    0x7f, 0x2c, 0x5a, 0x81, 0xae, 0x28, 0x33, 0xb0, 0x6a, 0xdf, 0xdc, 0xd5,
    0x1c, 0x7f, 0xcd, 0xf2, 0x55, 0xeb, 0xe1, 0x55, 0x7f, 0x19, 0x6a, 0x44,
    0xc5, 0x6c, 0xf7, 0xbb, 0x3e, 0xf6, 0xe9, 0x02, 0x22, 0x7c, 0x81, 0xc4,
    0xc7, 0x33, 0xae, 0xc6, 0x77, 0x29, 0x81, 0x06, 0x6c, 0x00, 0x81, 0x28,
    0x26, 0x99, 0x42, 0x07, 0xb4, 0x24, 0xfc, 0xde, 0xc6, 0x46, 0x28, 0x6c,
    0x7f, 0xfc, 0xde, 0xb7, 0xc6, 0xf4, 0xff, 0xff, 0x04, 0x00, 0x00, 0x00,
    0x20, 0x00, 0x00, 0x00, 0x00, 0x00, 0x00, 0x00, 0x00, 0x00, 0x00, 0x00,
    0x00, 0x00, 0x00, 0x00, 0x00, 0x00, 0x00, 0x00, 0x00, 0x00, 0x00, 0x00,
    0x00, 0x00, 0x00, 0x00, 0x00, 0x00, 0x00, 0x00, 0x00, 0x00, 0x00, 0x00,
    0xf2, 0xf4, 0xff, 0xff, 0x04, 0x00, 0x00, 0x00, 0x60, 0x03, 0x00, 0x00,
    0x5f, 0xfa, 0x00, 0xfe, 0x2d, 0x0d, 0x09, 0x02, 0x56, 0xfa, 0x2c, 0xe1,
    0x3f, 0x21, 0xec, 0xec, 0x48, 0xf2, 0x05, 0xee, 0x7f, 0xff, 0x30, 0x01,
    0x4c, 0xe0, 0xdd, 0xf8, 0x36, 0xff, 0xf7, 0x11, 0x4c, 0x02, 0xf2, 0xec,
    0x4c, 0x02, 0xeb, 0xfc, 0x4e, 0x09, 0xe0, 0xf0, 0x52, 0x09, 0x37, 0x19,
    0x2a, 0xf7, 0xf4, 0xef, 0x42, 0x0a, 0xe7, 0x09, 0x5f, 0x0b, 0x27, 0x11,
    0x33, 0x08, 0xfa, 0x0c, 0x10, 0x2c, 0xfe, 0xfd, 0x1b, 0xff, 0x2c, 0x07,
    0xda, 0xff, 0xe9, 0x19, 0x07, 0x30, 0x20, 0x19, 0xfb, 0x1e, 0x1a, 0xf0,
    0x27, 0x1f, 0x33, 0xee, 0xde, 0xf4, 0x1c, 0x0f, 0x0d, 0x0c, 0x92, 0xe3,
    0xf0, 0xf2, 0x0c, 0x1e, 0x0a, 0xee, 0x49, 0x21, 0x02, 0x2b, 0x18, 0x1d,
    0x3a, 0x22, 0x1c, 0xf9, 0x02, 0x00, 0x26, 0xf6, 0x41, 0x2c, 0x95, 0xf9,
    0x81, 0xf0, 0x0f, 0x01, 0x2f, 0xf5, 0x43, 0xe0, 0x98, 0x0c, 0x1a, 0x0c,
    0x19, 0x17, 0x4b, 0x22, 0xab, 0xec, 0x08, 0x28, 0x10, 0x0e, 0xcb, 0x23,
    0x6f, 0x05, 0x2a, 0x1a, 0xc8, 0xf7, 0xde, 0xf8, 0x63, 0xf7, 0xf2, 0xe8,
    0xbe, 0xea, 0x29, 0xed, 0x5f, 0x07, 0xe2, 0xef, 0x09, 0x0c, 0x14, 0x01,
    0x75, 0xee, 0x0a, 0x18, 0x37, 0xfc, 0xc7, 0xfa, 0x67, 0xe0, 0x16, 0xf5,
    0x0e, 0xee, 0x22, 0xf7, 0x54, 0xdb, 0xe2, 0xf2, 0x35, 0xfa, 0x36, 0xd6,
    0x7d, 0xdf, 0x25, 0x1f, 0x0f, 0x0a, 0xf3, 0x0e, 0x7f, 0xe2, 0x2c, 0xec,
    0x28, 0xf4, 0x23, 0x1f, 0x4c, 0xf5, 0x09, 0xdd, 0x3d, 0x04, 0x50, 0x11,
    0xfb, 0xea, 0xfb, 0xf3, 0xc3, 0xfa, 0x09, 0xee, 0x06, 0xd7, 0x01, 0xf6,
    0xc1, 0xfe, 0x0d, 0xf3, 0xfe, 0xad, 0xfa, 0xef, 0xc9, 0xf4, 0x02, 0xf0,
    0x09, 0xfd, 0xf0, 0xf8, 0x81, 0x01, 0x17, 0x14, 0x0c, 0x01, 0x01, 0x01,
    0xd3, 0x0b, 0x11, 0x1e, 0x09, 0xfd, 0x05, 0xfe, 0xfc, 0x0a, 0x29, 0x33,
    0x0c, 0xed, 0x11, 0x0d, 0xf0, 0xff, 0x15, 0x23, 0x0f, 0x0a, 0x0b, 0x17,
    0xf4, 0x08, 0xf9, 0x12, 0x09, 0x1a, 0x06, 0x12, 0xf4, 0xfc, 0xfe, 0x0d,
    0xf9, 0x28, 0xf7, 0xf2, 0xe1, 0xe0, 0xea, 0x36, 0xc8, 0x0e, 0xdf, 0x2c,
    0x17, 0x4f, 0x11, 0x45, 0xb8, 0x16, 0x0e, 0x4f, 0xb6, 0xf4, 0xeb, 0x1c,
    0xcd, 0x22, 0xe3, 0xe2, 0x9d, 0xe3, 0xf6, 0xff, 0x90, 0xe4, 0xd3, 0x35,
    0xd7, 0x4f, 0x05, 0x19, 0xdd, 0x14, 0x1b, 0x5d, 0x81, 0xd5, 0xe8, 0x08,
    0xc4, 0x05, 0xe8, 0x08, 0xe7, 0xe1, 0xf8, 0x50, 0xc0, 0xf7, 0xc9, 0x3e,
    0xee, 0x4c, 0x1a, 0x17, 0x3f, 0x18, 0x24, 0x4b, 0xbe, 0x00, 0xec, 0xfb,
    0xe5, 0xf8, 0x13, 0xf6, 0x1c, 0x0c, 0x4e, 0xee, 0x1c, 0xef, 0x16, 0x12,
    0x2c, 0x0d, 0x35, 0xf0, 0xdf, 0xf8, 0x0b, 0x01, 0xf9, 0xe8, 0xb7, 0x13,
    0x1c, 0x12, 0x0d, 0x00, 0x2a, 0xfd, 0x38, 0x0c, 0x24, 0x03, 0x04, 0xf4,
    0x1c, 0xf5, 0x1f, 0x10, 0xe5, 0xff, 0xfd, 0xf2, 0x0d, 0xf0, 0xce, 0x0f,
    0xe1, 0x1c, 0x01, 0xfc, 0x33, 0x06, 0x2b, 0xee, 0xb8, 0xfe, 0xde, 0xea,
    0x02, 0x03, 0x35, 0x04, 0x81, 0x04, 0xca, 0xe9, 0xf3, 0x01, 0xbf, 0x03,
    0x0b, 0xfc, 0x04, 0x05, 0x7f, 0x0c, 0x12, 0x06, 0xc9, 0x20, 0xfd, 0x10,
    0x7b, 0xfd, 0xfe, 0xfa, 0xff, 0xf4, 0x04, 0x03, 0x75, 0x08, 0x0d, 0xe1,
    0xeb, 0xf1, 0x15, 0x0f, 0x29, 0xf8, 0x04, 0xf9, 0xd9, 0x1c, 0x06, 0x0a,
    0x24, 0x07, 0xfe, 0xf2, 0xfd, 0xec, 0x12, 0x0d, 0x34, 0x05, 0x02, 0xe5,
    0xcd, 0x0a, 0x07, 0x06, 0x1c, 0xf1, 0x15, 0xf2, 0xfa, 0x10, 0xfc, 0x0e,
    0x21, 0x14, 0x0b, 0x03, 0xfb, 0xfe, 0x10, 0xf1, 0x18, 0xf8, 0x17, 0xec,
    0xc1, 0xfb, 0xe2, 0xf3, 0x49, 0xd4, 0x15, 0xf8, 0xd6, 0x02, 0x03, 0xf4,
    0x7f, 0xf2, 0xef, 0x05, 0x23, 0x19, 0xe8, 0x0e, 0x54, 0x1e, 0xd9, 0xdd,
    0xd6, 0xed, 0xdc, 0x05, 0x26, 0xeb, 0x0b, 0x1c, 0xf0, 0x12, 0x03, 0xf1,
    0x2a, 0xf8, 0xfb, 0xff, 0x32, 0x22, 0xfe, 0x1d, 0x1f, 0x1c, 0xf1, 0xfa,
    0xac, 0xf9, 0xd5, 0x06, 0x2f, 0xd5, 0xf0, 0x02, 0x8c, 0xfe, 0xe3, 0xff,
    0x31, 0xd8, 0xf8, 0xff, 0xb0, 0x21, 0x00, 0xf5, 0x14, 0x14, 0x01, 0xfd,
    0xf4, 0x02, 0x01, 0xff, 0x7b, 0xe9, 0xf1, 0xf9, 0x06, 0x0e, 0xf1, 0xf9,
    0x73, 0xf3, 0xee, 0x14, 0x00, 0xfc, 0xfb, 0xff, 0x7f, 0xf4, 0xe6, 0x0d,
    0xfb, 0xef, 0x09, 0xf2, 0x28, 0xff, 0xfb, 0x04, 0xf0, 0x05, 0x03, 0x0c,
    0x27, 0xfb, 0xfa, 0x0d, 0xe7, 0x02, 0x00, 0x09, 0x2a, 0x06, 0xee, 0x02,
    0xde, 0xfc, 0xfe, 0x08, 0x04, 0x01, 0x05, 0x08, 0xde, 0xf5, 0xf4, 0x0d,
    0xfb, 0xfe, 0xf7, 0x09, 0xdd, 0x0e, 0x03, 0x08, 0xfd, 0x06, 0xf8, 0x11,
    0x49, 0xe6, 0x52, 0x14, 0xfe, 0xfe, 0x14, 0x10, 0x19, 0xdb, 0x1e, 0xec,
    0x15, 0x08, 0x32, 0x23, 0x0c, 0xdb, 0x24, 0xfb, 0x25, 0xfb, 0xbf, 0x00,
    0x1e, 0x26, 0xe3, 0x20, 0x1b, 0xd6, 0x2c, 0x07, 0x25, 0xe0, 0xfe, 0x14,
    0x29, 0xdc, 0x28, 0x20, 0x4c, 0xc8, 0x02, 0x19, 0xfc, 0xed, 0xd7, 0x14,
    0x54, 0x17, 0xd8, 0xf5, 0x22, 0xfb, 0x12, 0xb6, 0x04, 0xff, 0xe5, 0xd1,
    0xff, 0xcf, 0x06, 0xc4, 0x17, 0xd9, 0xcb, 0xd4, 0x81, 0xfb, 0x18, 0xb4,
    0x4d, 0x6d, 0x02, 0xbe, 0x30, 0x19, 0xa0, 0xf3, 0xc1, 0xbd, 0x9e, 0xba,
    0x96, 0xa5, 0x09, 0x20, 0xb3, 0xcc, 0xac, 0x8a, 0x42, 0x4a, 0x59, 0xcf,
    0x1f, 0x8f, 0xe0, 0xba, 0xbf, 0x9d, 0x62, 0xce, 0xcb, 0x8c, 0x33, 0xd2,
    0x1c, 0x86, 0xf1, 0x81, 0x9e, 0xb6, 0xb2, 0xf0, 0x81, 0x9c, 0xaa, 0x44,
    0x12, 0xf6, 0x2d, 0x5d, 0xe2, 0x2b, 0xab, 0x11, 0x08, 0xf3, 0x28, 0xad,
    0xcd, 0xef, 0xe1, 0x35, 0xb2, 0x47, 0xfc, 0x3e, 0xa5, 0x32, 0xc0, 0xcb,
    0xf8, 0x16, 0x15, 0x05, 0xdb, 0x07, 0x74, 0x00, 0x27, 0xf6, 0xe0, 0xe0,
    0xea, 0xf2, 0x68, 0xff, 0x12, 0x21, 0xd6, 0x1a, 0xb1, 0xfb, 0xe3, 0x1f,
    0xee, 0x10, 0xf2, 0x00, 0xb9, 0x04, 0x7f, 0x0c, 0x26, 0xff, 0x02, 0x06,
    0xdb, 0xfd, 0x69, 0xfc, 0x16, 0x2d, 0xf0, 0xf0, 0xc3, 0xe9, 0xcb, 0x0b,
    0x1c, 0x00, 0x19, 0xeb, 0xfc, 0xf2, 0x60, 0x17, 0x04, 0xf8, 0xf9, 0xf4,
    0xf4, 0xf6, 0x48, 0x0c, 0x0a, 0x11, 0xc9, 0x05, 0xeb, 0xfe, 0xf5, 0x1f,
    0x48, 0xdf, 0xff, 0xff, 0x62, 0xf8, 0xff, 0xff, 0x04, 0x00, 0x00, 0x00,
    0x30, 0x00, 0x00, 0x00, 0x00, 0x00, 0x00, 0x00, 0x00, 0x00, 0x00, 0x00,
    0x00, 0x00, 0x00, 0x00, 0x00, 0x00, 0x00, 0x00, 0x00, 0x00, 0x00, 0x00,
    0x00, 0x00, 0x00, 0x00, 0x00, 0x00, 0x00, 0x00, 0x00, 0x00, 0x00, 0x00,
    0x00, 0x00, 0x00, 0x00, 0x00, 0x00, 0x00, 0x00, 0x00, 0x00, 0x00, 0x00,
    0x00, 0x00, 0x00, 0x00, 0x9e, 0xf8, 0xff, 0xff, 0x04, 0x00, 0x00, 0x00,
    0x6c, 0x00, 0x00, 0x00, 0x50, 0x7f, 0x7f, 0x48, 0x55, 0x7f, 0x35, 0x16,
    0xb7, 0x79, 0x81, 0x7f, 0x28, 0x57, 0x33, 0x0c, 0xa6, 0x37, 0x7f, 0x6b,
    0x33, 0x33, 0x58, 0x72, 0x35, 0x44, 0x78, 0x83, 0x09, 0xf4, 0x28, 0xb5,
    0x03, 0x75, 0x2c, 0x52, 0x71, 0xb7, 0x42, 0x2d, 0xf0, 0x7f, 0xb7, 0x62,
    0xf0, 0x43, 0x7e, 0x12, 0x42, 0x00, 0x56, 0x2d, 0xb6, 0x46, 0x1e, 0x7b,
    0x06, 0x29, 0xd8, 0x7d, 0x7d, 0x19, 0x5e, 0x49, 0x28, 0x03, 0xf1, 0xc1,
    0x7d, 0x12, 0x8b, 0x71, 0x29, 0x3d, 0x63, 0x81, 0xf7, 0x5f, 0xe2, 0x76,
    0x29, 0x78, 0xfb, 0x06, 0x76, 0x6d, 0x6f, 0x95, 0x81, 0xb1, 0x4c, 0xe4,
    0x05, 0x76, 0x9e, 0x06, 0x7f, 0x61, 0x7e, 0xbd, 0x0a, 0x72, 0xcd, 0x81,
    0x7f, 0x7f, 0xf8, 0x30, 0x16, 0xf9, 0xff, 0xff, 0x04, 0x00, 0x00, 0x00,
    0xc0, 0x00, 0x00, 0x00, 0xc2, 0xf7, 0xa2, 0x34, 0xc2, 0x08, 0xf2, 0x28,
    0xd3, 0x7f, 0x25, 0x52, 0x0b, 0x0e, 0xf0, 0x3e, 0x81, 0xfe, 0x3c, 0x5a,
    0xd3, 0xc7, 0x22, 0xfd, 0x4a, 0xe5, 0x49, 0xd4, 0x7f, 0x51, 0xdf, 0x23,
    0xef, 0x2d, 0x3d, 0x1c, 0x31, 0xda, 0x3c, 0xf5, 0x7f, 0xed, 0x50, 0x30,
    0xf0, 0x07, 0xd1, 0xfa, 0x05, 0x13, 0xaf, 0xfd, 0x91, 0x12, 0xf7, 0x5b,
    0x2b, 0x81, 0xbf, 0xdb, 0x26, 0xef, 0xd5, 0x19, 0xf3, 0x0c, 0xdb, 0x43,
    0x2e, 0x81, 0xe3, 0xd8, 0x19, 0x47, 0x9b, 0xfb, 0x81, 0xe2, 0x2e, 0xe1,
    0x08, 0x8e, 0xad, 0xa0, 0x95, 0xdc, 0x9d, 0x44, 0x90, 0x7f, 0x17, 0x3c,
    0x24, 0x3d, 0x4b, 0x74, 0xcc, 0x31, 0x08, 0xf7, 0xcc, 0xc1, 0x05, 0x04,
    0x43, 0x81, 0x4c, 0x8d, 0x81, 0x22, 0xac, 0x42, 0xd8, 0x48, 0xda, 0xf0,
    0xf4, 0x41, 0x29, 0x43, 0x08, 0xe4, 0x41, 0xc9, 0x7f, 0x2e, 0x31, 0x12,
    0x0e, 0x68, 0xfc, 0x23, 0xeb, 0xbf, 0x61, 0xde, 0x7f, 0xf4, 0x01, 0x39,
    0xf4, 0x5f, 0x4c, 0x04, 0x2f, 0xf9, 0xbc, 0x38, 0xce, 0xed, 0x0e, 0x20,
    0x18, 0x81, 0xe2, 0xd9, 0xa9, 0x34, 0xae, 0x0a, 0x81, 0x56, 0x3c, 0xd2,
    0x36, 0xdd, 0xe2, 0x2e, 0x81, 0x2e, 0xcb, 0x31, 0xa3, 0x32, 0x24, 0x02,
    0x11, 0x17, 0xc0, 0x25, 0xb8, 0xe0, 0x11, 0xb8, 0xc3, 0x4f, 0x81, 0x27,
    0x1f, 0xb0, 0xff, 0xfc, 0xe2, 0xf9, 0xff, 0xff, 0x04, 0x00, 0x00, 0x00,
    0x40, 0x00, 0x00, 0x00, 0x00, 0x00, 0x00, 0x00, 0x00, 0x00, 0x00, 0x00,
    0x00, 0x00, 0x00, 0x00, 0x00, 0x00, 0x00, 0x00, 0x00, 0x00, 0x00, 0x00,
    0x00, 0x00, 0x00, 0x00, 0x00, 0x00, 0x00, 0x00, 0x00, 0x00, 0x00, 0x00,
    0x00, 0x00, 0x00, 0x00, 0x00, 0x00, 0x00, 0x00, 0x00, 0x00, 0x00, 0x00,
    0x00, 0x00, 0x00, 0x00, 0x00, 0x00, 0x00, 0x00, 0x00, 0x00, 0x00, 0x00,
    0x00, 0x00, 0x00, 0x00, 0x00, 0x00, 0x00, 0x00, 0x2e, 0xfa, 0xff, 0xff,
    0x04, 0x00, 0x00, 0x00, 0x00, 0x04, 0x00, 0x00, 0x0f, 0xa4, 0x8d, 0xa8,
    0x64, 0xe6, 0x19, 0x81, 0xa3, 0x63, 0xce, 0x07, 0x62, 0x2a, 0xa5, 0xae,
    0x7f, 0xa4, 0x7b, 0x4b, 0x16, 0xa0, 0xbe, 0x03, 0xfd, 0x2c, 0x27, 0xdf,
    0xc2, 0x50, 0xf9, 0x13, 0xd2, 0x8a, 0xe0, 0x3a, 0xe5, 0x81, 0xc6, 0x25,
    0x5d, 0xaa, 0x89, 0x18, 0x6c, 0xd9, 0x47, 0x94, 0x76, 0x2b, 0xe1, 0x81,
    0x0e, 0x32, 0xfd, 0x7c, 0x0e, 0xca, 0xcc, 0xb2, 0x0d, 0x21, 0x10, 0x20,
    0xb1, 0x4e, 0xce, 0xaf, 0xff, 0x7f, 0xc2, 0xa3, 0x40, 0x20, 0xe6, 0xe8,
    0xfa, 0x20, 0x37, 0x3d, 0x24, 0x8f, 0x06, 0xd1, 0xb0, 0x81, 0xfb, 0x4d,
    0xd4, 0x60, 0x4a, 0xdc, 0xa9, 0x09, 0x56, 0x52, 0xb8, 0xe6, 0x09, 0x81,
    0x95, 0x0d, 0xdd, 0x08, 0x2d, 0x57, 0x19, 0x60, 0x55, 0xdc, 0xcd, 0xea,
    0x0c, 0xde, 0x16, 0x16, 0xda, 0x81, 0xc8, 0xf8, 0xc1, 0x06, 0xf9, 0x52,
    0x8f, 0x10, 0xc4, 0x96, 0xd7, 0x7f, 0xad, 0x9c, 0x11, 0x2b, 0x2c, 0x15,
    0x0b, 0x48, 0xc1, 0xa1, 0x21, 0xea, 0xe4, 0xfc, 0x4c, 0xb7, 0x10, 0xd0,
    0xd3, 0x81, 0xaf, 0x4a, 0xcf, 0x1a, 0x2e, 0xba, 0xf1, 0xdd, 0x20, 0xbc,
    0xfa, 0x05, 0x7f, 0x36, 0xc3, 0x3d, 0x24, 0xf2, 0xb4, 0xb6, 0x5d, 0x17,
    0x61, 0x35, 0xd0, 0xed, 0x2a, 0xf0, 0x28, 0xcb, 0xc8, 0x81, 0xe5, 0x1e,
    0xc9, 0x30, 0xfa, 0xd6, 0xaa, 0xeb, 0xcd, 0xc6, 0xa9, 0x4d, 0x81, 0xf9,
    0x1d, 0x44, 0x42, 0xb4, 0x3d, 0x0f, 0x91, 0x59, 0x61, 0xa7, 0x86, 0xc1,
    0xb3, 0x52, 0xb7, 0xca, 0xcd, 0x94, 0xb4, 0x08, 0x66, 0x81, 0xee, 0x1e,
    0x6c, 0xdf, 0x47, 0x44, 0xaa, 0x4d, 0xc9, 0x08, 0xc3, 0x7c, 0x23, 0x81,
    0x9b, 0xce, 0xfb, 0x79, 0x50, 0xfa, 0x01, 0xff, 0x9a, 0xe4, 0x9f, 0x81,
    0x58, 0xbe, 0x13, 0x8f, 0x3e, 0x9a, 0xe7, 0xb2, 0x69, 0x1f, 0xc3, 0x9b,
    0xf5, 0x7f, 0xbf, 0xdc, 0xec, 0x29, 0x26, 0xcb, 0xec, 0x02, 0xf9, 0x03,
    0xee, 0x20, 0x11, 0x22, 0xb0, 0x9b, 0x17, 0x19, 0x0e, 0x81, 0x46, 0x03,
    0xf2, 0x6f, 0x00, 0x95, 0x22, 0x86, 0x97, 0x1c, 0x08, 0x5f, 0x36, 0xf4,
    0x09, 0x2a, 0xed, 0x0d, 0xb7, 0x81, 0x92, 0x00, 0x0b, 0xac, 0x4e, 0xb2,
    0xe8, 0x7f, 0x8f, 0xcd, 0xd6, 0x39, 0xfc, 0x1d, 0xd7, 0x2d, 0x33, 0x8c,
    0xf2, 0x0c, 0x0d, 0xf8, 0x0c, 0x81, 0x99, 0x69, 0xad, 0xea, 0x31, 0x6f,
    0xf0, 0xef, 0xb2, 0xf1, 0x42, 0x82, 0x53, 0x39, 0xc5, 0x0c, 0x7d, 0x4f,
    0x18, 0x40, 0xff, 0x30, 0xbe, 0xe2, 0x7f, 0x6c, 0x3d, 0xbe, 0x2a, 0xd9,
    0xf3, 0x7f, 0xbb, 0xe9, 0x39, 0x3d, 0x25, 0xcd, 0x23, 0xe7, 0x42, 0x87,
    0x6c, 0x06, 0xc8, 0xe6, 0xb0, 0x7f, 0xe0, 0xf0, 0xf0, 0x59, 0x16, 0xfd,
    0xf4, 0xd8, 0xdd, 0x28, 0x45, 0xf7, 0x0f, 0x08, 0xfa, 0xb7, 0x49, 0x2f,
    0xe4, 0x81, 0xc9, 0x2b, 0x3b, 0x05, 0x06, 0x2a, 0x99, 0xfa, 0x18, 0xa8,
    0x33, 0x81, 0x00, 0xf8, 0xc6, 0xc9, 0xfa, 0x1f, 0x08, 0x08, 0x2d, 0x2a,
    0x9f, 0x03, 0x27, 0xb5, 0x00, 0x39, 0xde, 0x17, 0xe9, 0x81, 0x89, 0xe6,
    0x47, 0x39, 0xc2, 0xd8, 0x22, 0xfc, 0xaa, 0x43, 0x4c, 0x0e, 0x0d, 0xb4,
    0xba, 0xa8, 0xa4, 0x7f, 0xd0, 0xf7, 0x27, 0xb0, 0xb6, 0xed, 0x0f, 0xad,
    0x0c, 0xca, 0x2a, 0xce, 0xf4, 0x81, 0xcf, 0x2f, 0xc3, 0x12, 0x10, 0xce,
    0xbb, 0xf4, 0x12, 0xf6, 0x12, 0xcb, 0x12, 0xf1, 0xd9, 0x81, 0xf8, 0x6b,
    0xc8, 0xfb, 0x13, 0xdc, 0xa1, 0x1d, 0x01, 0x9b, 0x40, 0xac, 0xf2, 0x81,
    0xd9, 0xc3, 0xd1, 0x3c, 0x72, 0xe3, 0xdc, 0x8f, 0xab, 0xc0, 0x55, 0x13,
    0xab, 0xbf, 0x96, 0x7f, 0xd2, 0xd5, 0xcc, 0x81, 0xa6, 0x9c, 0x57, 0x8c,
    0x6e, 0x1b, 0xce, 0xe9, 0x10, 0x51, 0x01, 0xc1, 0x08, 0x7f, 0xd3, 0xf4,
    0xaa, 0x0e, 0x02, 0x17, 0xab, 0x8b, 0xd4, 0xc2, 0x07, 0x56, 0x5a, 0xfb,
    0x62, 0xf4, 0x50, 0x8f, 0xf4, 0xde, 0x9d, 0xd3, 0x51, 0x81, 0xcc, 0xe7,
    0x30, 0xc1, 0xe5, 0x61, 0xa1, 0x5b, 0x7f, 0xc0, 0x40, 0x8b, 0xb6, 0x0a,
    0xe9, 0xc0, 0xcb, 0xb8, 0x2c, 0x9b, 0x40, 0xec, 0xea, 0x81, 0xdd, 0x38,
    0xb0, 0xf2, 0x05, 0x69, 0xc1, 0xd0, 0x01, 0xef, 0x13, 0x81, 0xbd, 0x69,
    0x02, 0x09, 0xf5, 0x1a, 0x1c, 0x02, 0xc5, 0x03, 0x10, 0xfe, 0xd0, 0x83,
    0xf2, 0x12, 0x83, 0xb6, 0x12, 0x31, 0x11, 0x0d, 0x1b, 0x06, 0x0d, 0x81,
    0xee, 0x33, 0x38, 0x47, 0x31, 0x81, 0xa4, 0x97, 0x2f, 0xf4, 0xe1, 0x9a,
    0xc9, 0xf1, 0xff, 0x13, 0x22, 0x03, 0xdf, 0xa2, 0x3f, 0xdd, 0x7f, 0xc8,
    0x44, 0xae, 0x9e, 0x16, 0x54, 0xeb, 0x0d, 0x72, 0x1d, 0xea, 0x72, 0xef,
    0xfe, 0x81, 0x22, 0x3e, 0xd1, 0x9c, 0x19, 0xf4, 0x16, 0xf3, 0xfa, 0x57,
    0xb5, 0x22, 0x1b, 0xcd, 0xfa, 0x7f, 0xe3, 0xc8, 0xe9, 0x0c, 0x24, 0xcb,
    0xff, 0xcb, 0xe7, 0xb4, 0x2e, 0xfd, 0x32, 0x34, 0xfa, 0x96, 0xc4, 0x81,
    0xfc, 0xe8, 0xa9, 0x21, 0x33, 0x34, 0xcd, 0x87, 0x30, 0xad, 0x59, 0xd7,
    0x09, 0x31, 0x81, 0xdf, 0x29, 0x21, 0x2b, 0x63, 0x0e, 0xc5, 0xd9, 0xde,
    0xde, 0x29, 0x30, 0xda, 0x29, 0xed, 0x5b, 0x7f, 0xed, 0xc8, 0xe3, 0xec,
    0xf3, 0xfd, 0xff, 0x3d, 0xde, 0x09, 0xd8, 0xd9, 0xd3, 0xec, 0x6c, 0x7f,
    0xd5, 0xeb, 0x4d, 0x95, 0xad, 0x8e, 0x63, 0x36, 0x04, 0xd5, 0x38, 0x25,
    0x1b, 0x81, 0x93, 0x34, 0x95, 0xc6, 0xe1, 0xe9, 0x39, 0x36, 0x20, 0xa7,
    0xf5, 0xfc, 0xbd, 0x85, 0xbf, 0x90, 0x25, 0x28, 0x82, 0x0c, 0x81, 0xa3,
    0x48, 0xa3, 0xc2, 0x63, 0xbb, 0xc3, 0xde, 0xfd, 0x81, 0xc8, 0xd4, 0x02,
    0x88, 0x69, 0x85, 0x21, 0xb2, 0x87, 0x00, 0xa3, 0x28, 0x63, 0xc6, 0xe8,
    0xd6, 0x69, 0xe8, 0x81, 0xc8, 0xf7, 0x1a, 0xd6, 0x25, 0x21, 0x2a, 0xb4,
    0x33, 0xfa, 0x1d, 0x2c, 0x0f, 0x39, 0xb9, 0x81, 0xc7, 0xfc, 0xf7, 0x18,
    0xe6, 0xb7, 0xdc, 0x12, 0x4e, 0x4c, 0x32, 0x16, 0xe8, 0x7f, 0xe7, 0x27,
    0xe0, 0x12, 0xdb, 0xc8, 0xe3, 0xbe, 0x0e, 0xea, 0x2c, 0xec, 0xd0, 0xe3,
    0x1e, 0x57, 0x03, 0x81, 0xd0, 0x18, 0xf7, 0x68, 0xe1, 0x48, 0xc9, 0xa9,
    0x14, 0xe0, 0xf4, 0x57, 0xdc, 0xbd, 0xa4, 0x25, 0xc9, 0xc8, 0xe6, 0xc7,
    0x9a, 0x02, 0x81, 0x49, 0x78, 0x37, 0x1b, 0x08, 0xdf, 0xa5, 0x24, 0xe3,
    0x14, 0xfe, 0xaa, 0xec, 0xb9, 0xa6, 0xdb, 0xea, 0x7f, 0x3b, 0x99, 0x11,
    0xbe, 0x35, 0x81, 0xae, 0x15, 0xab, 0xa2, 0xff, 0x43, 0xf8, 0x8b, 0xe4,
    0xcf, 0xde, 0x9c, 0x2c, 0x25, 0x46, 0xe8, 0x81, 0xdd, 0x54, 0xcc, 0x0d,
    0xec, 0x20, 0xc7, 0xc9, 0xdc, 0x13, 0x29, 0x24, 0x4a, 0x6f, 0x81, 0xd0,
    0x36, 0xf9, 0x33, 0x2e, 0xef, 0x14, 0xe7, 0xa9, 0x2c, 0xd6, 0x15, 0xc6,
    0x01, 0x02, 0xde, 0x70, 0xca, 0xc3, 0xb6, 0xf4, 0xf3, 0x0d, 0x99, 0x4d,
    0x81, 0xf2, 0x8d, 0x38, 0xd3, 0x7f, 0x03, 0xf0, 0x03, 0x11, 0x17, 0xc3,
    0x0d, 0x19, 0x0c, 0xa4, 0x28, 0xea, 0xdf, 0x0f, 0xf2, 0x7f, 0xa0, 0xdc,
    0x13, 0x61, 0x18, 0x0f, 0xd7, 0x23, 0xcc, 0xbf, 0x67, 0x31, 0x1a, 0x29,
    0x81, 0xc7, 0x38, 0xda, 0x0f, 0xe7, 0xf0, 0xeb, 0xec, 0x88, 0x4e, 0x77,
    0x68, 0x92, 0xdc, 0x64, 0xf9, 0x4b, 0xc9, 0xb2, 0x5b, 0xed, 0x81, 0xe6,
    0x2e, 0xe7, 0x1f, 0x45, 0xda, 0xc6, 0xdc, 0xde, 0x16, 0x63, 0x81, 0xe3,
    0x19, 0x3e, 0x3d, 0x01, 0x18, 0x26, 0xc7, 0xa0, 0x06, 0x29, 0xdf, 0x2c,
    0x3a, 0xfe, 0xff, 0xff, 0x04, 0x00, 0x00, 0x00, 0x00, 0x01, 0x00, 0x00,
    0x9e, 0xf7, 0xff, 0xff, 0x8c, 0xc0, 0xff, 0xff, 0xba, 0xfa, 0xff, 0xff,
    0xce, 0x0d, 0x00, 0x00, 0x94, 0x12, 0x00, 0x00, 0xec, 0xc3, 0xff, 0xff,
    0xc8, 0xe5, 0xff, 0xff, 0xb3, 0x35, 0x00, 0x00, 0x7e, 0x2e, 0x00, 0x00,
    0x3e, 0x19, 0x00, 0x00, 0x2c, 0xd1, 0xff, 0xff, 0xdd, 0x29, 0x00, 0x00,
    0x6a, 0xf0, 0xff, 0xff, 0x00, 0x00, 0x00, 0x00, 0x5d, 0xdf, 0xff, 0xff,
    0xa8, 0xdb, 0xff, 0xff, 0xaa, 0x10, 0x00, 0x00, 0x00, 0x00, 0x00, 0x00,
    0xde, 0xe3, 0xff, 0xff, 0x74, 0x13, 0x00, 0x00, 0x66, 0xe3, 0xff, 0xff,
    0x15, 0xbc, 0xff, 0xff, 0x15, 0x17, 0x00, 0x00, 0xaa, 0x1c, 0x00, 0x00,
    0xe0, 0x04, 0x00, 0x00, 0xe7, 0x07, 0x00, 0x00, 0x00, 0x00, 0x00, 0x00,
    0x4b, 0x1b, 0x00, 0x00, 0x19, 0x1e, 0x00, 0x00, 0xa5, 0x0f, 0x00, 0x00,
    0x5d, 0xea, 0xff, 0xff, 0x00, 0x00, 0x00, 0x00, 0x00, 0x00, 0x00, 0x00,
    0x87, 0xdf, 0xff, 0xff, 0x00, 0x00, 0x00, 0x00, 0xb4, 0x0e, 0x00, 0x00,
    0x19, 0xf3, 0xff, 0xff, 0xa4, 0x02, 0x00, 0x00, 0x00, 0x00, 0x00, 0x00,
    0xa9, 0x98, 0xff, 0xff, 0x82, 0x04, 0x00, 0x00, 0x3c, 0x30, 0x00, 0x00,
    0x5a, 0xf9, 0xff, 0xff, 0xcc, 0xfa, 0xff, 0xff, 0x2e, 0xfb, 0xff, 0xff,
    0x04, 0x2b, 0x00, 0x00, 0x00, 0x00, 0x00, 0x00, 0x00, 0x00, 0x00, 0x00,
    0xc7, 0xe0, 0xff, 0xff, 0x95, 0x0b, 0x00, 0x00, 0x98, 0x13, 0x00, 0x00,
    0xb4, 0x36, 0x00, 0x00, 0x9a, 0x16, 0x00, 0x00, 0xf2, 0xf5, 0xff, 0xff,
    0x00, 0x00, 0x00, 0x00, 0x00, 0x00, 0x00, 0x00, 0x68, 0x15, 0x00, 0x00,
    0x5c, 0x20, 0x00, 0x00, 0x41, 0xe7, 0xff, 0xff, 0xca, 0x18, 0x00, 0x00,
    0xe6, 0x0b, 0x00, 0x00, 0x34, 0x1b, 0x00, 0x00, 0x00, 0x00, 0x00, 0x00,
    0x62, 0x25, 0x00, 0x00, 0x46, 0xff, 0xff, 0xff, 0x04, 0x00, 0x00, 0x00,
    0x40, 0x00, 0x00, 0x00, 0x06, 0x37, 0xfb, 0x00, 0x02, 0x5c, 0x07, 0xc6,
    0x01, 0xd8, 0x1a, 0xc1, 0x02, 0x04, 0x02, 0x03, 0x02, 0xf4, 0xed, 0x02,
    0x04, 0x07, 0x05, 0x08, 0xdf, 0xe1, 0xf4, 0xd8, 0xce, 0xe1, 0x10, 0x00,
    0x06, 0xf4, 0x0f, 0xd7, 0xf3, 0xfe, 0x13, 0x1a, 0xe7, 0x02, 0xfd, 0xfe,
    0xf7, 0x0f, 0x04, 0x0f, 0x03, 0x01, 0x02, 0x7f, 0x01, 0x09, 0xed, 0x0c,
    0x00, 0x01, 0xf3, 0x08, 0x01, 0x16, 0x0f, 0x00, 0x92, 0xff, 0xff, 0xff,
    0x04, 0x00, 0x00, 0x00, 0x04, 0x00, 0x00, 0x00, 0xb0, 0x06, 0x00, 0x00,
    0xa2, 0xff, 0xff, 0xff, 0x04, 0x00, 0x00, 0x00, 0x40, 0x00, 0x00, 0x00,
    0xff, 0xc4, 0xcd, 0x1c, 0x35, 0x16, 0xcb, 0x81, 0x24, 0x40, 0x9c, 0x3a,
    0x1d, 0x1a, 0xd8, 0xcc, 0x38, 0x2e, 0xe8, 0x3c, 0xe5, 0x87, 0x3b, 0x3e,
    0xee, 0x07, 0x04, 0x63, 0x27, 0x1b, 0xfa, 0xee, 0xca, 0xf6, 0x26, 0xf5,
    0xff, 0x2a, 0xf7, 0x8a, 0xe4, 0x1f, 0xce, 0x38, 0x82, 0xa4, 0xd8, 0xf5,
    0xce, 0x32, 0x41, 0x1f, 0x37, 0x03, 0xf3, 0x30, 0x37, 0x23, 0xfe, 0x34,
    0x1b, 0x11, 0x08, 0x1a, 0xee, 0xff, 0xff, 0xff, 0x04, 0x00, 0x00, 0x00,
    0x04, 0x00, 0x00, 0x00, 0x7b, 0x2e, 0x01, 0x00, 0x00, 0x00, 0x06, 0x00,
    0x08, 0x00, 0x04, 0x00, 0x06, 0x00, 0x00, 0x00, 0x04, 0x00, 0x00, 0x00,
    0x08, 0x00, 0x00, 0x00, 0x01, 0x00, 0x00, 0x00, 0x02, 0x00, 0x00, 0x00,
    0x04, 0xe7, 0xff, 0xff, 0x08, 0xe7, 0xff, 0xff, 0x0f, 0x00, 0x00, 0x00,
    0x4d, 0x4c, 0x49, 0x52, 0x20, 0x43, 0x6f, 0x6e, 0x76, 0x65, 0x72, 0x74,
    0x65, 0x64, 0x2e, 0x00, 0x01, 0x00, 0x00, 0x00, 0x14, 0x00, 0x00, 0x00,
    0x00, 0x00, 0x0e, 0x00, 0x18, 0x00, 0x14, 0x00, 0x10, 0x00, 0x0c, 0x00,
    0x08, 0x00, 0x04, 0x00, 0x0e, 0x00, 0x00, 0x00, 0x14, 0x00, 0x00, 0x00,
    0x1c, 0x00, 0x00, 0x00, 0x88, 0x02, 0x00, 0x00, 0x90, 0x02, 0x00, 0x00,
    0x94, 0x02, 0x00, 0x00, 0x04, 0x00, 0x00, 0x00, 0x6d, 0x61, 0x69, 0x6e,
    0x00, 0x00, 0x00, 0x00, 0x09, 0x00, 0x00, 0x00, 0x24, 0x02, 0x00, 0x00,
    0xd4, 0x01, 0x00, 0x00, 0x7c, 0x01, 0x00, 0x00, 0x2c, 0x01, 0x00, 0x00,
    0xf8, 0x00, 0x00, 0x00, 0xa4, 0x00, 0x00, 0x00, 0x6c, 0x00, 0x00, 0x00,
    0x48, 0x00, 0x00, 0x00, 0x04, 0x00, 0x00, 0x00, 0x2a, 0xff, 0xff, 0xff,
    0x14, 0x00, 0x00, 0x00, 0x00, 0x00, 0x00, 0x08, 0x10, 0x00, 0x00, 0x00,
    0x14, 0x00, 0x00, 0x00, 0x03, 0x00, 0x00, 0x00, 0x9c, 0xe7, 0xff, 0xff,
    0x01, 0x00, 0x00, 0x00, 0x18, 0x00, 0x00, 0x00, 0x03, 0x00, 0x00, 0x00,
    0x15, 0x00, 0x00, 0x00, 0x03, 0x00, 0x00, 0x00, 0x02, 0x00, 0x00, 0x00,
    0x00, 0x00, 0x0a, 0x00, 0x10, 0x00, 0x0c, 0x00, 0x08, 0x00, 0x04, 0x00,
    0x0a, 0x00, 0x00, 0x00, 0x0c, 0x00, 0x00, 0x00, 0x10, 0x00, 0x00, 0x00,
    0x04, 0x00, 0x00, 0x00, 0x01, 0x00, 0x00, 0x00, 0x17, 0x00, 0x00, 0x00,
    0x01, 0x00, 0x00, 0x00, 0x16, 0x00, 0x00, 0x00, 0x8a, 0xff, 0xff, 0xff,
    0x14, 0x00, 0x00, 0x00, 0x00, 0x00, 0x00, 0x08, 0x10, 0x00, 0x00, 0x00,
    0x14, 0x00, 0x00, 0x00, 0x03, 0x00, 0x00, 0x00, 0xfc, 0xe7, 0xff, 0xff,
    0x01, 0x00, 0x00, 0x00, 0x16, 0x00, 0x00, 0x00, 0x03, 0x00, 0x00, 0x00,
    0x15, 0x00, 0x00, 0x00, 0x05, 0x00, 0x00, 0x00, 0x04, 0x00, 0x00, 0x00,
    0x42, 0xff, 0xff, 0xff, 0x1c, 0x00, 0x00, 0x00, 0x00, 0x00, 0x00, 0x08,
    0x1c, 0x00, 0x00, 0x00, 0x20, 0x00, 0x00, 0x00, 0x03, 0x00, 0x00, 0x00,
    0x00, 0x00, 0x06, 0x00, 0x08, 0x00, 0x07, 0x00, 0x06, 0x00, 0x00, 0x00,
    0x00, 0x00, 0x00, 0x03, 0x01, 0x00, 0x00, 0x00, 0x15, 0x00, 0x00, 0x00,
    0x03, 0x00, 0x00, 0x00, 0x14, 0x00, 0x00, 0x00, 0x07, 0x00, 0x00, 0x00,
    0x06, 0x00, 0x00, 0x00, 0x00, 0x00, 0x0e, 0x00, 0x18, 0x00, 0x14, 0x00,
    0x10, 0x00, 0x0c, 0x00, 0x0b, 0x00, 0x04, 0x00, 0x0e, 0x00, 0x00, 0x00,
    0x14, 0x00, 0x00, 0x00, 0x00, 0x00, 0x00, 0x1b, 0x10, 0x00, 0x00, 0x00,
    0x14, 0x00, 0x00, 0x00, 0x02, 0x00, 0x00, 0x00, 0x80, 0xe8, 0xff, 0xff,
    0x01, 0x00, 0x00, 0x00, 0x14, 0x00, 0x00, 0x00, 0x02, 0x00, 0x00, 0x00,
    0x13, 0x00, 0x00, 0x00, 0x01, 0x00, 0x00, 0x00, 0x22, 0xff, 0xff, 0xff,
    0x10, 0x00, 0x00, 0x00, 0x00, 0x00, 0x00, 0x01, 0x18, 0x00, 0x00, 0x00,
    0x1c, 0x00, 0x00, 0x00, 0x14, 0xff, 0xff, 0xff, 0x00, 0x00, 0x00, 0x03,
    0x01, 0x00, 0x00, 0x00, 0x01, 0x00, 0x00, 0x00, 0x01, 0x00, 0x00, 0x00,
    0x13, 0x00, 0x00, 0x00, 0x03, 0x00, 0x00, 0x00, 0x12, 0x00, 0x00, 0x00,
    0x09, 0x00, 0x00, 0x00, 0x08, 0x00, 0x00, 0x00, 0x00, 0x00, 0x0e, 0x00,
    0x1a, 0x00, 0x14, 0x00, 0x10, 0x00, 0x0c, 0x00, 0x0b, 0x00, 0x04, 0x00,
    0x0e, 0x00, 0x00, 0x00, 0x24, 0x00, 0x00, 0x00, 0x00, 0x00, 0x00, 0x02,
    0x30, 0x00, 0x00, 0x00, 0x34, 0x00, 0x00, 0x00, 0x01, 0x00, 0x00, 0x00,
    0x00, 0x00, 0x0e, 0x00, 0x14, 0x00, 0x00, 0x00, 0x10, 0x00, 0x0c, 0x00,
    0x08, 0x00, 0x07, 0x00, 0x0e, 0x00, 0x00, 0x00, 0x00, 0x00, 0x00, 0x03,
    0x01, 0x00, 0x00, 0x00, 0x01, 0x00, 0x00, 0x00, 0x01, 0x00, 0x00, 0x00,
    0x01, 0x00, 0x00, 0x00, 0x12, 0x00, 0x00, 0x00, 0x03, 0x00, 0x00, 0x00,
    0x11, 0x00, 0x00, 0x00, 0x0a, 0x00, 0x00, 0x00, 0x0c, 0x00, 0x00, 0x00,
    0xc2, 0xff, 0xff, 0xff, 0x10, 0x00, 0x00, 0x00, 0x00, 0x00, 0x00, 0x01,
    0x18, 0x00, 0x00, 0x00, 0x1c, 0x00, 0x00, 0x00, 0xb4, 0xff, 0xff, 0xff,
    0x00, 0x00, 0x00, 0x03, 0x01, 0x00, 0x00, 0x00, 0x01, 0x00, 0x00, 0x00,
    0x01, 0x00, 0x00, 0x00, 0x11, 0x00, 0x00, 0x00, 0x03, 0x00, 0x00, 0x00,
    0x10, 0x00, 0x00, 0x00, 0x0d, 0x00, 0x00, 0x00, 0x0b, 0x00, 0x00, 0x00,
    0x00, 0x00, 0x0e, 0x00, 0x14, 0x00, 0x00, 0x00, 0x10, 0x00, 0x0c, 0x00,
    0x0b, 0x00, 0x04, 0x00, 0x0e, 0x00, 0x00, 0x00, 0x1c, 0x00, 0x00, 0x00,
    0x00, 0x00, 0x00, 0x01, 0x24, 0x00, 0x00, 0x00, 0x28, 0x00, 0x00, 0x00,
    0x0c, 0x00, 0x10, 0x00, 0x00, 0x00, 0x0c, 0x00, 0x08, 0x00, 0x07, 0x00,
    0x0c, 0x00, 0x00, 0x00, 0x00, 0x00, 0x00, 0x03, 0x01, 0x00, 0x00, 0x00,
    0x01, 0x00, 0x00, 0x00, 0x01, 0x00, 0x00, 0x00, 0x10, 0x00, 0x00, 0x00,
    0x03, 0x00, 0x00, 0x00, 0x00, 0x00, 0x00, 0x00, 0x0f, 0x00, 0x00, 0x00,
    0x0e, 0x00, 0x00, 0x00, 0x02, 0x00, 0x00, 0x00, 0x18, 0x00, 0x00, 0x00,
    0x17, 0x00, 0x00, 0x00, 0x01, 0x00, 0x00, 0x00, 0x00, 0x00, 0x00, 0x00,
    0x19, 0x00, 0x00, 0x00, 0x58, 0x16, 0x00, 0x00, 0xfc, 0x15, 0x00, 0x00,
    0x84, 0x15, 0x00, 0x00, 0x20, 0x15, 0x00, 0x00, 0xbc, 0x14, 0x00, 0x00,
    0x58, 0x14, 0x00, 0x00, 0x04, 0x11, 0x00, 0x00, 0xa8, 0x0d, 0x00, 0x00,
    0x94, 0x0c, 0x00, 0x00, 0x70, 0x0b, 0x00, 0x00, 0x64, 0x0a, 0x00, 0x00,
    0x68, 0x09, 0x00, 0x00, 0x84, 0x08, 0x00, 0x00, 0x90, 0x07, 0x00, 0x00,
    0xdc, 0x06, 0x00, 0x00, 0x18, 0x06, 0x00, 0x00, 0x54, 0x05, 0x00, 0x00,
    0x90, 0x04, 0x00, 0x00, 0xc4, 0x03, 0x00, 0x00, 0x00, 0x03, 0x00, 0x00,
    0x6c, 0x02, 0x00, 0x00, 0xa0, 0x01, 0x00, 0x00, 0xfc, 0x00, 0x00, 0x00,
    0x80, 0x00, 0x00, 0x00, 0x04, 0x00, 0x00, 0x00, 0x22, 0xea, 0xff, 0xff,
    0x00, 0x00, 0x00, 0x01, 0x18, 0x00, 0x00, 0x00, 0x20, 0x00, 0x00, 0x00,
    0x3c, 0x00, 0x00, 0x00, 0x19, 0x00, 0x00, 0x00, 0x00, 0x00, 0x00, 0x09,
    0x50, 0x00, 0x00, 0x00, 0x02, 0x00, 0x00, 0x00, 0xff, 0xff, 0xff, 0xff,
    0x01, 0x00, 0x00, 0x00, 0x04, 0xea, 0xff, 0xff, 0x08, 0x00, 0x00, 0x00,
    0x10, 0x00, 0x00, 0x00, 0x01, 0x00, 0x00, 0x00, 0xcb, 0xff, 0xff, 0xff,
    0xff, 0xff, 0xff, 0xff, 0x01, 0x00, 0x00, 0x00, 0x40, 0x92, 0x9b, 0x3b,
    0x1b, 0x00, 0x00, 0x00, 0x53, 0x74, 0x61, 0x74, 0x65, 0x66, 0x75, 0x6c,
    0x50, 0x61, 0x72, 0x74, 0x69, 0x74, 0x69, 0x6f, 0x6e, 0x65, 0x64, 0x43,
    0x61, 0x6c, 0x6c, 0x5f, 0x31, 0x3a, 0x31, 0x00, 0x02, 0x00, 0x00, 0x00,
    0x01, 0x00, 0x00, 0x00, 0x01, 0x00, 0x00, 0x00, 0x9a, 0xea, 0xff, 0xff,
    0x00, 0x00, 0x00, 0x01, 0x18, 0x00, 0x00, 0x00, 0x20, 0x00, 0x00, 0x00,
    0x3c, 0x00, 0x00, 0x00, 0x18, 0x00, 0x00, 0x00, 0x00, 0x00, 0x00, 0x09,
    0x50, 0x00, 0x00, 0x00, 0x02, 0x00, 0x00, 0x00, 0xff, 0xff, 0xff, 0xff,
    0x01, 0x00, 0x00, 0x00, 0x7c, 0xea, 0xff, 0xff, 0x08, 0x00, 0x00, 0x00,
    0x10, 0x00, 0x00, 0x00, 0x01, 0x00, 0x00, 0x00, 0x00, 0x00, 0x00, 0x00,
    0x00, 0x00, 0x00, 0x00, 0x01, 0x00, 0x00, 0x00, 0x00, 0x00, 0x00, 0x3c,
    0x1b, 0x00, 0x00, 0x00, 0x53, 0x74, 0x61, 0x74, 0x65, 0x66, 0x75, 0x6c,
    0x50, 0x61, 0x72, 0x74, 0x69, 0x74, 0x69, 0x6f, 0x6e, 0x65, 0x64, 0x43,
    0x61, 0x6c, 0x6c, 0x5f, 0x31, 0x3a, 0x30, 0x00, 0x02, 0x00, 0x00, 0x00,
    0x01, 0x00, 0x00, 0x00, 0x01, 0x00, 0x00, 0x00, 0x12, 0xeb, 0xff, 0xff,
    0x00, 0x00, 0x00, 0x01, 0x18, 0x00, 0x00, 0x00, 0x20, 0x00, 0x00, 0x00,
    0x3c, 0x00, 0x00, 0x00, 0x17, 0x00, 0x00, 0x00, 0x00, 0x00, 0x00, 0x09,
    0x78, 0x00, 0x00, 0x00, 0x02, 0x00, 0x00, 0x00, 0xff, 0xff, 0xff, 0xff,
    0x01, 0x00, 0x00, 0x00, 0xf4, 0xea, 0xff, 0xff, 0x08, 0x00, 0x00, 0x00,
    0x10, 0x00, 0x00, 0x00, 0x01, 0x00, 0x00, 0x00, 0xf9, 0xff, 0xff, 0xff,
    0xff, 0xff, 0xff, 0xff, 0x01, 0x00, 0x00, 0x00, 0x68, 0xa0, 0x90, 0x3b,
    0x40, 0x00, 0x00, 0x00, 0x66, 0x75, 0x6e, 0x63, 0x74, 0x69, 0x6f, 0x6e,
    0x61, 0x6c, 0x5f, 0x32, 0x33, 0x5f, 0x31, 0x2f, 0x73, 0x74, 0x65, 0x65,
    0x72, 0x69, 0x6e, 0x67, 0x5f, 0x31, 0x2f, 0x4d, 0x61, 0x74, 0x4d, 0x75,
    0x6c, 0x3b, 0x66, 0x75, 0x6e, 0x63, 0x74, 0x69, 0x6f, 0x6e, 0x61, 0x6c,
    0x5f, 0x32, 0x33, 0x5f, 0x31, 0x2f, 0x73, 0x74, 0x65, 0x65, 0x72, 0x69,
    0x6e, 0x67, 0x5f, 0x31, 0x2f, 0x41, 0x64, 0x64, 0x00, 0x00, 0x00, 0x00,
    0x02, 0x00, 0x00, 0x00, 0x01, 0x00, 0x00, 0x00, 0x01, 0x00, 0x00, 0x00,
    0xb2, 0xeb, 0xff, 0xff, 0x00, 0x00, 0x00, 0x01, 0x18, 0x00, 0x00, 0x00,
    0x20, 0x00, 0x00, 0x00, 0x40, 0x00, 0x00, 0x00, 0x16, 0x00, 0x00, 0x00,
    0x00, 0x00, 0x00, 0x09, 0xa0, 0x00, 0x00, 0x00, 0x02, 0x00, 0x00, 0x00,
    0xff, 0xff, 0xff, 0xff, 0x40, 0x00, 0x00, 0x00, 0x94, 0xeb, 0xff, 0xff,
    0x08, 0x00, 0x00, 0x00, 0x14, 0x00, 0x00, 0x00, 0x01, 0x00, 0x00, 0x00,
    0x80, 0xff, 0xff, 0xff, 0xff, 0xff, 0xff, 0xff, 0x00, 0x00, 0x00, 0x00,
    0x01, 0x00, 0x00, 0x00, 0xcf, 0x02, 0xb1, 0x3a, 0x65, 0x00, 0x00, 0x00,
    0x66, 0x75, 0x6e, 0x63, 0x74, 0x69, 0x6f, 0x6e, 0x61, 0x6c, 0x5f, 0x32,
    0x33, 0x5f, 0x31, 0x2f, 0x64, 0x65, 0x6e, 0x73, 0x65, 0x5f, 0x33, 0x35,
    0x5f, 0x31, 0x2f, 0x4d, 0x61, 0x74, 0x4d, 0x75, 0x6c, 0x3b, 0x66, 0x75,
    0x6e, 0x63, 0x74, 0x69, 0x6f, 0x6e, 0x61, 0x6c, 0x5f, 0x32, 0x33, 0x5f,
    0x31, 0x2f, 0x64, 0x65, 0x6e, 0x73, 0x65, 0x5f, 0x33, 0x35, 0x5f, 0x31,
    0x2f, 0x52, 0x65, 0x6c, 0x75, 0x36, 0x3b, 0x66, 0x75, 0x6e, 0x63, 0x74,
    0x69, 0x6f, 0x6e, 0x61, 0x6c, 0x5f, 0x32, 0x33, 0x5f, 0x31, 0x2f, 0x64,
    0x65, 0x6e, 0x73, 0x65, 0x5f, 0x33, 0x35, 0x5f, 0x31, 0x2f, 0x42, 0x69,
    0x61, 0x73, 0x41, 0x64, 0x64, 0x00, 0x00, 0x00, 0x02, 0x00, 0x00, 0x00,
    0x01, 0x00, 0x00, 0x00, 0x40, 0x00, 0x00, 0x00, 0x7a, 0xec, 0xff, 0xff,
    0x00, 0x00, 0x00, 0x01, 0x18, 0x00, 0x00, 0x00, 0x20, 0x00, 0x00, 0x00,
    0x3c, 0x00, 0x00, 0x00, 0x15, 0x00, 0x00, 0x00, 0x00, 0x00, 0x00, 0x09,
    0x68, 0x00, 0x00, 0x00, 0x02, 0x00, 0x00, 0x00, 0xff, 0xff, 0xff, 0xff,
    0x10, 0x00, 0x00, 0x00, 0x5c, 0xec, 0xff, 0xff, 0x08, 0x00, 0x00, 0x00,
    0x10, 0x00, 0x00, 0x00, 0x01, 0x00, 0x00, 0x00, 0x80, 0xff, 0xff, 0xff,
    0xff, 0xff, 0xff, 0xff, 0x01, 0x00, 0x00, 0x00, 0xce, 0x56, 0xea, 0x3a,
    0x32, 0x00, 0x00, 0x00, 0x66, 0x75, 0x6e, 0x63, 0x74, 0x69, 0x6f, 0x6e,
    0x61, 0x6c, 0x5f, 0x32, 0x33, 0x5f, 0x31, 0x2f, 0x67, 0x6c, 0x6f, 0x62,
    0x61, 0x6c, 0x5f, 0x61, 0x76, 0x65, 0x72, 0x61, 0x67, 0x65, 0x5f, 0x70,
    0x6f, 0x6f, 0x6c, 0x69, 0x6e, 0x67, 0x32, 0x64, 0x5f, 0x32, 0x33, 0x5f,
    0x31, 0x2f, 0x4d, 0x65, 0x61, 0x6e, 0x00, 0x00, 0x02, 0x00, 0x00, 0x00,
    0x01, 0x00, 0x00, 0x00, 0x10, 0x00, 0x00, 0x00, 0x0a, 0xed, 0xff, 0xff,
    0x00, 0x00, 0x00, 0x01, 0x18, 0x00, 0x00, 0x00, 0x28, 0x00, 0x00, 0x00,
    0x48, 0x00, 0x00, 0x00, 0x14, 0x00, 0x00, 0x00, 0x00, 0x00, 0x00, 0x09,
    0x90, 0x00, 0x00, 0x00, 0x04, 0x00, 0x00, 0x00, 0xff, 0xff, 0xff, 0xff,
    0x18, 0x00, 0x00, 0x00, 0x18, 0x00, 0x00, 0x00, 0x10, 0x00, 0x00, 0x00,
    0xf4, 0xec, 0xff, 0xff, 0x08, 0x00, 0x00, 0x00, 0x14, 0x00, 0x00, 0x00,
    0x01, 0x00, 0x00, 0x00, 0x80, 0xff, 0xff, 0xff, 0xff, 0xff, 0xff, 0xff,
    0x00, 0x00, 0x00, 0x00, 0x01, 0x00, 0x00, 0x00, 0xd8, 0x08, 0x97, 0x3c,
    0x4d, 0x00, 0x00, 0x00, 0x66, 0x75, 0x6e, 0x63, 0x74, 0x69, 0x6f, 0x6e,
    0x61, 0x6c, 0x5f, 0x32, 0x33, 0x5f, 0x31, 0x2f, 0x61, 0x63, 0x74, 0x69,
    0x76, 0x61, 0x74, 0x69, 0x6f, 0x6e, 0x5f, 0x39, 0x39, 0x5f, 0x31, 0x2f,
    0x52, 0x65, 0x6c, 0x75, 0x36, 0x3b, 0x66, 0x75, 0x6e, 0x63, 0x74, 0x69,
    0x6f, 0x6e, 0x61, 0x6c, 0x5f, 0x32, 0x33, 0x5f, 0x31, 0x2f, 0x63, 0x6f,
    0x6e, 0x76, 0x32, 0x64, 0x5f, 0x36, 0x36, 0x5f, 0x31, 0x2f, 0x63, 0x6f,
    0x6e, 0x76, 0x6f, 0x6c, 0x75, 0x74, 0x69, 0x6f, 0x6e, 0x00, 0x00, 0x00,
    0x04, 0x00, 0x00, 0x00, 0x01, 0x00, 0x00, 0x00, 0x18, 0x00, 0x00, 0x00,
    0x18, 0x00, 0x00, 0x00, 0x10, 0x00, 0x00, 0x00, 0xca, 0xed, 0xff, 0xff,
    0x00, 0x00, 0x00, 0x01, 0x18, 0x00, 0x00, 0x00, 0x28, 0x00, 0x00, 0x00,
    0x48, 0x00, 0x00, 0x00, 0x13, 0x00, 0x00, 0x00, 0x00, 0x00, 0x00, 0x09,
    0x98, 0x00, 0x00, 0x00, 0x04, 0x00, 0x00, 0x00, 0xff, 0xff, 0xff, 0xff,
    0x18, 0x00, 0x00, 0x00, 0x18, 0x00, 0x00, 0x00, 0x0c, 0x00, 0x00, 0x00,
    0xb4, 0xed, 0xff, 0xff, 0x08, 0x00, 0x00, 0x00, 0x14, 0x00, 0x00, 0x00,
    0x01, 0x00, 0x00, 0x00, 0x80, 0xff, 0xff, 0xff, 0xff, 0xff, 0xff, 0xff,
    0x00, 0x00, 0x00, 0x00, 0x01, 0x00, 0x00, 0x00, 0xe8, 0x4f, 0x85, 0x3c,
    0x55, 0x00, 0x00, 0x00, 0x66, 0x75, 0x6e, 0x63, 0x74, 0x69, 0x6f, 0x6e,
    0x61, 0x6c, 0x5f, 0x32, 0x33, 0x5f, 0x31, 0x2f, 0x61, 0x63, 0x74, 0x69,
    0x76, 0x61, 0x74, 0x69, 0x6f, 0x6e, 0x5f, 0x39, 0x38, 0x5f, 0x31, 0x2f,
    0x52, 0x65, 0x6c, 0x75, 0x36, 0x3b, 0x66, 0x75, 0x6e, 0x63, 0x74, 0x69,
    0x6f, 0x6e, 0x61, 0x6c, 0x5f, 0x32, 0x33, 0x5f, 0x31, 0x2f, 0x64, 0x65,
    0x70, 0x74, 0x68, 0x77, 0x69, 0x73, 0x65, 0x5f, 0x63, 0x6f, 0x6e, 0x76,
    0x32, 0x64, 0x5f, 0x33, 0x30, 0x5f, 0x31, 0x2f, 0x64, 0x65, 0x70, 0x74,
    0x68, 0x77, 0x69, 0x73, 0x65, 0x00, 0x00, 0x00, 0x04, 0x00, 0x00, 0x00,
    0x01, 0x00, 0x00, 0x00, 0x18, 0x00, 0x00, 0x00, 0x18, 0x00, 0x00, 0x00,
    0x0c, 0x00, 0x00, 0x00, 0x92, 0xee, 0xff, 0xff, 0x00, 0x00, 0x00, 0x01,
    0x18, 0x00, 0x00, 0x00, 0x28, 0x00, 0x00, 0x00, 0x48, 0x00, 0x00, 0x00,
    0x12, 0x00, 0x00, 0x00, 0x00, 0x00, 0x00, 0x09, 0x90, 0x00, 0x00, 0x00,
    0x04, 0x00, 0x00, 0x00, 0xff, 0xff, 0xff, 0xff, 0x18, 0x00, 0x00, 0x00,
    0x18, 0x00, 0x00, 0x00, 0x0c, 0x00, 0x00, 0x00, 0x7c, 0xee, 0xff, 0xff,
    0x08, 0x00, 0x00, 0x00, 0x14, 0x00, 0x00, 0x00, 0x01, 0x00, 0x00, 0x00,
    0x80, 0xff, 0xff, 0xff, 0xff, 0xff, 0xff, 0xff, 0x00, 0x00, 0x00, 0x00,
    0x01, 0x00, 0x00, 0x00, 0x0f, 0xf5, 0xa6, 0x3c, 0x4d, 0x00, 0x00, 0x00,
    0x66, 0x75, 0x6e, 0x63, 0x74, 0x69, 0x6f, 0x6e, 0x61, 0x6c, 0x5f, 0x32,
    0x33, 0x5f, 0x31, 0x2f, 0x61, 0x63, 0x74, 0x69, 0x76, 0x61, 0x74, 0x69,
    0x6f, 0x6e, 0x5f, 0x39, 0x37, 0x5f, 0x31, 0x2f, 0x52, 0x65, 0x6c, 0x75,
    0x36, 0x3b, 0x66, 0x75, 0x6e, 0x63, 0x74, 0x69, 0x6f, 0x6e, 0x61, 0x6c,
    0x5f, 0x32, 0x33, 0x5f, 0x31, 0x2f, 0x63, 0x6f, 0x6e, 0x76, 0x32, 0x64,
    0x5f, 0x36, 0x35, 0x5f, 0x31, 0x2f, 0x63, 0x6f, 0x6e, 0x76, 0x6f, 0x6c,
    0x75, 0x74, 0x69, 0x6f, 0x6e, 0x00, 0x00, 0x00, 0x04, 0x00, 0x00, 0x00,
    0x01, 0x00, 0x00, 0x00, 0x18, 0x00, 0x00, 0x00, 0x18, 0x00, 0x00, 0x00,
    0x0c, 0x00, 0x00, 0x00, 0x52, 0xef, 0xff, 0xff, 0x00, 0x00, 0x00, 0x01,
    0x18, 0x00, 0x00, 0x00, 0x28, 0x00, 0x00, 0x00, 0x48, 0x00, 0x00, 0x00,
    0x11, 0x00, 0x00, 0x00, 0x00, 0x00, 0x00, 0x09, 0x90, 0x00, 0x00, 0x00,
    0x04, 0x00, 0x00, 0x00, 0xff, 0xff, 0xff, 0xff, 0x18, 0x00, 0x00, 0x00,
    0x18, 0x00, 0x00, 0x00, 0x08, 0x00, 0x00, 0x00, 0x3c, 0xef, 0xff, 0xff,
    0x08, 0x00, 0x00, 0x00, 0x14, 0x00, 0x00, 0x00, 0x01, 0x00, 0x00, 0x00,
    0x80, 0xff, 0xff, 0xff, 0xff, 0xff, 0xff, 0xff, 0x00, 0x00, 0x00, 0x00,
    0x01, 0x00, 0x00, 0x00, 0x21, 0xe1, 0x96, 0x3b, 0x4d, 0x00, 0x00, 0x00,
    0x66, 0x75, 0x6e, 0x63, 0x74, 0x69, 0x6f, 0x6e, 0x61, 0x6c, 0x5f, 0x32,
    0x33, 0x5f, 0x31, 0x2f, 0x61, 0x63, 0x74, 0x69, 0x76, 0x61, 0x74, 0x69,
    0x6f, 0x6e, 0x5f, 0x39, 0x36, 0x5f, 0x31, 0x2f, 0x52, 0x65, 0x6c, 0x75,
    0x36, 0x3b, 0x66, 0x75, 0x6e, 0x63, 0x74, 0x69, 0x6f, 0x6e, 0x61, 0x6c,
    0x5f, 0x32, 0x33, 0x5f, 0x31, 0x2f, 0x63, 0x6f, 0x6e, 0x76, 0x32, 0x64,
    0x5f, 0x36, 0x34, 0x5f, 0x31, 0x2f, 0x63, 0x6f, 0x6e, 0x76, 0x6f, 0x6c,
    0x75, 0x74, 0x69, 0x6f, 0x6e, 0x00, 0x00, 0x00, 0x04, 0x00, 0x00, 0x00,
    0x01, 0x00, 0x00, 0x00, 0x18, 0x00, 0x00, 0x00, 0x18, 0x00, 0x00, 0x00,
    0x08, 0x00, 0x00, 0x00, 0x6a, 0xf0, 0xff, 0xff, 0x00, 0x00, 0x00, 0x01,
    0x14, 0x00, 0x00, 0x00, 0x88, 0x00, 0x00, 0x00, 0x10, 0x00, 0x00, 0x00,
    0x00, 0x00, 0x00, 0x09, 0x94, 0x00, 0x00, 0x00, 0xe4, 0xef, 0xff, 0xff,
    0x08, 0x00, 0x00, 0x00, 0x4c, 0x00, 0x00, 0x00, 0x08, 0x00, 0x00, 0x00,
    0x00, 0x00, 0x00, 0x00, 0x00, 0x00, 0x00, 0x00, 0x00, 0x00, 0x00, 0x00,
    0x00, 0x00, 0x00, 0x00, 0x00, 0x00, 0x00, 0x00, 0x00, 0x00, 0x00, 0x00,
    0x00, 0x00, 0x00, 0x00, 0x00, 0x00, 0x00, 0x00, 0x00, 0x00, 0x00, 0x00,
    0x00, 0x00, 0x00, 0x00, 0x00, 0x00, 0x00, 0x00, 0x00, 0x00, 0x00, 0x00,
    0x00, 0x00, 0x00, 0x00, 0x00, 0x00, 0x00, 0x00, 0x00, 0x00, 0x00, 0x00,
    0x00, 0x00, 0x00, 0x00, 0x00, 0x00, 0x00, 0x00, 0x08, 0x00, 0x00, 0x00,
    0x7e, 0x87, 0x40, 0x3b, 0x33, 0xfd, 0x1f, 0x3b, 0x0b, 0xf6, 0x3e, 0x3b,
    0xc5, 0x51, 0x1d, 0x3b, 0x75, 0x7c, 0x76, 0x3b, 0x1b, 0x29, 0xf7, 0x3a,
    0xae, 0xe0, 0xa0, 0x3b, 0xe3, 0x3d, 0x38, 0x3b, 0x13, 0x00, 0x00, 0x00,
    0x74, 0x66, 0x6c, 0x2e, 0x70, 0x73, 0x65, 0x75, 0x64, 0x6f, 0x5f, 0x71,
    0x63, 0x6f, 0x6e, 0x73, 0x74, 0x31, 0x33, 0x00, 0x04, 0x00, 0x00, 0x00,
    0x08, 0x00, 0x00, 0x00, 0x03, 0x00, 0x00, 0x00, 0x03, 0x00, 0x00, 0x00,
    0x01, 0x00, 0x00, 0x00, 0x2a, 0xf1, 0xff, 0xff, 0x00, 0x00, 0x00, 0x01,
    0x14, 0x00, 0x00, 0x00, 0x84, 0x00, 0x00, 0x00, 0x0f, 0x00, 0x00, 0x00,
    0x00, 0x00, 0x00, 0x02, 0x90, 0x00, 0x00, 0x00, 0xa4, 0xf0, 0xff, 0xff,
    0x08, 0x00, 0x00, 0x00, 0x48, 0x00, 0x00, 0x00, 0x08, 0x00, 0x00, 0x00,
    0x00, 0x00, 0x00, 0x00, 0x00, 0x00, 0x00, 0x00, 0x00, 0x00, 0x00, 0x00,
    0x00, 0x00, 0x00, 0x00, 0x00, 0x00, 0x00, 0x00, 0x00, 0x00, 0x00, 0x00,
    0x00, 0x00, 0x00, 0x00, 0x00, 0x00, 0x00, 0x00, 0x00, 0x00, 0x00, 0x00,
    0x00, 0x00, 0x00, 0x00, 0x00, 0x00, 0x00, 0x00, 0x00, 0x00, 0x00, 0x00,
    0x00, 0x00, 0x00, 0x00, 0x00, 0x00, 0x00, 0x00, 0x00, 0x00, 0x00, 0x00,
    0x00, 0x00, 0x00, 0x00, 0x08, 0x00, 0x00, 0x00, 0xc8, 0x48, 0x41, 0x37,
    0xd1, 0x9d, 0x20, 0x37, 0xc1, 0xb5, 0x3f, 0x37, 0xb5, 0xef, 0x1d, 0x37,
    0xea, 0x73, 0x77, 0x37, 0x3d, 0x21, 0xf8, 0x36, 0x31, 0x82, 0xa1, 0x37,
    0xdb, 0xf6, 0x38, 0x37, 0x13, 0x00, 0x00, 0x00, 0x74, 0x66, 0x6c, 0x2e,
    0x70, 0x73, 0x65, 0x75, 0x64, 0x6f, 0x5f, 0x71, 0x63, 0x6f, 0x6e, 0x73,
    0x74, 0x31, 0x32, 0x00, 0x01, 0x00, 0x00, 0x00, 0x08, 0x00, 0x00, 0x00,
    0xda, 0xf1, 0xff, 0xff, 0x00, 0x00, 0x00, 0x01, 0x14, 0x00, 0x00, 0x00,
    0xb8, 0x00, 0x00, 0x00, 0x0e, 0x00, 0x00, 0x00, 0x00, 0x00, 0x00, 0x09,
    0xc4, 0x00, 0x00, 0x00, 0x54, 0xf1, 0xff, 0xff, 0x08, 0x00, 0x00, 0x00,
    0x6c, 0x00, 0x00, 0x00, 0x0c, 0x00, 0x00, 0x00, 0x00, 0x00, 0x00, 0x00,
    0x00, 0x00, 0x00, 0x00, 0x00, 0x00, 0x00, 0x00, 0x00, 0x00, 0x00, 0x00,
    0x00, 0x00, 0x00, 0x00, 0x00, 0x00, 0x00, 0x00, 0x00, 0x00, 0x00, 0x00,
    0x00, 0x00, 0x00, 0x00, 0x00, 0x00, 0x00, 0x00, 0x00, 0x00, 0x00, 0x00,
    0x00, 0x00, 0x00, 0x00, 0x00, 0x00, 0x00, 0x00, 0x00, 0x00, 0x00, 0x00,
    0x00, 0x00, 0x00, 0x00, 0x00, 0x00, 0x00, 0x00, 0x00, 0x00, 0x00, 0x00,
    0x00, 0x00, 0x00, 0x00, 0x00, 0x00, 0x00, 0x00, 0x00, 0x00, 0x00, 0x00,
    0x00, 0x00, 0x00, 0x00, 0x00, 0x00, 0x00, 0x00, 0x00, 0x00, 0x00, 0x00,
    0x00, 0x00, 0x00, 0x00, 0x00, 0x00, 0x00, 0x00, 0x00, 0x00, 0x00, 0x00,
    0x0c, 0x00, 0x00, 0x00, 0xdc, 0xd4, 0xde, 0x3b, 0x7d, 0x36, 0x9c, 0x3b,
    0xc1, 0x69, 0xd6, 0x3b, 0x08, 0x35, 0xc8, 0x3c, 0xdf, 0xa5, 0x1a, 0x3c,
    0xa6, 0x06, 0x08, 0x3c, 0x23, 0x61, 0x1e, 0x3c, 0x95, 0x39, 0x0a, 0x3c,
    0x5b, 0x68, 0x57, 0x3c, 0xc6, 0x3d, 0xc6, 0x3b, 0x83, 0x97, 0xd6, 0x3a,
    0x66, 0x70, 0xda, 0x3b, 0x13, 0x00, 0x00, 0x00, 0x74, 0x66, 0x6c, 0x2e,
    0x70, 0x73, 0x65, 0x75, 0x64, 0x6f, 0x5f, 0x71, 0x63, 0x6f, 0x6e, 0x73,
    0x74, 0x31, 0x31, 0x00, 0x04, 0x00, 0x00, 0x00, 0x0c, 0x00, 0x00, 0x00,
    0x03, 0x00, 0x00, 0x00, 0x03, 0x00, 0x00, 0x00, 0x08, 0x00, 0x00, 0x00,
    0xca, 0xf2, 0xff, 0xff, 0x00, 0x00, 0x00, 0x01, 0x14, 0x00, 0x00, 0x00,
    0xb4, 0x00, 0x00, 0x00, 0x0c, 0x00, 0x00, 0x00, 0x00, 0x00, 0x00, 0x02,
    0xc0, 0x00, 0x00, 0x00, 0x44, 0xf2, 0xff, 0xff, 0x08, 0x00, 0x00, 0x00,
    0x68, 0x00, 0x00, 0x00, 0x0c, 0x00, 0x00, 0x00, 0x00, 0x00, 0x00, 0x00,
    0x00, 0x00, 0x00, 0x00, 0x00, 0x00, 0x00, 0x00, 0x00, 0x00, 0x00, 0x00,
    0x00, 0x00, 0x00, 0x00, 0x00, 0x00, 0x00, 0x00, 0x00, 0x00, 0x00, 0x00,
    0x00, 0x00, 0x00, 0x00, 0x00, 0x00, 0x00, 0x00, 0x00, 0x00, 0x00, 0x00,
    0x00, 0x00, 0x00, 0x00, 0x00, 0x00, 0x00, 0x00, 0x00, 0x00, 0x00, 0x00,
    0x00, 0x00, 0x00, 0x00, 0x00, 0x00, 0x00, 0x00, 0x00, 0x00, 0x00, 0x00,
    0x00, 0x00, 0x00, 0x00, 0x00, 0x00, 0x00, 0x00, 0x00, 0x00, 0x00, 0x00,
    0x00, 0x00, 0x00, 0x00, 0x00, 0x00, 0x00, 0x00, 0x00, 0x00, 0x00, 0x00,
    0x00, 0x00, 0x00, 0x00, 0x00, 0x00, 0x00, 0x00, 0x0c, 0x00, 0x00, 0x00,
    0xf3, 0xa0, 0xe2, 0x38, 0x11, 0x14, 0x31, 0x38, 0xca, 0x43, 0xb6, 0x38,
    0xc0, 0xa8, 0xd4, 0x38, 0x3d, 0x6a, 0xc8, 0x38, 0x17, 0x7d, 0x24, 0x38,
    0xc8, 0x03, 0x34, 0x38, 0xea, 0x63, 0x5f, 0x38, 0x97, 0x26, 0x4a, 0x38,
    0x9f, 0x38, 0xd6, 0x38, 0x12, 0x45, 0x0a, 0x38, 0x00, 0x5b, 0x71, 0x38,
    0x13, 0x00, 0x00, 0x00, 0x74, 0x66, 0x6c, 0x2e, 0x70, 0x73, 0x65, 0x75,
    0x64, 0x6f, 0x5f, 0x71, 0x63, 0x6f, 0x6e, 0x73, 0x74, 0x31, 0x30, 0x00,
    0x01, 0x00, 0x00, 0x00, 0x0c, 0x00, 0x00, 0x00, 0xaa, 0xf3, 0xff, 0xff,
    0x00, 0x00, 0x00, 0x01, 0x14, 0x00, 0x00, 0x00, 0xb4, 0x00, 0x00, 0x00,
    0x0c, 0x00, 0x00, 0x00, 0x00, 0x00, 0x00, 0x02, 0xc0, 0x00, 0x00, 0x00,
    0x24, 0xf3, 0xff, 0xff, 0x08, 0x00, 0x00, 0x00, 0x68, 0x00, 0x00, 0x00,
    0x0c, 0x00, 0x00, 0x00, 0x00, 0x00, 0x00, 0x00, 0x00, 0x00, 0x00, 0x00,
    0x00, 0x00, 0x00, 0x00, 0x00, 0x00, 0x00, 0x00, 0x00, 0x00, 0x00, 0x00,
    0x00, 0x00, 0x00, 0x00, 0x00, 0x00, 0x00, 0x00, 0x00, 0x00, 0x00, 0x00,
    0x00, 0x00, 0x00, 0x00, 0x00, 0x00, 0x00, 0x00, 0x00, 0x00, 0x00, 0x00,
    0x00, 0x00, 0x00, 0x00, 0x00, 0x00, 0x00, 0x00, 0x00, 0x00, 0x00, 0x00,
    0x00, 0x00, 0x00, 0x00, 0x00, 0x00, 0x00, 0x00, 0x00, 0x00, 0x00, 0x00,
    0x00, 0x00, 0x00, 0x00, 0x00, 0x00, 0x00, 0x00, 0x00, 0x00, 0x00, 0x00,
    0x00, 0x00, 0x00, 0x00, 0x00, 0x00, 0x00, 0x00, 0x00, 0x00, 0x00, 0x00,
    0x00, 0x00, 0x00, 0x00, 0x0c, 0x00, 0x00, 0x00, 0xaf, 0x54, 0x03, 0x38,
    0x9b, 0x22, 0xb8, 0x37, 0x0b, 0xbd, 0xfc, 0x37, 0x46, 0xfe, 0xeb, 0x38,
    0x61, 0x4a, 0x36, 0x38, 0x09, 0x57, 0x20, 0x38, 0x65, 0xb0, 0x3a, 0x38,
    0x97, 0xee, 0x22, 0x38, 0x28, 0xe9, 0x7d, 0x38, 0x10, 0xad, 0xe9, 0x37,
    0xfb, 0xf2, 0xfc, 0x36, 0xf5, 0xbd, 0x00, 0x38, 0x12, 0x00, 0x00, 0x00,
    0x74, 0x66, 0x6c, 0x2e, 0x70, 0x73, 0x65, 0x75, 0x64, 0x6f, 0x5f, 0x71,
    0x63, 0x6f, 0x6e, 0x73, 0x74, 0x39, 0x00, 0x00, 0x01, 0x00, 0x00, 0x00,
    0x0c, 0x00, 0x00, 0x00, 0x00, 0x00, 0x16, 0x00, 0x1e, 0x00, 0x18, 0x00,
    0x17, 0x00, 0x10, 0x00, 0x0c, 0x00, 0x08, 0x00, 0x00, 0x00, 0x00, 0x00,
    0x00, 0x00, 0x07, 0x00, 0x16, 0x00, 0x00, 0x00, 0x00, 0x00, 0x00, 0x01,
    0x28, 0x00, 0x00, 0x00, 0xd0, 0x00, 0x00, 0x00, 0x0b, 0x00, 0x00, 0x00,
    0x00, 0x00, 0x00, 0x09, 0xdc, 0x00, 0x00, 0x00, 0x00, 0x00, 0x12, 0x00,
    0x10, 0x00, 0x00, 0x00, 0x00, 0x00, 0x0c, 0x00, 0x08, 0x00, 0x00, 0x00,
    0x00, 0x00, 0x04, 0x00, 0x12, 0x00, 0x00, 0x00, 0x03, 0x00, 0x00, 0x00,
    0x08, 0x00, 0x00, 0x00, 0x6c, 0x00, 0x00, 0x00, 0x0c, 0x00, 0x00, 0x00,
    0x00, 0x00, 0x00, 0x00, 0x00, 0x00, 0x00, 0x00, 0x00, 0x00, 0x00, 0x00,
    0x00, 0x00, 0x00, 0x00, 0x00, 0x00, 0x00, 0x00, 0x00, 0x00, 0x00, 0x00,
    0x00, 0x00, 0x00, 0x00, 0x00, 0x00, 0x00, 0x00, 0x00, 0x00, 0x00, 0x00,
    0x00, 0x00, 0x00, 0x00, 0x00, 0x00, 0x00, 0x00, 0x00, 0x00, 0x00, 0x00,
    0x00, 0x00, 0x00, 0x00, 0x00, 0x00, 0x00, 0x00, 0x00, 0x00, 0x00, 0x00,
    0x00, 0x00, 0x00, 0x00, 0x00, 0x00, 0x00, 0x00, 0x00, 0x00, 0x00, 0x00,
    0x00, 0x00, 0x00, 0x00, 0x00, 0x00, 0x00, 0x00, 0x00, 0x00, 0x00, 0x00,
    0x00, 0x00, 0x00, 0x00, 0x00, 0x00, 0x00, 0x00, 0x00, 0x00, 0x00, 0x00,
    0x00, 0x00, 0x00, 0x00, 0x0c, 0x00, 0x00, 0x00, 0x77, 0xbf, 0xad, 0x3b,
    0x6e, 0xc2, 0x07, 0x3b, 0x59, 0xbc, 0x8b, 0x3b, 0xb9, 0x09, 0xa3, 0x3b,
    0x9c, 0xa6, 0x99, 0x3b, 0xfd, 0x36, 0xfc, 0x3a, 0xbe, 0x02, 0x0a, 0x3b,
    0xe0, 0x43, 0x2b, 0x3b, 0x47, 0xfb, 0x1a, 0x3b, 0x4a, 0x3c, 0xa4, 0x3b,
    0x44, 0x03, 0xd4, 0x3a, 0xd3, 0x09, 0x39, 0x3b, 0x12, 0x00, 0x00, 0x00,
    0x74, 0x66, 0x6c, 0x2e, 0x70, 0x73, 0x65, 0x75, 0x64, 0x6f, 0x5f, 0x71,
    0x63, 0x6f, 0x6e, 0x73, 0x74, 0x38, 0x00, 0x00, 0x04, 0x00, 0x00, 0x00,
    0x01, 0x00, 0x00, 0x00, 0x03, 0x00, 0x00, 0x00, 0x03, 0x00, 0x00, 0x00,
    0x0c, 0x00, 0x00, 0x00, 0xaa, 0xf5, 0xff, 0xff, 0x00, 0x00, 0x00, 0x01,
    0x14, 0x00, 0x00, 0x00, 0xe8, 0x00, 0x00, 0x00, 0x0a, 0x00, 0x00, 0x00,
    0x00, 0x00, 0x00, 0x09, 0xf4, 0x00, 0x00, 0x00, 0x24, 0xf5, 0xff, 0xff,
    0x08, 0x00, 0x00, 0x00, 0x8c, 0x00, 0x00, 0x00, 0x10, 0x00, 0x00, 0x00,
    0x00, 0x00, 0x00, 0x00, 0x00, 0x00, 0x00, 0x00, 0x00, 0x00, 0x00, 0x00,
    0x00, 0x00, 0x00, 0x00, 0x00, 0x00, 0x00, 0x00, 0x00, 0x00, 0x00, 0x00,
    0x00, 0x00, 0x00, 0x00, 0x00, 0x00, 0x00, 0x00, 0x00, 0x00, 0x00, 0x00,
    0x00, 0x00, 0x00, 0x00, 0x00, 0x00, 0x00, 0x00, 0x00, 0x00, 0x00, 0x00,
    0x00, 0x00, 0x00, 0x00, 0x00, 0x00, 0x00, 0x00, 0x00, 0x00, 0x00, 0x00,
    0x00, 0x00, 0x00, 0x00, 0x00, 0x00, 0x00, 0x00, 0x00, 0x00, 0x00, 0x00,
    0x00, 0x00, 0x00, 0x00, 0x00, 0x00, 0x00, 0x00, 0x00, 0x00, 0x00, 0x00,
    0x00, 0x00, 0x00, 0x00, 0x00, 0x00, 0x00, 0x00, 0x00, 0x00, 0x00, 0x00,
    0x00, 0x00, 0x00, 0x00, 0x00, 0x00, 0x00, 0x00, 0x00, 0x00, 0x00, 0x00,
    0x00, 0x00, 0x00, 0x00, 0x00, 0x00, 0x00, 0x00, 0x00, 0x00, 0x00, 0x00,
    0x00, 0x00, 0x00, 0x00, 0x00, 0x00, 0x00, 0x00, 0x00, 0x00, 0x00, 0x00,
    0x10, 0x00, 0x00, 0x00, 0x97, 0xee, 0xaa, 0x3b, 0x43, 0x98, 0x21, 0x3c,
    0x72, 0xef, 0x00, 0x3c, 0x36, 0xcf, 0xed, 0x3b, 0xf3, 0xd7, 0xc4, 0x3b,
    0xa1, 0x08, 0x52, 0x3c, 0xb9, 0x51, 0x98, 0x3b, 0x60, 0x96, 0xbf, 0x3b,
    0xf9, 0x7b, 0xc4, 0x3b, 0xae, 0x97, 0xf6, 0x3b, 0xde, 0x65, 0xce, 0x3b,
    0x86, 0xef, 0xbc, 0x3b, 0x4a, 0xfd, 0x3a, 0x3c, 0x0c, 0xd1, 0xbb, 0x3b,
    0xc3, 0x01, 0xe2, 0x3b, 0xd7, 0x26, 0xa3, 0x3b, 0x12, 0x00, 0x00, 0x00,
    0x74, 0x66, 0x6c, 0x2e, 0x70, 0x73, 0x65, 0x75, 0x64, 0x6f, 0x5f, 0x71,
    0x63, 0x6f, 0x6e, 0x73, 0x74, 0x37, 0x00, 0x00, 0x04, 0x00, 0x00, 0x00,
    0x10, 0x00, 0x00, 0x00, 0x01, 0x00, 0x00, 0x00, 0x01, 0x00, 0x00, 0x00,
    0x0c, 0x00, 0x00, 0x00, 0xca, 0xf6, 0xff, 0xff, 0x00, 0x00, 0x00, 0x01,
    0x14, 0x00, 0x00, 0x00, 0xe4, 0x00, 0x00, 0x00, 0x09, 0x00, 0x00, 0x00,
    0x00, 0x00, 0x00, 0x02, 0xf0, 0x00, 0x00, 0x00, 0x44, 0xf6, 0xff, 0xff,
    0x08, 0x00, 0x00, 0x00, 0x88, 0x00, 0x00, 0x00, 0x10, 0x00, 0x00, 0x00,
    0x00, 0x00, 0x00, 0x00, 0x00, 0x00, 0x00, 0x00, 0x00, 0x00, 0x00, 0x00,
    0x00, 0x00, 0x00, 0x00, 0x00, 0x00, 0x00, 0x00, 0x00, 0x00, 0x00, 0x00,
    0x00, 0x00, 0x00, 0x00, 0x00, 0x00, 0x00, 0x00, 0x00, 0x00, 0x00, 0x00,
    0x00, 0x00, 0x00, 0x00, 0x00, 0x00, 0x00, 0x00, 0x00, 0x00, 0x00, 0x00,
    0x00, 0x00, 0x00, 0x00, 0x00, 0x00, 0x00, 0x00, 0x00, 0x00, 0x00, 0x00,
    0x00, 0x00, 0x00, 0x00, 0x00, 0x00, 0x00, 0x00, 0x00, 0x00, 0x00, 0x00,
    0x00, 0x00, 0x00, 0x00, 0x00, 0x00, 0x00, 0x00, 0x00, 0x00, 0x00, 0x00,
    0x00, 0x00, 0x00, 0x00, 0x00, 0x00, 0x00, 0x00, 0x00, 0x00, 0x00, 0x00,
    0x00, 0x00, 0x00, 0x00, 0x00, 0x00, 0x00, 0x00, 0x00, 0x00, 0x00, 0x00,
    0x00, 0x00, 0x00, 0x00, 0x00, 0x00, 0x00, 0x00, 0x00, 0x00, 0x00, 0x00,
    0x00, 0x00, 0x00, 0x00, 0x00, 0x00, 0x00, 0x00, 0x10, 0x00, 0x00, 0x00,
    0x9e, 0x06, 0xb2, 0x38, 0x16, 0x4d, 0x28, 0x39, 0x4a, 0x49, 0x06, 0x39,
    0xc3, 0xad, 0xf7, 0x38, 0x45, 0x03, 0xcd, 0x38, 0x15, 0xc0, 0x5a, 0x39,
    0x01, 0xa4, 0x9e, 0x38, 0xda, 0x89, 0xc7, 0x38, 0x79, 0xa3, 0xcc, 0x38,
    0xc6, 0x69, 0x00, 0x39, 0xb2, 0xf6, 0xd6, 0x38, 0xd4, 0xc6, 0xc4, 0x38,
    0xea, 0xbf, 0x42, 0x39, 0x76, 0x9c, 0xc3, 0x38, 0xeb, 0x62, 0xeb, 0x38,
    0x35, 0xec, 0xa9, 0x38, 0x12, 0x00, 0x00, 0x00, 0x74, 0x66, 0x6c, 0x2e,
    0x70, 0x73, 0x65, 0x75, 0x64, 0x6f, 0x5f, 0x71, 0x63, 0x6f, 0x6e, 0x73,
    0x74, 0x36, 0x00, 0x00, 0x01, 0x00, 0x00, 0x00, 0x10, 0x00, 0x00, 0x00,
    0xda, 0xf7, 0xff, 0xff, 0x00, 0x00, 0x00, 0x01, 0x14, 0x00, 0x00, 0x00,
    0x28, 0x03, 0x00, 0x00, 0x08, 0x00, 0x00, 0x00, 0x00, 0x00, 0x00, 0x09,
    0x34, 0x03, 0x00, 0x00, 0x54, 0xf7, 0xff, 0xff, 0x08, 0x00, 0x00, 0x00,
    0x0c, 0x02, 0x00, 0x00, 0x40, 0x00, 0x00, 0x00, 0x00, 0x00, 0x00, 0x00,
    0x00, 0x00, 0x00, 0x00, 0x00, 0x00, 0x00, 0x00, 0x00, 0x00, 0x00, 0x00,
    0x00, 0x00, 0x00, 0x00, 0x00, 0x00, 0x00, 0x00, 0x00, 0x00, 0x00, 0x00,
    0x00, 0x00, 0x00, 0x00, 0x00, 0x00, 0x00, 0x00, 0x00, 0x00, 0x00, 0x00,
    0x00, 0x00, 0x00, 0x00, 0x00, 0x00, 0x00, 0x00, 0x00, 0x00, 0x00, 0x00,
    0x00, 0x00, 0x00, 0x00, 0x00, 0x00, 0x00, 0x00, 0x00, 0x00, 0x00, 0x00,
    0x00, 0x00, 0x00, 0x00, 0x00, 0x00, 0x00, 0x00, 0x00, 0x00, 0x00, 0x00,
    0x00, 0x00, 0x00, 0x00, 0x00, 0x00, 0x00, 0x00, 0x00, 0x00, 0x00, 0x00,
    0x00, 0x00, 0x00, 0x00, 0x00, 0x00, 0x00, 0x00, 0x00, 0x00, 0x00, 0x00,
    0x00, 0x00, 0x00, 0x00, 0x00, 0x00, 0x00, 0x00, 0x00, 0x00, 0x00, 0x00,
    0x00, 0x00, 0x00, 0x00, 0x00, 0x00, 0x00, 0x00, 0x00, 0x00, 0x00, 0x00,
    0x00, 0x00, 0x00, 0x00, 0x00, 0x00, 0x00, 0x00, 0x00, 0x00, 0x00, 0x00,
    0x00, 0x00, 0x00, 0x00, 0x00, 0x00, 0x00, 0x00, 0x00, 0x00, 0x00, 0x00,
    0x00, 0x00, 0x00, 0x00, 0x00, 0x00, 0x00, 0x00, 0x00, 0x00, 0x00, 0x00,
    0x00, 0x00, 0x00, 0x00, 0x00, 0x00, 0x00, 0x00, 0x00, 0x00, 0x00, 0x00,
    0x00, 0x00, 0x00, 0x00, 0x00, 0x00, 0x00, 0x00, 0x00, 0x00, 0x00, 0x00,
    0x00, 0x00, 0x00, 0x00, 0x00, 0x00, 0x00, 0x00, 0x00, 0x00, 0x00, 0x00,
    0x00, 0x00, 0x00, 0x00, 0x00, 0x00, 0x00, 0x00, 0x00, 0x00, 0x00, 0x00,
    0x00, 0x00, 0x00, 0x00, 0x00, 0x00, 0x00, 0x00, 0x00, 0x00, 0x00, 0x00,
    0x00, 0x00, 0x00, 0x00, 0x00, 0x00, 0x00, 0x00, 0x00, 0x00, 0x00, 0x00,
    0x00, 0x00, 0x00, 0x00, 0x00, 0x00, 0x00, 0x00, 0x00, 0x00, 0x00, 0x00,
    0x00, 0x00, 0x00, 0x00, 0x00, 0x00, 0x00, 0x00, 0x00, 0x00, 0x00, 0x00,
    0x00, 0x00, 0x00, 0x00, 0x00, 0x00, 0x00, 0x00, 0x00, 0x00, 0x00, 0x00,
    0x00, 0x00, 0x00, 0x00, 0x00, 0x00, 0x00, 0x00, 0x00, 0x00, 0x00, 0x00,
    0x00, 0x00, 0x00, 0x00, 0x00, 0x00, 0x00, 0x00, 0x00, 0x00, 0x00, 0x00,
    0x00, 0x00, 0x00, 0x00, 0x00, 0x00, 0x00, 0x00, 0x00, 0x00, 0x00, 0x00,
    0x00, 0x00, 0x00, 0x00, 0x00, 0x00, 0x00, 0x00, 0x00, 0x00, 0x00, 0x00,
    0x00, 0x00, 0x00, 0x00, 0x00, 0x00, 0x00, 0x00, 0x00, 0x00, 0x00, 0x00,
    0x00, 0x00, 0x00, 0x00, 0x00, 0x00, 0x00, 0x00, 0x00, 0x00, 0x00, 0x00,
    0x00, 0x00, 0x00, 0x00, 0x00, 0x00, 0x00, 0x00, 0x00, 0x00, 0x00, 0x00,
    0x00, 0x00, 0x00, 0x00, 0x00, 0x00, 0x00, 0x00, 0x00, 0x00, 0x00, 0x00,
    0x00, 0x00, 0x00, 0x00, 0x00, 0x00, 0x00, 0x00, 0x00, 0x00, 0x00, 0x00,
    0x00, 0x00, 0x00, 0x00, 0x00, 0x00, 0x00, 0x00, 0x00, 0x00, 0x00, 0x00,
    0x00, 0x00, 0x00, 0x00, 0x00, 0x00, 0x00, 0x00, 0x00, 0x00, 0x00, 0x00,
    0x00, 0x00, 0x00, 0x00, 0x00, 0x00, 0x00, 0x00, 0x00, 0x00, 0x00, 0x00,
    0x00, 0x00, 0x00, 0x00, 0x00, 0x00, 0x00, 0x00, 0x00, 0x00, 0x00, 0x00,
    0x00, 0x00, 0x00, 0x00, 0x00, 0x00, 0x00, 0x00, 0x00, 0x00, 0x00, 0x00,
    0x00, 0x00, 0x00, 0x00, 0x00, 0x00, 0x00, 0x00, 0x00, 0x00, 0x00, 0x00,
    0x00, 0x00, 0x00, 0x00, 0x00, 0x00, 0x00, 0x00, 0x00, 0x00, 0x00, 0x00,
    0x00, 0x00, 0x00, 0x00, 0x00, 0x00, 0x00, 0x00, 0x00, 0x00, 0x00, 0x00,
    0x00, 0x00, 0x00, 0x00, 0x00, 0x00, 0x00, 0x00, 0x00, 0x00, 0x00, 0x00,
    0x00, 0x00, 0x00, 0x00, 0x00, 0x00, 0x00, 0x00, 0x00, 0x00, 0x00, 0x00,
    0x00, 0x00, 0x00, 0x00, 0x00, 0x00, 0x00, 0x00, 0x00, 0x00, 0x00, 0x00,
    0x00, 0x00, 0x00, 0x00, 0x00, 0x00, 0x00, 0x00, 0x40, 0x00, 0x00, 0x00,
    0x28, 0x24, 0x0c, 0x3b, 0x6f, 0x4f, 0x78, 0x3b, 0xc8, 0x90, 0x0c, 0x3b,
    0xe0, 0x35, 0x97, 0x3b, 0xba, 0xfa, 0x52, 0x3b, 0xaf, 0x8b, 0x7c, 0x3b,
    0x5c, 0x14, 0x1a, 0x3b, 0x0a, 0x87, 0xd2, 0x3b, 0xef, 0x41, 0x7d, 0x3b,
    0xe9, 0xa1, 0xb9, 0x3b, 0x0c, 0xa6, 0x5d, 0x3b, 0xa6, 0x2e, 0xcc, 0x3b,
    0x05, 0x60, 0x11, 0x3b, 0xfe, 0x98, 0x0b, 0x3b, 0xb6, 0xc4, 0xfd, 0x3a,
    0xf7, 0xec, 0x06, 0x3b, 0x7c, 0xf3, 0xab, 0x3b, 0xca, 0x9b, 0x07, 0x3b,
    0xf5, 0xdb, 0x12, 0x3b, 0x6d, 0x0d, 0xa0, 0x3b, 0x9a, 0x07, 0xfd, 0x3a,
    0xdc, 0x33, 0x80, 0x3b, 0xc5, 0x6d, 0x47, 0x3b, 0xc7, 0x2b, 0x91, 0x3b,
    0xf0, 0xc8, 0x8b, 0x3b, 0xed, 0x05, 0xaa, 0x3b, 0x2c, 0xf2, 0xfe, 0x3a,
    0x5b, 0x41, 0xa7, 0x3b, 0x27, 0xa5, 0xca, 0x3b, 0x5a, 0xb4, 0xb6, 0x3b,
    0x23, 0x36, 0x0a, 0x3b, 0x4f, 0x79, 0x0c, 0x3b, 0x91, 0x2a, 0x0b, 0x3b,
    0x5e, 0xb5, 0x1d, 0x3b, 0xe6, 0x21, 0x09, 0x3b, 0x7b, 0x21, 0xa5, 0x3b,
    0x8e, 0x65, 0x0c, 0x3b, 0x0c, 0x70, 0x76, 0x3b, 0x1e, 0x21, 0xfd, 0x3a,
    0x5a, 0x39, 0x30, 0x3b, 0x51, 0x26, 0xaf, 0x3b, 0x8b, 0x6d, 0x9f, 0x3b,
    0x9a, 0xb7, 0x0b, 0x3b, 0x29, 0xb8, 0x74, 0x3b, 0x9e, 0x2e, 0xa7, 0x3b,
    0x49, 0x44, 0x64, 0x3b, 0x15, 0x76, 0x00, 0x3b, 0x0e, 0xa2, 0x09, 0x3b,
    0xaf, 0x3e, 0x07, 0x3b, 0x82, 0x4b, 0x93, 0x3b, 0x94, 0xa7, 0x62, 0x3b,
    0xed, 0x68, 0x15, 0x3c, 0xfd, 0x4a, 0x86, 0x3b, 0xd7, 0x82, 0x00, 0x3b,
    0xb3, 0xa4, 0x0a, 0x3b, 0xc8, 0xbd, 0xe5, 0x3a, 0xfd, 0xaa, 0x97, 0x3b,
    0xbd, 0xc3, 0x88, 0x3b, 0x4d, 0x67, 0x0b, 0x3b, 0xf5, 0xf3, 0xde, 0x3b,
    0x5d, 0x7d, 0xa1, 0x3b, 0x69, 0x13, 0x0c, 0x3b, 0x09, 0xa6, 0xf7, 0x3a,
    0x76, 0x2b, 0x8a, 0x3b, 0x12, 0x00, 0x00, 0x00, 0x74, 0x66, 0x6c, 0x2e,
    0x70, 0x73, 0x65, 0x75, 0x64, 0x6f, 0x5f, 0x71, 0x63, 0x6f, 0x6e, 0x73,
    0x74, 0x35, 0x00, 0x00, 0x02, 0x00, 0x00, 0x00, 0x40, 0x00, 0x00, 0x00,
    0x10, 0x00, 0x00, 0x00, 0x32, 0xfb, 0xff, 0xff, 0x00, 0x00, 0x00, 0x01,
    0x14, 0x00, 0x00, 0x00, 0x24, 0x03, 0x00, 0x00, 0x07, 0x00, 0x00, 0x00,
    0x00, 0x00, 0x00, 0x02, 0x30, 0x03, 0x00, 0x00, 0xac, 0xfa, 0xff, 0xff,
    0x08, 0x00, 0x00, 0x00, 0x08, 0x02, 0x00, 0x00, 0x40, 0x00, 0x00, 0x00,
    0x00, 0x00, 0x00, 0x00, 0x00, 0x00, 0x00, 0x00, 0x00, 0x00, 0x00, 0x00,
    0x00, 0x00, 0x00, 0x00, 0x00, 0x00, 0x00, 0x00, 0x00, 0x00, 0x00, 0x00,
    0x00, 0x00, 0x00, 0x00, 0x00, 0x00, 0x00, 0x00, 0x00, 0x00, 0x00, 0x00,
    0x00, 0x00, 0x00, 0x00, 0x00, 0x00, 0x00, 0x00, 0x00, 0x00, 0x00, 0x00,
    0x00, 0x00, 0x00, 0x00, 0x00, 0x00, 0x00, 0x00, 0x00, 0x00, 0x00, 0x00,
    0x00, 0x00, 0x00, 0x00, 0x00, 0x00, 0x00, 0x00, 0x00, 0x00, 0x00, 0x00,
    0x00, 0x00, 0x00, 0x00, 0x00, 0x00, 0x00, 0x00, 0x00, 0x00, 0x00, 0x00,
    0x00, 0x00, 0x00, 0x00, 0x00, 0x00, 0x00, 0x00, 0x00, 0x00, 0x00, 0x00,
    0x00, 0x00, 0x00, 0x00, 0x00, 0x00, 0x00, 0x00, 0x00, 0x00, 0x00, 0x00,
    0x00, 0x00, 0x00, 0x00, 0x00, 0x00, 0x00, 0x00, 0x00, 0x00, 0x00, 0x00,
    0x00, 0x00, 0x00, 0x00, 0x00, 0x00, 0x00, 0x00, 0x00, 0x00, 0x00, 0x00,
    0x00, 0x00, 0x00, 0x00, 0x00, 0x00, 0x00, 0x00, 0x00, 0x00, 0x00, 0x00,
    0x00, 0x00, 0x00, 0x00, 0x00, 0x00, 0x00, 0x00, 0x00, 0x00, 0x00, 0x00,
    0x00, 0x00, 0x00, 0x00, 0x00, 0x00, 0x00, 0x00, 0x00, 0x00, 0x00, 0x00,
    0x00, 0x00, 0x00, 0x00, 0x00, 0x00, 0x00, 0x00, 0x00, 0x00, 0x00, 0x00,
    0x00, 0x00, 0x00, 0x00, 0x00, 0x00, 0x00, 0x00, 0x00, 0x00, 0x00, 0x00,
    0x00, 0x00, 0x00, 0x00, 0x00, 0x00, 0x00, 0x00, 0x00, 0x00, 0x00, 0x00,
    0x00, 0x00, 0x00, 0x00, 0x00, 0x00, 0x00, 0x00, 0x00, 0x00, 0x00, 0x00,
    0x00, 0x00, 0x00, 0x00, 0x00, 0x00, 0x00, 0x00, 0x00, 0x00, 0x00, 0x00,
    0x00, 0x00, 0x00, 0x00, 0x00, 0x00, 0x00, 0x00, 0x00, 0x00, 0x00, 0x00,
    0x00, 0x00, 0x00, 0x00, 0x00, 0x00, 0x00, 0x00, 0x00, 0x00, 0x00, 0x00,
    0x00, 0x00, 0x00, 0x00, 0x00, 0x00, 0x00, 0x00, 0x00, 0x00, 0x00, 0x00,
    0x00, 0x00, 0x00, 0x00, 0x00, 0x00, 0x00, 0x00, 0x00, 0x00, 0x00, 0x00,
    0x00, 0x00, 0x00, 0x00, 0x00, 0x00, 0x00, 0x00, 0x00, 0x00, 0x00, 0x00,
    0x00, 0x00, 0x00, 0x00, 0x00, 0x00, 0x00, 0x00, 0x00, 0x00, 0x00, 0x00,
    0x00, 0x00, 0x00, 0x00, 0x00, 0x00, 0x00, 0x00, 0x00, 0x00, 0x00, 0x00,
    0x00, 0x00, 0x00, 0x00, 0x00, 0x00, 0x00, 0x00, 0x00, 0x00, 0x00, 0x00,
    0x00, 0x00, 0x00, 0x00, 0x00, 0x00, 0x00, 0x00, 0x00, 0x00, 0x00, 0x00,
    0x00, 0x00, 0x00, 0x00, 0x00, 0x00, 0x00, 0x00, 0x00, 0x00, 0x00, 0x00,
    0x00, 0x00, 0x00, 0x00, 0x00, 0x00, 0x00, 0x00, 0x00, 0x00, 0x00, 0x00,
    0x00, 0x00, 0x00, 0x00, 0x00, 0x00, 0x00, 0x00, 0x00, 0x00, 0x00, 0x00,
    0x00, 0x00, 0x00, 0x00, 0x00, 0x00, 0x00, 0x00, 0x00, 0x00, 0x00, 0x00,
    0x00, 0x00, 0x00, 0x00, 0x00, 0x00, 0x00, 0x00, 0x00, 0x00, 0x00, 0x00,
    0x00, 0x00, 0x00, 0x00, 0x00, 0x00, 0x00, 0x00, 0x00, 0x00, 0x00, 0x00,
    0x00, 0x00, 0x00, 0x00, 0x00, 0x00, 0x00, 0x00, 0x00, 0x00, 0x00, 0x00,
    0x00, 0x00, 0x00, 0x00, 0x00, 0x00, 0x00, 0x00, 0x00, 0x00, 0x00, 0x00,
    0x00, 0x00, 0x00, 0x00, 0x00, 0x00, 0x00, 0x00, 0x00, 0x00, 0x00, 0x00,
    0x00, 0x00, 0x00, 0x00, 0x00, 0x00, 0x00, 0x00, 0x00, 0x00, 0x00, 0x00,
    0x00, 0x00, 0x00, 0x00, 0x00, 0x00, 0x00, 0x00, 0x00, 0x00, 0x00, 0x00,
    0x00, 0x00, 0x00, 0x00, 0x00, 0x00, 0x00, 0x00, 0x00, 0x00, 0x00, 0x00,
    0x00, 0x00, 0x00, 0x00, 0x00, 0x00, 0x00, 0x00, 0x00, 0x00, 0x00, 0x00,
    0x00, 0x00, 0x00, 0x00, 0x00, 0x00, 0x00, 0x00, 0x00, 0x00, 0x00, 0x00,
    0x00, 0x00, 0x00, 0x00, 0x00, 0x00, 0x00, 0x00, 0x40, 0x00, 0x00, 0x00,
    0x91, 0x48, 0x80, 0x36, 0xce, 0x4c, 0xe3, 0x36, 0x01, 0xac, 0x80, 0x36,
    0x85, 0x6a, 0x0a, 0x37, 0xb8, 0x20, 0xc1, 0x36, 0x50, 0x2d, 0xe7, 0x36,
    0xdb, 0x0a, 0x8d, 0x36, 0xd2, 0xb6, 0x40, 0x37, 0x24, 0xd4, 0xe7, 0x36,
    0xf1, 0xec, 0x29, 0x37, 0xef, 0xe4, 0xca, 0x36, 0xe0, 0xe7, 0x3a, 0x37,
    0x10, 0x13, 0x85, 0x36, 0x5c, 0x92, 0x7f, 0x36, 0xdb, 0x4b, 0x68, 0x36,
    0xb4, 0x04, 0x77, 0x36, 0xde, 0x66, 0x1d, 0x37, 0xc4, 0x44, 0x78, 0x36,
    0xda, 0x6e, 0x86, 0x36, 0x8b, 0x82, 0x12, 0x37, 0xbf, 0x9e, 0x67, 0x36,
    0xbf, 0xb5, 0xea, 0x36, 0xf5, 0x8d, 0xb6, 0x36, 0x3d, 0xe3, 0x04, 0x37,
    0x23, 0xea, 0xff, 0x36, 0x11, 0xa3, 0x1b, 0x37, 0xcf, 0x5f, 0x69, 0x36,
    0x74, 0x1a, 0x19, 0x37, 0xac, 0x7f, 0x39, 0x37, 0xce, 0x3e, 0x27, 0x37,
    0xb3, 0x08, 0x7d, 0x36, 0x84, 0x96, 0x80, 0x36, 0x32, 0xc8, 0x7e, 0x36,
    0x42, 0x5d, 0x90, 0x36, 0xf8, 0x0e, 0x7b, 0x36, 0x99, 0x28, 0x17, 0x37,
    0x6f, 0x84, 0x80, 0x36, 0xfb, 0x95, 0xe1, 0x36, 0x1a, 0xb6, 0x67, 0x36,
    0x2d, 0x50, 0xa1, 0x36, 0x6a, 0x54, 0x20, 0x37, 0x30, 0xf0, 0x11, 0x37,
    0x66, 0xca, 0x7f, 0x36, 0x50, 0x03, 0xe0, 0x36, 0x4d, 0x09, 0x19, 0x37,
    0xd1, 0xf3, 0xd0, 0x36, 0xfc, 0x2e, 0x6b, 0x36, 0x98, 0xf9, 0x7b, 0x36,
    0x50, 0x9a, 0x77, 0x36, 0xf7, 0xd4, 0x06, 0x37, 0x08, 0x7a, 0xcf, 0x36,
    0x92, 0xc4, 0x88, 0x37, 0x29, 0xdc, 0xf5, 0x36, 0x58, 0x46, 0x6b, 0x36,
    0x1d, 0xd3, 0x7d, 0x36, 0x5f, 0x4d, 0x52, 0x36, 0xb9, 0xd5, 0x0a, 0x37,
    0x95, 0x62, 0xfa, 0x36, 0x63, 0x37, 0x7f, 0x36, 0x97, 0x16, 0x4c, 0x37,
    0x59, 0xd3, 0x13, 0x37, 0x3d, 0x39, 0x80, 0x36, 0xbd, 0xb1, 0x62, 0x36,
    0x27, 0xf5, 0xfc, 0x36, 0x12, 0x00, 0x00, 0x00, 0x74, 0x66, 0x6c, 0x2e,
    0x70, 0x73, 0x65, 0x75, 0x64, 0x6f, 0x5f, 0x71, 0x63, 0x6f, 0x6e, 0x73,
    0x74, 0x34, 0x00, 0x00, 0x01, 0x00, 0x00, 0x00, 0x40, 0x00, 0x00, 0x00,
    0x82, 0xfe, 0xff, 0xff, 0x00, 0x00, 0x00, 0x01, 0x14, 0x00, 0x00, 0x00,
    0x30, 0x00, 0x00, 0x00, 0x06, 0x00, 0x00, 0x00, 0x00, 0x00, 0x00, 0x09,
    0x3c, 0x00, 0x00, 0x00, 0xfc, 0xfd, 0xff, 0xff, 0x08, 0x00, 0x00, 0x00,
    0x10, 0x00, 0x00, 0x00, 0x01, 0x00, 0x00, 0x00, 0x00, 0x00, 0x00, 0x00,
    0x00, 0x00, 0x00, 0x00, 0x01, 0x00, 0x00, 0x00, 0xbc, 0x06, 0x77, 0x3c,
    0x12, 0x00, 0x00, 0x00, 0x74, 0x66, 0x6c, 0x2e, 0x70, 0x73, 0x65, 0x75,
    0x64, 0x6f, 0x5f, 0x71, 0x63, 0x6f, 0x6e, 0x73, 0x74, 0x33, 0x00, 0x00,
    0x02, 0x00, 0x00, 0x00, 0x01, 0x00, 0x00, 0x00, 0x40, 0x00, 0x00, 0x00,
    0xe2, 0xfe, 0xff, 0xff, 0x00, 0x00, 0x00, 0x01, 0x14, 0x00, 0x00, 0x00,
    0x34, 0x00, 0x00, 0x00, 0x05, 0x00, 0x00, 0x00, 0x00, 0x00, 0x00, 0x02,
    0x40, 0x00, 0x00, 0x00, 0x5c, 0xfe, 0xff, 0xff, 0x08, 0x00, 0x00, 0x00,
    0x14, 0x00, 0x00, 0x00, 0x01, 0x00, 0x00, 0x00, 0x00, 0x00, 0x00, 0x00,
    0x00, 0x00, 0x00, 0x00, 0x00, 0x00, 0x00, 0x00, 0x01, 0x00, 0x00, 0x00,
    0x5e, 0xce, 0xaa, 0x37, 0x12, 0x00, 0x00, 0x00, 0x74, 0x66, 0x6c, 0x2e,
    0x70, 0x73, 0x65, 0x75, 0x64, 0x6f, 0x5f, 0x71, 0x63, 0x6f, 0x6e, 0x73,
    0x74, 0x32, 0x00, 0x00, 0x01, 0x00, 0x00, 0x00, 0x01, 0x00, 0x00, 0x00,
    0x42, 0xff, 0xff, 0xff, 0x00, 0x00, 0x00, 0x01, 0x14, 0x00, 0x00, 0x00,
    0x30, 0x00, 0x00, 0x00, 0x04, 0x00, 0x00, 0x00, 0x00, 0x00, 0x00, 0x09,
    0x3c, 0x00, 0x00, 0x00, 0xbc, 0xfe, 0xff, 0xff, 0x08, 0x00, 0x00, 0x00,
    0x10, 0x00, 0x00, 0x00, 0x01, 0x00, 0x00, 0x00, 0x00, 0x00, 0x00, 0x00,
    0x00, 0x00, 0x00, 0x00, 0x01, 0x00, 0x00, 0x00, 0xe3, 0x50, 0x9a, 0x3b,
    0x12, 0x00, 0x00, 0x00, 0x74, 0x66, 0x6c, 0x2e, 0x70, 0x73, 0x65, 0x75,
    0x64, 0x6f, 0x5f, 0x71, 0x63, 0x6f, 0x6e, 0x73, 0x74, 0x31, 0x00, 0x00,
    0x02, 0x00, 0x00, 0x00, 0x01, 0x00, 0x00, 0x00, 0x40, 0x00, 0x00, 0x00,
    0xa2, 0xff, 0xff, 0xff, 0x00, 0x00, 0x00, 0x01, 0x14, 0x00, 0x00, 0x00,
    0x30, 0x00, 0x00, 0x00, 0x03, 0x00, 0x00, 0x00, 0x00, 0x00, 0x00, 0x02,
    0x3c, 0x00, 0x00, 0x00, 0x1c, 0xff, 0xff, 0xff, 0x08, 0x00, 0x00, 0x00,
    0x10, 0x00, 0x00, 0x00, 0x01, 0x00, 0x00, 0x00, 0x00, 0x00, 0x00, 0x00,
    0x00, 0x00, 0x00, 0x00, 0x01, 0x00, 0x00, 0x00, 0x3d, 0x67, 0xd5, 0x36,
    0x11, 0x00, 0x00, 0x00, 0x74, 0x66, 0x6c, 0x2e, 0x70, 0x73, 0x65, 0x75,
    0x64, 0x6f, 0x5f, 0x71, 0x63, 0x6f, 0x6e, 0x73, 0x74, 0x00, 0x00, 0x00,
    0x01, 0x00, 0x00, 0x00, 0x01, 0x00, 0x00, 0x00, 0x00, 0x00, 0x16, 0x00,
    0x1c, 0x00, 0x18, 0x00, 0x17, 0x00, 0x10, 0x00, 0x0c, 0x00, 0x08, 0x00,
    0x00, 0x00, 0x00, 0x00, 0x00, 0x00, 0x07, 0x00, 0x16, 0x00, 0x00, 0x00,
    0x00, 0x00, 0x00, 0x01, 0x18, 0x00, 0x00, 0x00, 0x18, 0x00, 0x00, 0x00,
    0x02, 0x00, 0x00, 0x00, 0x00, 0x00, 0x00, 0x02, 0x20, 0x00, 0x00, 0x00,
    0x04, 0x00, 0x04, 0x00, 0x04, 0x00, 0x00, 0x00, 0x0e, 0x00, 0x00, 0x00,
    0x61, 0x72, 0x69, 0x74, 0x68, 0x2e, 0x63, 0x6f, 0x6e, 0x73, 0x74, 0x61,
    0x6e, 0x74, 0x00, 0x00, 0x01, 0x00, 0x00, 0x00, 0x02, 0x00, 0x00, 0x00,
    0x00, 0x00, 0x16, 0x00, 0x20, 0x00, 0x1c, 0x00, 0x1b, 0x00, 0x14, 0x00,
    0x10, 0x00, 0x0c, 0x00, 0x00, 0x00, 0x00, 0x00, 0x08, 0x00, 0x07, 0x00,
    0x16, 0x00, 0x00, 0x00, 0x00, 0x00, 0x00, 0x01, 0x18, 0x00, 0x00, 0x00,
    0x34, 0x00, 0x00, 0x00, 0x50, 0x00, 0x00, 0x00, 0x01, 0x00, 0x00, 0x00,
    0x00, 0x00, 0x00, 0x09, 0x6c, 0x00, 0x00, 0x00, 0x04, 0x00, 0x00, 0x00,
    0xff, 0xff, 0xff, 0xff, 0x18, 0x00, 0x00, 0x00, 0x18, 0x00, 0x00, 0x00,
    0x01, 0x00, 0x00, 0x00, 0x0c, 0x00, 0x0c, 0x00, 0x00, 0x00, 0x00, 0x00,
    0x08, 0x00, 0x04, 0x00, 0x0c, 0x00, 0x00, 0x00, 0x08, 0x00, 0x00, 0x00,
    0x10, 0x00, 0x00, 0x00, 0x01, 0x00, 0x00, 0x00, 0x80, 0xff, 0xff, 0xff,
    0xff, 0xff, 0xff, 0xff, 0x01, 0x00, 0x00, 0x00, 0x81, 0x80, 0x80, 0x3b,
    0x22, 0x00, 0x00, 0x00, 0x73, 0x65, 0x72, 0x76, 0x69, 0x6e, 0x67, 0x5f,
    0x64, 0x65, 0x66, 0x61, 0x75, 0x6c, 0x74, 0x5f, 0x6b, 0x65, 0x72, 0x61,
    0x73, 0x5f, 0x74, 0x65, 0x6e, 0x73, 0x6f, 0x72, 0x5f, 0x33, 0x35, 0x35,
    0x3a, 0x30, 0x00, 0x00, 0x04, 0x00, 0x00, 0x00, 0x01, 0x00, 0x00, 0x00,
    0x18, 0x00, 0x00, 0x00, 0x18, 0x00, 0x00, 0x00, 0x01, 0x00, 0x00, 0x00,
    0x05, 0x00, 0x00, 0x00, 0x60, 0x00, 0x00, 0x00, 0x40, 0x00, 0x00, 0x00,
    0x2c, 0x00, 0x00, 0x00, 0x18, 0x00, 0x00, 0x00, 0x04, 0x00, 0x00, 0x00,
    0xc0, 0xff, 0xff, 0xff, 0x1c, 0x00, 0x00, 0x00, 0x02, 0x00, 0x00, 0x00,
    0x00, 0x00, 0x00, 0x1c, 0xd0, 0xff, 0xff, 0xff, 0x09, 0x00, 0x00, 0x00,
    0x04, 0x00, 0x00, 0x00, 0x00, 0x00, 0x00, 0x09, 0xe0, 0xff, 0xff, 0xff,
    0x28, 0x00, 0x00, 0x00, 0x02, 0x00, 0x00, 0x00, 0x00, 0x00, 0x00, 0x28,
    0xf0, 0xff, 0xff, 0xff, 0x04, 0x00, 0x00, 0x00, 0x03, 0x00, 0x00, 0x00,
    0x00, 0x00, 0x00, 0x04, 0x0c, 0x00, 0x10, 0x00, 0x0f, 0x00, 0x00, 0x00,
    0x08, 0x00, 0x04, 0x00, 0x0c, 0x00, 0x00, 0x00, 0x03, 0x00, 0x00, 0x00,
    0x03, 0x00, 0x00, 0x00, 0x00, 0x00, 0x00, 0x03};

const int g_model_len = sizeof(g_model);
