#include "model.h"

alignas(16) const unsigned char g_model[] = {
    0x20, 0x00, 0x00, 0x00, 0x54, 0x46, 0x4c, 0x33, 0x00, 0x00, 0x00, 0x00,
    0x14, 0x00, 0x20, 0x00, 0x1c, 0x00, 0x18, 0x00, 0x14, 0x00, 0x10, 0x00,
    0x0c, 0x00, 0x00, 0x00, 0x08, 0x00, 0x04, 0x00, 0x14, 0x00, 0x00, 0x00,
    0x1c, 0x00, 0x00, 0x00, 0xb0, 0x00, 0x00, 0x00, 0x08, 0x01, 0x00, 0x00,
    0x8c, 0x28, 0x00, 0x00, 0x9c, 0x28, 0x00, 0x00, 0x6c, 0x5c, 0x00, 0x00,
    0x03, 0x00, 0x00, 0x00, 0x01, 0x00, 0x00, 0x00, 0x04, 0x00, 0x00, 0x00,
    0x9e, 0xd5, 0xff, 0xff, 0x0c, 0x00, 0x00, 0x00, 0x1c, 0x00, 0x00, 0x00,
    0x5c, 0x00, 0x00, 0x00, 0x0f, 0x00, 0x00, 0x00, 0x73, 0x65, 0x72, 0x76,
    0x69, 0x6e, 0x67, 0x5f, 0x64, 0x65, 0x66, 0x61, 0x75, 0x6c, 0x74, 0x00,
    0x02, 0x00, 0x00, 0x00, 0x24, 0x00, 0x00, 0x00, 0x04, 0x00, 0x00, 0x00,
    0x70, 0xff, 0xff, 0xff, 0x27, 0x00, 0x00, 0x00, 0x04, 0x00, 0x00, 0x00,
    0x08, 0x00, 0x00, 0x00, 0x6f, 0x75, 0x74, 0x70, 0x75, 0x74, 0x5f, 0x31,
    0x00, 0x00, 0x00, 0x00, 0x8c, 0xff, 0xff, 0xff, 0x25, 0x00, 0x00, 0x00,
    0x04, 0x00, 0x00, 0x00, 0x08, 0x00, 0x00, 0x00, 0x6f, 0x75, 0x74, 0x70,
    0x75, 0x74, 0x5f, 0x30, 0x00, 0x00, 0x00, 0x00, 0x01, 0x00, 0x00, 0x00,
    0x04, 0x00, 0x00, 0x00, 0x1e, 0xd8, 0xff, 0xff, 0x04, 0x00, 0x00, 0x00,
    0x11, 0x00, 0x00, 0x00, 0x6b, 0x65, 0x72, 0x61, 0x73, 0x5f, 0x74, 0x65,
    0x6e, 0x73, 0x6f, 0x72, 0x5f, 0x31, 0x30, 0x35, 0x32, 0x00, 0x00, 0x00,
    0x02, 0x00, 0x00, 0x00, 0x34, 0x00, 0x00, 0x00, 0x04, 0x00, 0x00, 0x00,
    0xdc, 0xff, 0xff, 0xff, 0x2a, 0x00, 0x00, 0x00, 0x04, 0x00, 0x00, 0x00,
    0x13, 0x00, 0x00, 0x00, 0x43, 0x4f, 0x4e, 0x56, 0x45, 0x52, 0x53, 0x49,
    0x4f, 0x4e, 0x5f, 0x4d, 0x45, 0x54, 0x41, 0x44, 0x41, 0x54, 0x41, 0x00,
    0x08, 0x00, 0x0c, 0x00, 0x08, 0x00, 0x04, 0x00, 0x08, 0x00, 0x00, 0x00,
    0x29, 0x00, 0x00, 0x00, 0x04, 0x00, 0x00, 0x00, 0x13, 0x00, 0x00, 0x00,
    0x6d, 0x69, 0x6e, 0x5f, 0x72, 0x75, 0x6e, 0x74, 0x69, 0x6d, 0x65, 0x5f,
    0x76, 0x65, 0x72, 0x73, 0x69, 0x6f, 0x6e, 0x00, 0x2b, 0x00, 0x00, 0x00,
    0x80, 0x27, 0x00, 0x00, 0x78, 0x27, 0x00, 0x00, 0x60, 0x27, 0x00, 0x00,
    0x44, 0x27, 0x00, 0x00, 0xf4, 0x26, 0x00, 0x00, 0xe0, 0x26, 0x00, 0x00,
    0x90, 0x26, 0x00, 0x00, 0x80, 0x25, 0x00, 0x00, 0x70, 0x19, 0x00, 0x00,
    0x5c, 0x19, 0x00, 0x00, 0x1c, 0x19, 0x00, 0x00, 0x4c, 0x18, 0x00, 0x00,
    0x3c, 0x12, 0x00, 0x00, 0x0c, 0x11, 0x00, 0x00, 0x7c, 0x10, 0x00, 0x00,
    0x6c, 0x0c, 0x00, 0x00, 0xdc, 0x0b, 0x00, 0x00, 0xd4, 0x0b, 0x00, 0x00,
    0xa4, 0x0a, 0x00, 0x00, 0x14, 0x0a, 0x00, 0x00, 0x04, 0x08, 0x00, 0x00,
    0xb4, 0x07, 0x00, 0x00, 0x14, 0x07, 0x00, 0x00, 0xc4, 0x06, 0x00, 0x00,
    0x14, 0x01, 0x00, 0x00, 0x0c, 0x01, 0x00, 0x00, 0x04, 0x01, 0x00, 0x00,
    0xfc, 0x00, 0x00, 0x00, 0xf4, 0x00, 0x00, 0x00, 0xec, 0x00, 0x00, 0x00,
    0xe4, 0x00, 0x00, 0x00, 0xdc, 0x00, 0x00, 0x00, 0xd4, 0x00, 0x00, 0x00,
    0xcc, 0x00, 0x00, 0x00, 0xc4, 0x00, 0x00, 0x00, 0xbc, 0x00, 0x00, 0x00,
    0xb4, 0x00, 0x00, 0x00, 0xac, 0x00, 0x00, 0x00, 0xa4, 0x00, 0x00, 0x00,
    0x9c, 0x00, 0x00, 0x00, 0x94, 0x00, 0x00, 0x00, 0x74, 0x00, 0x00, 0x00,
    0x04, 0x00, 0x00, 0x00, 0x4a, 0xd9, 0xff, 0xff, 0x04, 0x00, 0x00, 0x00,
    0x60, 0x00, 0x00, 0x00, 0x0c, 0x00, 0x00, 0x00, 0x08, 0x00, 0x0e, 0x00,
    0x08, 0x00, 0x04, 0x00, 0x08, 0x00, 0x00, 0x00, 0x10, 0x00, 0x00, 0x00,
    0x28, 0x00, 0x00, 0x00, 0x00, 0x00, 0x06, 0x00, 0x08, 0x00, 0x04, 0x00,
    0x06, 0x00, 0x00, 0x00, 0x04, 0x00, 0x00, 0x00, 0x01, 0x00, 0x00, 0x00,
    0xeb, 0x03, 0x00, 0x00, 0x0c, 0x00, 0x18, 0x00, 0x14, 0x00, 0x10, 0x00,
    0x0c, 0x00, 0x04, 0x00, 0x0c, 0x00, 0x00, 0x00, 0xa8, 0xf6, 0x8b, 0x60,
    0xfd, 0x83, 0x1c, 0x63, 0x02, 0x00, 0x00, 0x00, 0x02, 0x00, 0x00, 0x00,
    0x04, 0x00, 0x00, 0x00, 0x06, 0x00, 0x00, 0x00, 0x32, 0x2e, 0x32, 0x30,
    0x2e, 0x30, 0x00, 0x00, 0xb6, 0xd9, 0xff, 0xff, 0x04, 0x00, 0x00, 0x00,
    0x10, 0x00, 0x00, 0x00, 0x31, 0x2e, 0x31, 0x34, 0x2e, 0x30, 0x00, 0x00,
    0x00, 0x00, 0x00, 0x00, 0x00, 0x00, 0x00, 0x00, 0xa0, 0xa6, 0xff, 0xff,
    0xa4, 0xa6, 0xff, 0xff, 0xa8, 0xa6, 0xff, 0xff, 0xac, 0xa6, 0xff, 0xff,
    0xb0, 0xa6, 0xff, 0xff, 0xb4, 0xa6, 0xff, 0xff, 0xb8, 0xa6, 0xff, 0xff,
    0xbc, 0xa6, 0xff, 0xff, 0xc0, 0xa6, 0xff, 0xff, 0xc4, 0xa6, 0xff, 0xff,
    0xc8, 0xa6, 0xff, 0xff, 0xcc, 0xa6, 0xff, 0xff, 0xd0, 0xa6, 0xff, 0xff,
    0xd4, 0xa6, 0xff, 0xff, 0xd8, 0xa6, 0xff, 0xff, 0xdc, 0xa6, 0xff, 0xff,
    0x12, 0xda, 0xff, 0xff, 0x04, 0x00, 0x00, 0x00, 0xa0, 0x05, 0x00, 0x00,
    0x98, 0x0b, 0xc8, 0x40, 0xb5, 0x43, 0x1e, 0x3a, 0xf3, 0x14, 0x94, 0x28,
    0x49, 0xd9, 0x1a, 0x84, 0x87, 0xa4, 0xfa, 0x98, 0xf8, 0xea, 0xea, 0xb5,
    0x10, 0xc8, 0xce, 0x5a, 0x9c, 0x07, 0xa9, 0x41, 0xa0, 0x30, 0x81, 0xe3,
    0xe8, 0xe9, 0x41, 0xbc, 0xa0, 0xc4, 0xd3, 0x20, 0x88, 0x26, 0xfe, 0x96,
    0x15, 0x1e, 0xc7, 0xde, 0x95, 0xab, 0xa7, 0xe3, 0xf5, 0xc2, 0x14, 0xdd,
    0x52, 0xe1, 0x11, 0x96, 0x3a, 0x0d, 0x57, 0xce, 0x29, 0x21, 0x29, 0x3a,
    0x18, 0x8c, 0x48, 0x82, 0xa7, 0xdf, 0x5c, 0x2a, 0xfc, 0xe1, 0x9a, 0x59,
    0x35, 0xae, 0x43, 0xb3, 0xb7, 0xfa, 0x22, 0x54, 0x65, 0x2a, 0xbd, 0xc2,
    0xcd, 0xe0, 0xed, 0xbd, 0x7c, 0x6f, 0x59, 0x2b, 0x01, 0x33, 0x76, 0x1f,
    0x58, 0x1b, 0xd2, 0x07, 0x4e, 0x2e, 0x22, 0xc6, 0x7f, 0x66, 0x32, 0xa8,
    0x6e, 0xd5, 0x17, 0x1e, 0x05, 0x2e, 0x31, 0xdd, 0xeb, 0x2f, 0x50, 0x4f,
    0x04, 0x0b, 0x08, 0x16, 0xef, 0xd4, 0x62, 0xf7, 0x13, 0x5e, 0xd6, 0x5f,
    0xe3, 0x47, 0x27, 0xea, 0xde, 0xb1, 0x34, 0x0b, 0xee, 0xc0, 0x3f, 0x9b,
    0x0e, 0xaa, 0x9a, 0x2f, 0x0e, 0x43, 0x27, 0xf5, 0xfa, 0xd8, 0x30, 0xe7,
    0x15, 0x23, 0x9f, 0x0e, 0xc7, 0x42, 0x9d, 0x17, 0x48, 0xd4, 0xf0, 0xca,
    0x30, 0xdc, 0x19, 0xe4, 0xe2, 0xc3, 0x17, 0x7f, 0x3c, 0xf7, 0x13, 0xee,
    0x25, 0xd3, 0xdb, 0xbb, 0x0f, 0x51, 0x33, 0xbd, 0x39, 0x28, 0xf6, 0x02,
    0xdd, 0x26, 0xff, 0x69, 0x2d, 0xb9, 0x0d, 0xd6, 0xef, 0xd5, 0x14, 0xed,
    0x4c, 0x52, 0x3d, 0xac, 0xe8, 0x00, 0x1d, 0x1f, 0xdb, 0x2a, 0x0a, 0x70,
    0x45, 0xcc, 0x04, 0x0a, 0xf9, 0x27, 0x14, 0xe5, 0x5b, 0x58, 0x48, 0xcd,
    0xf5, 0x2b, 0xfc, 0xf0, 0xce, 0x10, 0x2f, 0x3e, 0x45, 0xd6, 0xe2, 0xf1,
    0xd0, 0x3b, 0xd2, 0xe9, 0x1f, 0x57, 0x20, 0xd6, 0xc4, 0xf2, 0x24, 0xcd,
    0xc7, 0x2a, 0x3f, 0x33, 0x00, 0xd8, 0xff, 0x09, 0x48, 0x0b, 0x06, 0xf4,
    0xd4, 0xd7, 0xd8, 0x86, 0xcd, 0x4c, 0x24, 0x3c, 0x17, 0x2d, 0xed, 0xcc,
    0xcf, 0xd2, 0xf5, 0x67, 0x7f, 0x57, 0x0d, 0x59, 0x32, 0xca, 0xdd, 0xe7,
    0xe0, 0x01, 0x23, 0x25, 0x14, 0xe5, 0xd0, 0x01, 0x03, 0xa8, 0x06, 0x4f,
    0x25, 0x31, 0xfe, 0xea, 0xd8, 0x22, 0xf6, 0xb3, 0x47, 0x1f, 0x57, 0x07,
    0x41, 0x38, 0x08, 0x40, 0xca, 0x2e, 0xd9, 0x12, 0x20, 0xe4, 0x22, 0x29,
    0xcf, 0x2d, 0x1a, 0xbf, 0x14, 0x0d, 0x0c, 0xff, 0x2f, 0x28, 0xc7, 0x30,
    0xf5, 0xb9, 0xf0, 0x29, 0x4e, 0x45, 0x5d, 0x6a, 0x3d, 0x1e, 0x16, 0x48,
    0x2e, 0x35, 0xd2, 0xee, 0x95, 0xcb, 0xa8, 0xdc, 0x47, 0x42, 0x9b, 0x44,
    0xf4, 0xd6, 0xba, 0x18, 0xd4, 0xd1, 0x85, 0x9a, 0xa3, 0x28, 0xcb, 0x4f,
    0xea, 0x20, 0xcf, 0x04, 0x04, 0xb7, 0x1d, 0x0f, 0x94, 0x0a, 0x9e, 0x0a,
    0xb9, 0x82, 0x2e, 0xac, 0xe5, 0x39, 0x06, 0x2d, 0x1e, 0x81, 0x3f, 0x82,
    0x4c, 0x32, 0xd6, 0xeb, 0xf4, 0xcb, 0xcc, 0x16, 0xfd, 0xbb, 0xd9, 0xdb,
    0x05, 0xd4, 0x92, 0xdb, 0x18, 0x42, 0xde, 0x81, 0xe0, 0x2b, 0xa7, 0xf7,
    0x23, 0xec, 0x37, 0x3a, 0xd0, 0xde, 0x44, 0x0e, 0x30, 0xa2, 0xdd, 0xc0,
    0x15, 0x31, 0x9a, 0xd1, 0xd5, 0xce, 0xd9, 0xfd, 0xc3, 0xe8, 0x14, 0x76,
    0x17, 0x58, 0x14, 0x58, 0xc4, 0xe4, 0xbc, 0xea, 0x49, 0x44, 0x18, 0x47,
    0x0c, 0x18, 0xb8, 0xac, 0xd6, 0xf2, 0xb6, 0x07, 0xe0, 0xde, 0xd7, 0xdc,
    0x1b, 0xec, 0xfd, 0x19, 0x1f, 0x6a, 0x4d, 0x56, 0xed, 0x16, 0xea, 0xc2,
    0xd8, 0xd8, 0x54, 0x5a, 0x35, 0x26, 0x03, 0x1b, 0x1a, 0xfa, 0xf6, 0x0e,
    0xb7, 0x40, 0x1c, 0xc6, 0xcf, 0xd6, 0xc6, 0xc0, 0xc1, 0xc7, 0xf7, 0x2d,
    0x32, 0xe3, 0xe1, 0x0c, 0xdf, 0x01, 0x09, 0x0f, 0x31, 0x1e, 0xda, 0xe4,
    0xfd, 0xef, 0x1c, 0xe9, 0xd3, 0x22, 0xdd, 0xc2, 0x01, 0x0b, 0xcd, 0x81,
    0x26, 0x0a, 0x33, 0x31, 0x29, 0x19, 0xfa, 0xf8, 0x19, 0x77, 0x2a, 0x02,
    0x07, 0x33, 0xfa, 0x31, 0x09, 0x3b, 0x2f, 0x5c, 0xd3, 0xef, 0xee, 0xea,
    0xfb, 0xee, 0x0d, 0xf0, 0xe9, 0x1a, 0xf5, 0xfd, 0x00, 0x04, 0x20, 0x0e,
    0x1d, 0x18, 0x24, 0x7f, 0x22, 0x10, 0x1c, 0x30, 0x0d, 0x0d, 0x27, 0x31,
    0x37, 0x62, 0xf2, 0x02, 0xe4, 0xe8, 0xed, 0x08, 0xdf, 0xcf, 0xda, 0x34,
    0xee, 0xff, 0xed, 0xf8, 0xdf, 0xf0, 0xf9, 0x1c, 0x18, 0x6b, 0xf2, 0x00,
    0xe9, 0xe6, 0xfb, 0xf2, 0xdc, 0x0e, 0x06, 0x53, 0xbf, 0xd1, 0x11, 0xeb,
    0xef, 0xff, 0xc1, 0xbd, 0xc8, 0x12, 0xf6, 0xb9, 0xde, 0x07, 0x14, 0x46,
    0x31, 0x28, 0x31, 0x60, 0x07, 0xf1, 0xe7, 0xe5, 0x15, 0x15, 0x41, 0x1c,
    0xe3, 0x12, 0xe9, 0xcc, 0x03, 0x18, 0xf6, 0xcb, 0xfc, 0x32, 0xde, 0xf9,
    0x25, 0xb1, 0xd5, 0x05, 0x24, 0xf9, 0x2e, 0x67, 0x31, 0x7f, 0x42, 0x02,
    0xe8, 0xf0, 0x24, 0x2f, 0x52, 0x42, 0xee, 0x51, 0x30, 0xf7, 0xdf, 0x25,
    0x23, 0x18, 0x40, 0x1c, 0xfe, 0x21, 0x30, 0xa3, 0xca, 0xf1, 0xdd, 0xe0,
    0x20, 0x2c, 0x19, 0x38, 0xe7, 0xec, 0xf5, 0xf5, 0xec, 0xeb, 0xf6, 0x28,
    0xc1, 0x06, 0x1d, 0xf2, 0xe0, 0x09, 0xfe, 0x12, 0x10, 0x1e, 0xd2, 0xed,
    0x70, 0x04, 0x34, 0x31, 0xfb, 0xbe, 0x81, 0xb4, 0x36, 0xd5, 0x42, 0x1a,
    0xe4, 0xf1, 0xeb, 0x10, 0xd6, 0xe9, 0x34, 0x2d, 0x17, 0xa4, 0xf5, 0xc9,
    0x00, 0xfa, 0xe2, 0xcf, 0xe5, 0x27, 0x2d, 0x0b, 0x05, 0x17, 0xc0, 0xf9,
    0xd5, 0x0f, 0xd2, 0xdb, 0x50, 0x49, 0xd7, 0x0a, 0xf6, 0x68, 0xeb, 0x18,
    0x3d, 0x09, 0xdb, 0xe4, 0xd3, 0xe2, 0xde, 0x42, 0x2d, 0xfd, 0xd8, 0x23,
    0xf2, 0x30, 0x16, 0x14, 0xc7, 0xd0, 0xd8, 0x20, 0x67, 0x21, 0x2e, 0x46,
    0xd4, 0xea, 0x08, 0x62, 0x57, 0x2c, 0x4b, 0x5c, 0xff, 0xed, 0xb8, 0xa4,
    0xdb, 0x02, 0x34, 0x3f, 0xed, 0x23, 0x08, 0xd7, 0x81, 0x56, 0x37, 0xe3,
    0x9b, 0xd1, 0x30, 0x86, 0x16, 0x56, 0x09, 0xd9, 0xd4, 0x3f, 0xbf, 0xc1,
    0xfe, 0x54, 0x5b, 0x02, 0xd1, 0xfb, 0xa7, 0x90, 0xdb, 0x82, 0x24, 0x3e,
    0xa0, 0x8c, 0xd9, 0xcf, 0xb2, 0xbf, 0xf4, 0xf9, 0x21, 0x86, 0x06, 0xc5,
    0xec, 0xe4, 0xe4, 0x8d, 0xbd, 0xfb, 0x5d, 0xd6, 0x14, 0x3c, 0x4b, 0x73,
    0x17, 0x37, 0xff, 0xec, 0x18, 0xaa, 0xd3, 0xf1, 0xec, 0x00, 0x5e, 0xc8,
    0x5d, 0xbc, 0xee, 0xcb, 0xdb, 0x2f, 0xe6, 0x99, 0xe6, 0x37, 0x76, 0x1e,
    0xd9, 0x47, 0x0d, 0xf2, 0x64, 0xb2, 0x00, 0x92, 0x3b, 0xfd, 0x8a, 0x87,
    0x30, 0xbe, 0x22, 0x4f, 0xf8, 0xbe, 0xf7, 0x37, 0x07, 0xe1, 0x56, 0xad,
    0x3c, 0x89, 0xe7, 0xdb, 0x47, 0xcc, 0xc8, 0xed, 0xb7, 0x9b, 0xb8, 0xcb,
    0x42, 0x29, 0xd1, 0xb4, 0x47, 0xdd, 0xb0, 0x12, 0x98, 0x09, 0x53, 0xa8,
    0xa5, 0xc7, 0x5c, 0xe7, 0x1c, 0xfb, 0x9e, 0xff, 0x81, 0x2f, 0x16, 0xad,
    0xce, 0x88, 0x98, 0x62, 0x94, 0xa8, 0xc2, 0x30, 0x2a, 0xc2, 0xc5, 0x5c,
    0x96, 0x89, 0xf2, 0xfb, 0x0a, 0xac, 0x22, 0xb1, 0x54, 0x36, 0x8d, 0xb8,
    0xf5, 0x53, 0x12, 0x97, 0x49, 0x41, 0xa2, 0x88, 0x9e, 0x8f, 0x5a, 0x10,
    0x5b, 0x61, 0x36, 0xc4, 0xab, 0x3f, 0x3c, 0xb9, 0xea, 0xf4, 0xee, 0xd9,
    0xb0, 0xfc, 0xc5, 0x30, 0x45, 0xd7, 0x08, 0x03, 0x2e, 0x67, 0x9a, 0xae,
    0xd1, 0x69, 0xce, 0xec, 0xbd, 0xfb, 0xa0, 0xdc, 0xce, 0xd4, 0x0d, 0xd7,
    0x4b, 0xaf, 0x21, 0xf8, 0x45, 0xf0, 0x9b, 0xff, 0xb1, 0x6e, 0x06, 0x03,
    0xf0, 0x15, 0xfd, 0x7e, 0xd6, 0xef, 0x1f, 0x5b, 0xb9, 0xba, 0xb7, 0xe5,
    0xcb, 0xf3, 0xed, 0x1e, 0xa9, 0x95, 0x04, 0xc5, 0xc5, 0x2c, 0x42, 0x01,
    0xdd, 0xa0, 0x95, 0x7f, 0xf8, 0x14, 0xe6, 0x04, 0x2a, 0x62, 0xf2, 0xf6,
    0xd8, 0x4c, 0xc0, 0x95, 0x92, 0xac, 0xbf, 0xac, 0xd3, 0xa6, 0x9d, 0xcd,
    0x0d, 0x42, 0xc7, 0x4c, 0x0a, 0xf2, 0x6a, 0x05, 0x39, 0x48, 0x59, 0x2f,
    0xca, 0x52, 0xcb, 0xeb, 0x3c, 0xc5, 0x29, 0x2b, 0x61, 0x23, 0xd9, 0xd3,
    0xf0, 0x37, 0x2a, 0x1b, 0x2e, 0x59, 0x15, 0xc9, 0xd5, 0x31, 0x2a, 0x3f,
    0x02, 0xe6, 0xf3, 0x44, 0x1f, 0xf2, 0xc4, 0xd2, 0x27, 0xdf, 0xd9, 0x54,
    0x45, 0xef, 0x75, 0x58, 0xd3, 0xb9, 0x00, 0x16, 0xfc, 0x10, 0x1d, 0xef,
    0x48, 0x45, 0xbd, 0x39, 0x48, 0xd6, 0x6b, 0xdf, 0xc2, 0x73, 0x4b, 0x4c,
    0x11, 0xb3, 0xee, 0xe0, 0x4a, 0xce, 0x51, 0x7f, 0x1e, 0x59, 0xf2, 0x3d,
    0x28, 0x1c, 0x1c, 0xd5, 0x0a, 0xf7, 0x26, 0xd8, 0x10, 0x27, 0x18, 0x39,
    0x25, 0x64, 0x41, 0xe5, 0x17, 0x27, 0x07, 0xf3, 0xf6, 0x4c, 0x4b, 0x1b,
    0x12, 0xc8, 0xcf, 0xca, 0x37, 0xfd, 0x1a, 0x1f, 0x04, 0x57, 0x10, 0xdd,
    0x17, 0x20, 0x29, 0x31, 0x25, 0x05, 0x4a, 0x7f, 0x60, 0xf8, 0x08, 0xf0,
    0x0e, 0x43, 0x34, 0x0d, 0x69, 0x32, 0x5e, 0xeb, 0x01, 0xd2, 0xdd, 0xe2,
    0x08, 0x53, 0xf3, 0x31, 0x1f, 0x00, 0xfd, 0xd9, 0xc6, 0xe1, 0xef, 0x38,
    0x18, 0x08, 0xfd, 0xd9, 0x15, 0xd5, 0xa1, 0xd1, 0x30, 0xf9, 0x29, 0x0a,
    0xfb, 0x06, 0x20, 0xfd, 0xc7, 0x1a, 0x24, 0x33, 0x1f, 0x36, 0xf9, 0xd4,
    0x1c, 0x29, 0x1b, 0x32, 0x21, 0x0a, 0x5b, 0x7f, 0xdd, 0xbb, 0x19, 0x14,
    0x01, 0x03, 0x2f, 0x28, 0x39, 0x5b, 0xe2, 0x9f, 0x36, 0xf5, 0x16, 0xe9,
    0x2c, 0x17, 0x61, 0x0d, 0x2e, 0xeb, 0xe2, 0x30, 0x40, 0x02, 0x47, 0x2c,
    0x5f, 0x23, 0x3a, 0xb0, 0x0b, 0x41, 0x4c, 0xf0, 0x2d, 0x06, 0x20, 0x0e,
    0xd6, 0x10, 0xf1, 0x29, 0xf0, 0x04, 0x1c, 0x1c, 0xf8, 0x2a, 0xd9, 0xd2,
    0x24, 0x3e, 0x0f, 0x0d, 0x31, 0x30, 0x29, 0x19, 0xce, 0xaf, 0x00, 0x34,
    0xf9, 0x5a, 0xfd, 0x52, 0x64, 0x22, 0xf2, 0xcd, 0x33, 0x07, 0x1a, 0x1d,
    0x01, 0xe0, 0x26, 0xf9, 0x36, 0xae, 0xda, 0xf2, 0x1d, 0x15, 0xd0, 0x12,
    0xc5, 0x39, 0xf1, 0x3c, 0xf2, 0x08, 0x19, 0xe3, 0xf7, 0xb8, 0xab, 0x5e,
    0x3f, 0x27, 0x22, 0xf8, 0x07, 0xcb, 0x34, 0x03, 0xbb, 0x7f, 0x26, 0x5a,
    0xe7, 0xf5, 0xea, 0x0b, 0x2b, 0x1f, 0x15, 0x76, 0xe3, 0x47, 0xf5, 0x20,
    0x38, 0xb8, 0xdf, 0xcc, 0xf6, 0x66, 0x33, 0x6c, 0x02, 0xdb, 0xcf, 0x04,
    0xec, 0xcc, 0xd0, 0x66, 0xd6, 0x18, 0xd4, 0x06, 0x17, 0xf1, 0xcd, 0xab,
    0x92, 0xe6, 0xae, 0xb6, 0xfc, 0xe4, 0xfa, 0xd7, 0xcb, 0x9a, 0x95, 0x15,
    0xaf, 0xbf, 0x00, 0xc3, 0x10, 0xcc, 0xc5, 0xb4, 0x8b, 0x0e, 0xc6, 0xc4,
    0xbe, 0xdf, 0xff, 0xff, 0x04, 0x00, 0x00, 0x00, 0x40, 0x00, 0x00, 0x00,
    0x7b, 0xee, 0xff, 0xff, 0xd0, 0x04, 0xff, 0xff, 0x72, 0x80, 0xff, 0xff,
    0xd8, 0xa3, 0xff, 0xff, 0xeb, 0xdc, 0xff, 0xff, 0x21, 0xe6, 0xff, 0xff,
    0x88, 0x5a, 0xff, 0xff, 0x80, 0x8f, 0xff, 0xff, 0x52, 0x1e, 0x00, 0x00,
    0x0d, 0xf1, 0xff, 0xff, 0x17, 0xf1, 0xff, 0xff, 0xd8, 0x05, 0x00, 0x00,
    0x34, 0xfa, 0xfe, 0xff, 0x3d, 0xbb, 0xff, 0xff, 0xbd, 0x8e, 0xff, 0xff,
    0x0d, 0x03, 0x00, 0x00, 0x0a, 0xe0, 0xff, 0xff, 0x04, 0x00, 0x00, 0x00,
    0x90, 0x00, 0x00, 0x00, 0x14, 0xa8, 0xd2, 0x1f, 0x7f, 0x7f, 0xb8, 0x7f,
    0xc6, 0x08, 0xa5, 0xf3, 0x15, 0x96, 0x64, 0x0c, 0x53, 0x10, 0x4b, 0xf9,
    0x08, 0x73, 0x81, 0xd6, 0x03, 0x64, 0xfa, 0x85, 0xfa, 0x81, 0x4d, 0x02,
    0xd2, 0x1d, 0x3f, 0x9c, 0xca, 0xfe, 0xf4, 0x37, 0x1c, 0xab, 0x16, 0x11,
    0xa6, 0x01, 0xb3, 0x3d, 0x01, 0xe9, 0x59, 0xe3, 0xff, 0x39, 0xd0, 0x61,
    0xb6, 0x57, 0x12, 0xa2, 0x8d, 0x60, 0x71, 0x69, 0x9f, 0x45, 0x7f, 0x08,
    0x3c, 0x4e, 0x97, 0xd3, 0x0a, 0x7f, 0x76, 0xaf, 0xf0, 0x4f, 0x7f, 0x4c,
    0x7f, 0xa0, 0x60, 0xdc, 0x14, 0x1e, 0xfd, 0x96, 0xe4, 0xa4, 0x3d, 0xfe,
    0xa0, 0x14, 0x6c, 0x7f, 0x36, 0x7f, 0x52, 0x2f, 0x61, 0x55, 0xab, 0x46,
    0xe9, 0x02, 0x81, 0x1e, 0x81, 0xa9, 0x42, 0x42, 0x7d, 0x29, 0x65, 0x7f,
    0xe1, 0x01, 0xb8, 0x37, 0x7f, 0x01, 0xa0, 0x81, 0xf3, 0x97, 0x6f, 0x3b,
    0x04, 0x1f, 0x48, 0x07, 0xa5, 0xdf, 0xc3, 0x98, 0x28, 0x58, 0xa5, 0x29,
    0x21, 0xe7, 0x5d, 0x1b, 0xa6, 0xe0, 0xff, 0xff, 0x04, 0x00, 0x00, 0x00,
    0x40, 0x00, 0x00, 0x00, 0x00, 0x00, 0x00, 0x00, 0x00, 0x00, 0x00, 0x00,
    0x00, 0x00, 0x00, 0x00, 0x00, 0x00, 0x00, 0x00, 0x00, 0x00, 0x00, 0x00,
    0x00, 0x00, 0x00, 0x00, 0x00, 0x00, 0x00, 0x00, 0x00, 0x00, 0x00, 0x00,
    0x00, 0x00, 0x00, 0x00, 0x00, 0x00, 0x00, 0x00, 0x00, 0x00, 0x00, 0x00,
    0x00, 0x00, 0x00, 0x00, 0x00, 0x00, 0x00, 0x00, 0x00, 0x00, 0x00, 0x00,
    0x00, 0x00, 0x00, 0x00, 0x00, 0x00, 0x00, 0x00, 0xf2, 0xe0, 0xff, 0xff,
    0x04, 0x00, 0x00, 0x00, 0x00, 0x02, 0x00, 0x00, 0xc2, 0x05, 0xec, 0xb6,
    0xc5, 0xb3, 0x0a, 0xa6, 0x72, 0xe4, 0x42, 0x81, 0xa0, 0xf3, 0x57, 0xd9,
    0xe8, 0x14, 0xe6, 0xe5, 0x26, 0x40, 0xac, 0x23, 0xde, 0xf1, 0xf4, 0x81,
    0x01, 0xd9, 0xd5, 0x9a, 0x0a, 0x81, 0xbc, 0xec, 0x44, 0x36, 0x9b, 0x5a,
    0xd0, 0x9c, 0x51, 0xf2, 0x6c, 0xe8, 0xa6, 0x4b, 0x1b, 0xac, 0x39, 0x81,
    0x11, 0xd7, 0x07, 0xf7, 0xf6, 0x11, 0x1e, 0xd3, 0x1e, 0x05, 0xdf, 0xe7,
    0xb3, 0xfc, 0xa1, 0x6b, 0xc1, 0xd5, 0x1d, 0xd1, 0x7f, 0x38, 0x9d, 0x8a,
    0x56, 0xb5, 0xe9, 0xc9, 0x13, 0x36, 0x81, 0x35, 0x69, 0xea, 0x0e, 0x44,
    0x49, 0x28, 0xa7, 0x3e, 0x67, 0x39, 0xee, 0x27, 0xf4, 0x81, 0x26, 0xa3,
    0x2b, 0x0f, 0xd6, 0xd8, 0x11, 0x2c, 0xe7, 0x2c, 0xe8, 0x10, 0xc7, 0xa2,
    0x00, 0x22, 0xe9, 0xe5, 0xcc, 0x10, 0xa3, 0xf5, 0x01, 0x16, 0xe3, 0x4d,
    0x81, 0x35, 0xde, 0xcf, 0xae, 0x3a, 0x11, 0xb5, 0x11, 0x81, 0x52, 0xac,
    0x2a, 0xe8, 0x1f, 0xfe, 0xdc, 0xd3, 0x03, 0x0e, 0xd4, 0xfe, 0x63, 0x05,
    0x20, 0x1d, 0x4d, 0xc9, 0x09, 0xd3, 0x35, 0x81, 0x46, 0xe3, 0x3d, 0xc2,
    0x1c, 0xb6, 0xf9, 0x3f, 0x2a, 0x5c, 0xeb, 0x2c, 0x40, 0xff, 0xc0, 0xb5,
    0xd4, 0x54, 0x81, 0x01, 0xd0, 0x46, 0xc4, 0x46, 0x28, 0xe6, 0xc8, 0xde,
    0x3f, 0xec, 0xbd, 0xb8, 0x2b, 0x52, 0xbb, 0x7f, 0x45, 0x43, 0xb4, 0x38,
    0xda, 0xbb, 0x4c, 0xd8, 0x1a, 0x05, 0x31, 0xd9, 0x60, 0x6f, 0xd9, 0x81,
    0xd7, 0x5e, 0x28, 0x7f, 0xe4, 0xc8, 0xfe, 0x18, 0xf1, 0x04, 0x1c, 0x09,
    0xcb, 0xf2, 0x23, 0xe4, 0x45, 0xc0, 0x29, 0x30, 0x15, 0xef, 0xf7, 0x04,
    0xb1, 0xc4, 0x18, 0x0c, 0x65, 0x56, 0xf7, 0x7f, 0x47, 0x48, 0xfe, 0x82,
    0xc6, 0x37, 0x64, 0x9c, 0x0a, 0xc7, 0x29, 0x9c, 0x5a, 0xe2, 0xc6, 0x7f,
    0xfd, 0x6c, 0xe6, 0x0d, 0xd0, 0xe1, 0x81, 0x61, 0xb6, 0xb4, 0xf1, 0xa7,
    0xa7, 0x09, 0x73, 0x0d, 0xe3, 0xfe, 0xfd, 0xcd, 0x55, 0x1f, 0x81, 0xd6,
    0x86, 0xd8, 0xcb, 0x51, 0x9a, 0xef, 0xb5, 0x0c, 0x3a, 0xd1, 0x59, 0x98,
    0xac, 0xf4, 0xc4, 0x03, 0x81, 0x32, 0xda, 0x3a, 0x18, 0x2d, 0xa1, 0xc4,
    0x43, 0xcc, 0x9e, 0x7f, 0xc5, 0x03, 0x30, 0x45, 0x21, 0xd1, 0xe9, 0xff,
    0xe4, 0xd4, 0x20, 0xad, 0xa6, 0x22, 0x64, 0x93, 0xed, 0x2d, 0xde, 0x4f,
    0x81, 0xc0, 0x4e, 0x39, 0xda, 0x03, 0xe6, 0xf3, 0xbd, 0x02, 0xc0, 0xe6,
    0xf2, 0xd4, 0x52, 0x7a, 0xc3, 0xb4, 0x2f, 0xdc, 0xdf, 0x7f, 0xd8, 0x6b,
    0xe7, 0xf1, 0x12, 0xfe, 0x11, 0x45, 0x30, 0x1f, 0xe3, 0xd5, 0xfb, 0x7f,
    0x0a, 0xce, 0x25, 0x17, 0xd2, 0x32, 0x12, 0x15, 0x8b, 0x81, 0x3d, 0xa3,
    0xcc, 0x5b, 0x40, 0xd4, 0xcb, 0x92, 0x22, 0x5b, 0xcd, 0x1b, 0x03, 0xe2,
    0x58, 0xdf, 0x48, 0x91, 0x49, 0x4f, 0x4d, 0x3f, 0x30, 0x32, 0x11, 0x7f,
    0xf6, 0x1e, 0x55, 0x4b, 0x04, 0x81, 0x3f, 0x42, 0x18, 0x14, 0x2d, 0x47,
    0xc2, 0x0e, 0x32, 0xd7, 0xe8, 0x05, 0xdd, 0xfa, 0x11, 0x0d, 0x29, 0x7f,
    0xfd, 0x20, 0xf7, 0x73, 0xd8, 0x64, 0xd2, 0x35, 0x37, 0xbb, 0x9a, 0x72,
    0x27, 0x7f, 0xd3, 0xb6, 0xb8, 0x1e, 0x24, 0xb7, 0x17, 0xe1, 0x0c, 0x19,
    0xdf, 0x10, 0x0a, 0x68, 0x34, 0x08, 0x59, 0x81, 0x21, 0xa6, 0x0e, 0x31,
    0xd1, 0xec, 0x6b, 0x36, 0xe0, 0xf5, 0x38, 0xf2, 0x00, 0xd7, 0xa4, 0x7f,
    0x07, 0x2a, 0x2d, 0xdc, 0xc2, 0xc1, 0x2e, 0xe9, 0xe8, 0x54, 0x42, 0x7f,
    0xe0, 0x34, 0x37, 0xea, 0xbf, 0x41, 0xc2, 0x21, 0x3e, 0x0e, 0x45, 0x22,
    0xdb, 0x33, 0x7f, 0xab, 0xde, 0x1c, 0xa7, 0x7e, 0x1e, 0xfe, 0xc5, 0x12,
    0xe0, 0xb4, 0x20, 0xac, 0xfe, 0xe2, 0xff, 0xff, 0x04, 0x00, 0x00, 0x00,
    0x80, 0x00, 0x00, 0x00, 0x73, 0xfe, 0xff, 0xff, 0xb3, 0xfe, 0xff, 0xff,
    0xc4, 0xfd, 0xff, 0xff, 0x14, 0x00, 0x00, 0x00, 0xec, 0x07, 0x00, 0x00,
    0x33, 0xfe, 0xff, 0xff, 0x25, 0xfc, 0xff, 0xff, 0xe4, 0x01, 0x00, 0x00,
    0x22, 0x01, 0x00, 0x00, 0xe2, 0x00, 0x00, 0x00, 0x95, 0x00, 0x00, 0x00,
    0x2f, 0xfe, 0xff, 0xff, 0x05, 0x00, 0x00, 0x00, 0xcf, 0x00, 0x00, 0x00,
    0x9d, 0x02, 0x00, 0x00, 0x8c, 0x01, 0x00, 0x00, 0xa3, 0xf4, 0xff, 0xff,
    0x9e, 0x02, 0x00, 0x00, 0x6c, 0xfe, 0xff, 0xff, 0xa0, 0x01, 0x00, 0x00,
    0x8d, 0xf9, 0xff, 0xff, 0xec, 0x00, 0x00, 0x00, 0x24, 0xff, 0xff, 0xff,
    0x07, 0xff, 0xff, 0xff, 0x5a, 0x00, 0x00, 0x00, 0x5e, 0x00, 0x00, 0x00,
    0x52, 0x00, 0x00, 0x00, 0x7a, 0xfe, 0xff, 0xff, 0x17, 0xfc, 0xff, 0xff,
    0x4f, 0xfb, 0xff, 0xff, 0x65, 0x00, 0x00, 0x00, 0x50, 0xfa, 0xff, 0xff,
    0x8a, 0xe3, 0xff, 0xff, 0x04, 0x00, 0x00, 0x00, 0x20, 0x01, 0x00, 0x00,
    0x82, 0xbc, 0x5a, 0xcc, 0x81, 0xc5, 0xd9, 0x11, 0xc9, 0x29, 0x4d, 0xe0,
    0x10, 0x17, 0xf6, 0x17, 0xba, 0x0b, 0xbe, 0xe5, 0xd8, 0xf8, 0x23, 0x7f,
    0xce, 0xb2, 0x20, 0xf3, 0xb9, 0x7f, 0x38, 0x81, 0x43, 0x7f, 0xba, 0xf6,
    0xc1, 0x4f, 0xfb, 0x2e, 0x9d, 0x44, 0x7f, 0x06, 0x18, 0x7f, 0x2b, 0xef,
    0xe1, 0x66, 0x01, 0x13, 0xa2, 0xf2, 0x27, 0xe7, 0xa8, 0x29, 0xd6, 0x62,
    0x81, 0xf4, 0xff, 0x2a, 0xf2, 0x12, 0xd2, 0xbf, 0x82, 0x2e, 0x08, 0x3d,
    0xd4, 0x42, 0xcc, 0xd9, 0x7f, 0xc6, 0x06, 0x02, 0x7f, 0x55, 0x6a, 0xda,
    0x05, 0x16, 0x2c, 0xaa, 0xa3, 0x7f, 0xd9, 0xb0, 0x01, 0x9c, 0x46, 0x21,
    0x93, 0x3d, 0x58, 0x99, 0xd8, 0x4c, 0xda, 0x06, 0x8e, 0x54, 0x4a, 0xe0,
    0x91, 0xe9, 0xe1, 0x7f, 0xa6, 0xea, 0x84, 0xf3, 0xd1, 0x81, 0x7f, 0x01,
    0x85, 0x1b, 0x7f, 0x37, 0x93, 0x48, 0xe8, 0xcc, 0x50, 0x25, 0xeb, 0xeb,
    0xdc, 0x81, 0x1c, 0x28, 0x87, 0x2c, 0x4f, 0x24, 0xf3, 0x5d, 0xe8, 0xd2,
    0xdf, 0x55, 0xd1, 0xee, 0xbe, 0xec, 0xf0, 0xef, 0x95, 0x4b, 0x37, 0x7f,
    0xdf, 0xc0, 0xdc, 0x07, 0x15, 0xbd, 0xe2, 0xc0, 0xbf, 0xed, 0x7f, 0x24,
    0xaa, 0xc3, 0x01, 0x81, 0xbf, 0xd6, 0x4c, 0xd1, 0x6d, 0x26, 0x7f, 0xeb,
    0x67, 0xeb, 0xde, 0xc8, 0x93, 0x3b, 0x0b, 0x01, 0x29, 0xca, 0x3e, 0x37,
    0x81, 0x25, 0x7f, 0x81, 0x1c, 0x4a, 0xc3, 0x89, 0x81, 0x3c, 0x26, 0xed,
    0xd0, 0x87, 0x5b, 0xd8, 0xca, 0x81, 0x96, 0xfe, 0x48, 0xb8, 0x45, 0x1a,
    0xae, 0x07, 0x77, 0xef, 0x00, 0x58, 0x81, 0x00, 0xac, 0xa0, 0x08, 0x93,
    0x36, 0xe5, 0x34, 0x81, 0xc6, 0x99, 0x2d, 0xdf, 0x53, 0x9d, 0x17, 0xe0,
    0xff, 0xac, 0xec, 0x45, 0xca, 0x1b, 0x20, 0xef, 0x8b, 0xdb, 0x2a, 0x23,
    0x10, 0x40, 0xb5, 0x49, 0xe6, 0x92, 0xde, 0xcc, 0x1c, 0x9c, 0x2e, 0xc7,
    0xe9, 0x81, 0xf2, 0x8a, 0x59, 0xd9, 0x7f, 0xd1, 0x0d, 0x99, 0x46, 0x7f,
    0x7f, 0xee, 0xae, 0xaa, 0x81, 0x32, 0xff, 0xfa, 0x11, 0xdc, 0xbc, 0x3e,
    0x84, 0xb1, 0xff, 0xff, 0xba, 0xe4, 0xff, 0xff, 0x04, 0x00, 0x00, 0x00,
    0x80, 0x00, 0x00, 0x00, 0x00, 0x00, 0x00, 0x00, 0x00, 0x00, 0x00, 0x00,
    0x00, 0x00, 0x00, 0x00, 0x00, 0x00, 0x00, 0x00, 0x00, 0x00, 0x00, 0x00,
    0x00, 0x00, 0x00, 0x00, 0x00, 0x00, 0x00, 0x00, 0x00, 0x00, 0x00, 0x00,
    0x00, 0x00, 0x00, 0x00, 0x00, 0x00, 0x00, 0x00, 0x00, 0x00, 0x00, 0x00,
    0x00, 0x00, 0x00, 0x00, 0x00, 0x00, 0x00, 0x00, 0x00, 0x00, 0x00, 0x00,
    0x00, 0x00, 0x00, 0x00, 0x00, 0x00, 0x00, 0x00, 0x00, 0x00, 0x00, 0x00,
    0x00, 0x00, 0x00, 0x00, 0x00, 0x00, 0x00, 0x00, 0x00, 0x00, 0x00, 0x00,
    0x00, 0x00, 0x00, 0x00, 0x00, 0x00, 0x00, 0x00, 0x00, 0x00, 0x00, 0x00,
    0x00, 0x00, 0x00, 0x00, 0x00, 0x00, 0x00, 0x00, 0x00, 0x00, 0x00, 0x00,
    0x00, 0x00, 0x00, 0x00, 0x00, 0x00, 0x00, 0x00, 0x00, 0x00, 0x00, 0x00,
    0x00, 0x00, 0x00, 0x00, 0x00, 0x00, 0x00, 0x00, 0x00, 0x00, 0x00, 0x00,
    0x46, 0xe5, 0xff, 0xff, 0x04, 0x00, 0x00, 0x00, 0x00, 0x04, 0x00, 0x00,
    0x1b, 0xf3, 0xdc, 0x61, 0x1f, 0xf9, 0x1a, 0x0e, 0x46, 0x08, 0xfc, 0xeb,
    0x00, 0x46, 0xce, 0xae, 0x4f, 0x26, 0x40, 0x0a, 0x31, 0x1d, 0x08, 0x24,
    0xf4, 0x15, 0xee, 0x81, 0x2b, 0xd5, 0xfe, 0x04, 0xeb, 0x12, 0x7f, 0xe7,
    0x82, 0xd5, 0xdf, 0x1e, 0xe0, 0xf7, 0xaf, 0x1f, 0xf2, 0xd3, 0xe0, 0xd6,
    0xf8, 0xaf, 0xce, 0x29, 0xd0, 0x13, 0xf3, 0xaa, 0xf6, 0xf9, 0xf8, 0xd1,
    0xfd, 0x13, 0x01, 0xf3, 0xef, 0x8e, 0x9b, 0xd1, 0x0d, 0x1b, 0xe7, 0x05,
    0x3a, 0x0a, 0x99, 0x81, 0xd3, 0xda, 0xf1, 0xe7, 0x2e, 0x00, 0x55, 0xcf,
    0xf0, 0xf6, 0xf6, 0xfd, 0xdf, 0xe6, 0x20, 0x1a, 0xc8, 0xd2, 0xeb, 0x15,
    0xfa, 0xee, 0x2b, 0x14, 0x81, 0x10, 0xf1, 0xe9, 0x0f, 0xfd, 0x09, 0x21,
    0x1a, 0xf1, 0xdd, 0xe3, 0xe0, 0xd6, 0xf3, 0x07, 0xcc, 0xf6, 0x17, 0x05,
    0xed, 0x0c, 0xfe, 0xd5, 0xef, 0x0b, 0xee, 0xee, 0xd2, 0x26, 0xee, 0x4e,
    0xf2, 0x1b, 0xfb, 0xe5, 0x46, 0xe5, 0x20, 0x2c, 0x2c, 0x20, 0xa5, 0xdb,
    0x30, 0xc4, 0x03, 0xa4, 0x3a, 0x30, 0x01, 0x25, 0x06, 0x10, 0xc5, 0x31,
    0x28, 0xdb, 0x7f, 0x11, 0xec, 0x33, 0x03, 0x04, 0x7f, 0x09, 0xf1, 0x16,
    0x3d, 0xfb, 0x1f, 0x39, 0x19, 0x50, 0x5a, 0x3e, 0xc7, 0x08, 0x8e, 0xe7,
    0x0d, 0x1c, 0x27, 0x68, 0x31, 0xc6, 0x00, 0x1b, 0xbe, 0x2a, 0x27, 0xbc,
    0x15, 0x05, 0x02, 0x10, 0x7f, 0xf5, 0xc3, 0xfc, 0x59, 0x1c, 0xc8, 0x35,
    0xfb, 0x0f, 0x20, 0x03, 0xc0, 0x0f, 0xc5, 0x1e, 0xea, 0x0d, 0x0c, 0x29,
    0x52, 0xe8, 0xa4, 0x37, 0x10, 0x39, 0x15, 0xae, 0x10, 0xb1, 0x13, 0xc4,
    0xa5, 0xfd, 0x08, 0xb7, 0xde, 0x50, 0x09, 0xec, 0x16, 0x23, 0xba, 0xff,
    0x3a, 0xc8, 0x0f, 0xb8, 0x81, 0xf3, 0x4c, 0x31, 0xcb, 0x15, 0x40, 0xb2,
    0xff, 0x04, 0xe9, 0xda, 0xd9, 0xfd, 0xe7, 0xd2, 0xc2, 0x1d, 0x07, 0xf0,
    0xdc, 0x0e, 0xd8, 0x1e, 0x03, 0xcc, 0xd8, 0xf4, 0x0c, 0x04, 0x10, 0xfe,
    0x21, 0xfb, 0x25, 0xe5, 0xe9, 0x19, 0x7f, 0xfd, 0x07, 0x11, 0xca, 0x0b,
    0xe1, 0xe2, 0x40, 0xc9, 0xa5, 0xf2, 0xf2, 0x98, 0xd2, 0xe9, 0x00, 0x87,
    0x14, 0xf7, 0x42, 0x9a, 0xe5, 0x87, 0x22, 0xde, 0x06, 0xda, 0x8b, 0x1c,
    0xde, 0xc9, 0x0b, 0x81, 0x39, 0x2b, 0xee, 0xff, 0x57, 0xe7, 0x4a, 0xf5,
    0x0e, 0x30, 0xec, 0x1a, 0xf3, 0x4e, 0x88, 0xc5, 0xf6, 0xfd, 0x3e, 0x23,
    0x3d, 0x19, 0xfc, 0xa1, 0x23, 0xe3, 0x2b, 0x0b, 0x25, 0x99, 0x7f, 0x40,
    0xb4, 0xfc, 0xf5, 0xb6, 0xf8, 0x81, 0xd9, 0x29, 0xbe, 0x16, 0x0f, 0x85,
    0x9e, 0x54, 0xd6, 0xea, 0x29, 0x0e, 0x6a, 0xf9, 0xed, 0xa4, 0x0a, 0x01,
    0xe3, 0xd3, 0x0b, 0xfe, 0xb2, 0x3b, 0x52, 0xfb, 0xd8, 0x3b, 0xf8, 0x12,
    0x1c, 0x26, 0x12, 0x15, 0x03, 0x01, 0x14, 0x9b, 0xda, 0xd7, 0x9b, 0x70,
    0x0a, 0x0d, 0xaf, 0xc3, 0x97, 0x81, 0xc0, 0xe7, 0xc9, 0xc2, 0xe5, 0xc6,
    0xa8, 0x26, 0x17, 0x0a, 0xdf, 0x5f, 0xe9, 0xb2, 0xca, 0x19, 0x06, 0xe8,
    0x2a, 0x2b, 0xc8, 0x10, 0x58, 0x32, 0xe6, 0x0e, 0x37, 0x4f, 0x25, 0x2d,
    0xb8, 0x09, 0x94, 0x30, 0x0a, 0x48, 0x0d, 0x6e, 0x21, 0xd1, 0x81, 0xfb,
    0x98, 0x05, 0x3b, 0xe9, 0xea, 0xdf, 0xd7, 0x40, 0x06, 0xf5, 0x37, 0xea,
    0xea, 0x04, 0xf9, 0xb4, 0xd3, 0xfa, 0x81, 0x1d, 0x44, 0xd3, 0x29, 0xc3,
    0x0c, 0xf1, 0x30, 0xfa, 0x2d, 0xe4, 0x0b, 0xa0, 0xe9, 0xcd, 0x0f, 0x3b,
    0x05, 0x59, 0xde, 0x35, 0x20, 0x01, 0x1a, 0x18, 0x7f, 0x99, 0x26, 0xf5,
    0xe7, 0x0e, 0x0a, 0x09, 0x38, 0x09, 0x56, 0x19, 0x2e, 0xfd, 0x09, 0x29,
    0x18, 0xd6, 0x09, 0x24, 0x35, 0xe2, 0x26, 0x0a, 0x59, 0x83, 0xfa, 0xf8,
    0xc5, 0xcd, 0x1a, 0xba, 0xd3, 0xfd, 0xf3, 0xa2, 0xfa, 0xeb, 0xca, 0xdc,
    0x37, 0x81, 0x17, 0xfa, 0x4a, 0x0f, 0x1c, 0x05, 0xea, 0x1f, 0xb6, 0xf1,
    0x02, 0xfa, 0x1a, 0x08, 0xea, 0xc0, 0x45, 0x31, 0xd2, 0xe7, 0xde, 0xc5,
    0xf3, 0x19, 0xe6, 0x48, 0x03, 0xff, 0x81, 0xf0, 0xb9, 0xce, 0xbf, 0xc9,
    0xd9, 0xd9, 0x49, 0x0a, 0x0b, 0xd8, 0x21, 0xcc, 0xe7, 0x52, 0xff, 0xe1,
    0x14, 0x3a, 0xe1, 0xf5, 0xa1, 0xf9, 0x27, 0x39, 0x04, 0x18, 0xf5, 0xc4,
    0x04, 0x08, 0x81, 0xfd, 0x3d, 0x03, 0x2b, 0xce, 0xdf, 0x2d, 0xe0, 0xfb,
    0xda, 0xfa, 0xd6, 0x92, 0x29, 0xf1, 0x0a, 0x2c, 0xe4, 0xd6, 0xfe, 0xb4,
    0x81, 0xe0, 0x25, 0xb1, 0x21, 0x3d, 0x09, 0x46, 0x1b, 0x0e, 0xf1, 0x00,
    0x9c, 0xac, 0xac, 0x34, 0x26, 0xef, 0xec, 0x25, 0xe6, 0x3d, 0x70, 0xc9,
    0x1b, 0x43, 0xf4, 0x53, 0x23, 0xfd, 0xf9, 0xbd, 0x01, 0xe9, 0x0f, 0xf1,
    0x16, 0xf2, 0x1d, 0xe8, 0x00, 0x7f, 0x00, 0xe9, 0x09, 0xfc, 0x17, 0xe9,
    0xec, 0x2b, 0xe3, 0x1f, 0x0d, 0xda, 0xec, 0x14, 0xef, 0xd2, 0x34, 0x16,
    0x2a, 0xdb, 0x70, 0xd1, 0xed, 0xdb, 0x4d, 0xa6, 0xce, 0x14, 0x16, 0x1f,
    0xfb, 0xed, 0xf4, 0x2d, 0x08, 0x81, 0x07, 0xfb, 0x49, 0xeb, 0xdf, 0xf4,
    0x16, 0xba, 0x60, 0xb3, 0x2b, 0x22, 0x37, 0x07, 0x07, 0x0d, 0xe9, 0x19,
    0x14, 0xe2, 0xcd, 0xad, 0xf0, 0x17, 0xd8, 0x72, 0xe6, 0xf2, 0xcd, 0xf7,
    0x9b, 0xf8, 0xbb, 0x01, 0xea, 0xd0, 0x32, 0xdd, 0xd7, 0x14, 0x59, 0xf5,
    0xbc, 0x7f, 0x1f, 0xeb, 0x35, 0x81, 0x04, 0xe9, 0xc0, 0xf3, 0x3b, 0xb5,
    0xe5, 0x0f, 0x2a, 0x16, 0x17, 0xf7, 0xcb, 0x07, 0x0f, 0xcb, 0x2d, 0x19,
    0x07, 0x11, 0x10, 0xf6, 0xcc, 0x1a, 0x09, 0xdb, 0xf5, 0x21, 0xe9, 0x16,
    0xea, 0xa4, 0x9a, 0x7d, 0x27, 0x14, 0x09, 0x39, 0xcf, 0x00, 0x01, 0xfa,
    0x12, 0xd4, 0xa0, 0x9e, 0x6d, 0x1d, 0x06, 0x03, 0x2a, 0x07, 0x1c, 0xea,
    0x46, 0xd7, 0xee, 0x81, 0xa4, 0x91, 0xb4, 0x40, 0x36, 0x78, 0x35, 0x49,
    0x7f, 0xe5, 0xe7, 0xff, 0x40, 0xab, 0x1c, 0xfb, 0xe5, 0x18, 0xea, 0xf8,
    0xd7, 0xde, 0xce, 0x42, 0xe6, 0x2f, 0xfa, 0x03, 0xf5, 0x08, 0xf0, 0xe4,
    0xf7, 0xcf, 0x18, 0x2d, 0xda, 0x18, 0xfa, 0xc5, 0x9c, 0xd8, 0xd6, 0xd9,
    0xfe, 0x2f, 0xf3, 0xf5, 0xed, 0xf1, 0x81, 0x58, 0x29, 0x9d, 0x63, 0xce,
    0xd2, 0x05, 0x3b, 0xda, 0xd1, 0x40, 0xed, 0x16, 0xbe, 0xe8, 0xee, 0xf9,
    0x26, 0x1c, 0x3b, 0x14, 0x0f, 0xf0, 0x76, 0x0e, 0xdd, 0xf7, 0x81, 0x6b,
    0xfd, 0xdf, 0xa5, 0xd6, 0xc1, 0x12, 0x21, 0xed, 0x07, 0xe1, 0xda, 0xc6,
    0xc2, 0x23, 0x63, 0xc7, 0xd9, 0x2b, 0xff, 0x8e, 0x00, 0xb4, 0xcb, 0x0f,
    0xc6, 0xfa, 0x36, 0xc8, 0xdf, 0x1f, 0xfe, 0x81, 0xfe, 0x21, 0x90, 0xa7,
    0x4a, 0xc8, 0x7a, 0x02, 0x30, 0xcd, 0x20, 0xcb, 0xd0, 0x0c, 0xa2, 0xaa,
    0xca, 0xcc, 0x14, 0x3c, 0xe7, 0xdf, 0x4d, 0xa8, 0xb7, 0xcc, 0xe7, 0x2e,
    0xb3, 0xd1, 0x5a, 0x13, 0xcc, 0xc8, 0x7f, 0xf8, 0xc7, 0xba, 0xf3, 0xbc,
    0xe8, 0xf1, 0x23, 0xd2, 0xe4, 0xf5, 0x1f, 0xfd, 0x3d, 0xee, 0x50, 0xa5,
    0x99, 0x45, 0x81, 0x02, 0xf6, 0xe0, 0xea, 0x62, 0xae, 0x44, 0xb1, 0x9e,
    0xf2, 0xc5, 0xd6, 0xbc, 0xbf, 0x48, 0x77, 0xe1, 0xe4, 0x70, 0x35, 0xcb,
    0x09, 0xfd, 0x42, 0x32, 0x16, 0x16, 0xbc, 0x27, 0x51, 0x34, 0x81, 0xed,
    0x29, 0x03, 0xfd, 0xf2, 0x78, 0x0f, 0xd2, 0xa8, 0x13, 0xc9, 0xc4, 0x5a,
    0x23, 0x32, 0x65, 0x09, 0xc8, 0xf1, 0x03, 0xb6, 0xf9, 0x00, 0x01, 0x9f,
    0x53, 0xa5, 0x5c, 0xe2, 0x52, 0xe9, 0xff, 0xff, 0x04, 0x00, 0x00, 0x00,
    0x80, 0x00, 0x00, 0x00, 0xbf, 0xfc, 0xff, 0xff, 0xfd, 0xfe, 0xff, 0xff,
    0xd4, 0xfe, 0xff, 0xff, 0x21, 0x00, 0x00, 0x00, 0x5d, 0xf9, 0xff, 0xff,
    0xc8, 0xfa, 0xff, 0xff, 0x5a, 0xfa, 0xff, 0xff, 0x4a, 0x00, 0x00, 0x00,
    0x0f, 0x01, 0x00, 0x00, 0xb3, 0x00, 0x00, 0x00, 0xd8, 0xfc, 0xff, 0xff,
    0x27, 0x04, 0x00, 0x00, 0x84, 0xfe, 0xff, 0xff, 0xdd, 0xfa, 0xff, 0xff,
    0xe2, 0xfd, 0xff, 0xff, 0xa2, 0xfb, 0xff, 0xff, 0x96, 0xfd, 0xff, 0xff,
    0xf9, 0xff, 0xff, 0xff, 0x24, 0xfd, 0xff, 0xff, 0xcb, 0xff, 0xff, 0xff,
    0xe3, 0xfd, 0xff, 0xff, 0xc0, 0x00, 0x00, 0x00, 0xe0, 0x00, 0x00, 0x00,
    0x26, 0x00, 0x00, 0x00, 0xa2, 0xfd, 0xff, 0xff, 0x7f, 0xfe, 0xff, 0xff,
    0x44, 0xfb, 0xff, 0xff, 0x12, 0xff, 0xff, 0xff, 0x03, 0xfe, 0xff, 0xff,
    0xdf, 0xfc, 0xff, 0xff, 0x3c, 0xfe, 0xff, 0xff, 0x37, 0xf7, 0xff, 0xff,
    0xde, 0xe9, 0xff, 0xff, 0x04, 0x00, 0x00, 0x00, 0x20, 0x01, 0x00, 0x00,
    0xfe, 0x19, 0x31, 0x27, 0x57, 0xa5, 0x25, 0x60, 0x9b, 0x2a, 0x41, 0x51,
    0x7f, 0x22, 0x03, 0xc9, 0xaa, 0x7f, 0x91, 0xd9, 0xcd, 0x2e, 0xaa, 0xfc,
    0xe4, 0x71, 0x81, 0x14, 0x04, 0x81, 0x7f, 0x67, 0xc6, 0xd6, 0x2e, 0xd3,
    0x33, 0xd6, 0x29, 0xf0, 0xa6, 0x53, 0x38, 0x1c, 0x1a, 0xfc, 0xb9, 0xa8,
    0xf9, 0x12, 0x23, 0x26, 0xef, 0x51, 0x1e, 0xdd, 0xe3, 0x6b, 0xd6, 0x1e,
    0x12, 0x00, 0xd5, 0x2f, 0xc1, 0x0f, 0x10, 0x4f, 0x24, 0xd6, 0x55, 0xf5,
    0xfb, 0x2c, 0x4e, 0xf1, 0xf4, 0x13, 0x86, 0x5c, 0x09, 0x08, 0x7f, 0x02,
    0xfc, 0x31, 0x3a, 0x25, 0x9f, 0xb7, 0xb2, 0x33, 0x76, 0x15, 0x89, 0x22,
    0xe3, 0x7f, 0x50, 0x21, 0x3f, 0x96, 0x39, 0x63, 0x7f, 0x15, 0x61, 0x1a,
    0x49, 0x47, 0xc6, 0x8f, 0xab, 0x75, 0x9a, 0xc2, 0xe6, 0x21, 0x81, 0x06,
    0x07, 0x7f, 0x90, 0x0f, 0xee, 0xb3, 0x77, 0x69, 0xd9, 0x18, 0x29, 0x03,
    0x32, 0xc9, 0x47, 0x46, 0x40, 0x52, 0x3f, 0x0e, 0xe8, 0x25, 0xc6, 0x81,
    0xf0, 0x00, 0x9b, 0xfa, 0xc9, 0x73, 0x03, 0x00, 0xea, 0x62, 0x12, 0x21,
    0x29, 0x3a, 0x0f, 0x72, 0xd6, 0x2f, 0x5d, 0x20, 0x5c, 0xe6, 0x38, 0x23,
    0x36, 0x2d, 0x61, 0xc1, 0x02, 0xfd, 0x0b, 0xe7, 0x0e, 0x3c, 0xf1, 0xce,
    0x9e, 0x52, 0xfa, 0x1d, 0xbc, 0xa5, 0x99, 0x57, 0x7f, 0x5d, 0x66, 0x34,
    0xef, 0x71, 0x31, 0x7f, 0x4b, 0x81, 0x7f, 0x7f, 0x55, 0x7f, 0x7f, 0xec,
    0x73, 0x7f, 0xac, 0x92, 0x81, 0x69, 0x91, 0xa2, 0xc8, 0x57, 0xa5, 0x75,
    0xdc, 0x69, 0xf6, 0x61, 0x39, 0xa4, 0xc2, 0x58, 0xd1, 0xda, 0xf9, 0x0a,
    0x41, 0xeb, 0x27, 0x16, 0x64, 0x67, 0x3c, 0xaa, 0x1e, 0x10, 0xbb, 0xa6,
    0xba, 0x29, 0xda, 0xc0, 0xa9, 0x7f, 0x2a, 0x30, 0x0d, 0x7b, 0x16, 0x38,
    0xe1, 0x29, 0x42, 0x55, 0x81, 0xe7, 0x7f, 0x71, 0x7f, 0xcf, 0x42, 0x2b,
    0x35, 0x49, 0x6d, 0x81, 0xfe, 0xc4, 0x81, 0x9e, 0xb3, 0x2d, 0xcb, 0x81,
    0x81, 0x47, 0x42, 0x7f, 0x81, 0xf1, 0xd0, 0x7f, 0x2d, 0x70, 0xcf, 0x7f,
    0x0a, 0xeb, 0xff, 0xff, 0x04, 0x00, 0x00, 0x00, 0x00, 0x06, 0x00, 0x00,
    0xd5, 0x25, 0x11, 0xff, 0x0e, 0x2c, 0xfe, 0x0e, 0xdf, 0x3a, 0x95, 0xc0,
    0xb2, 0xc7, 0xec, 0xab, 0x43, 0xc6, 0xf6, 0x7f, 0xc9, 0x05, 0x33, 0x3c,
    0xe6, 0x50, 0xce, 0x10, 0xda, 0xd6, 0xe5, 0x07, 0xd7, 0xc1, 0x18, 0xa3,
    0x69, 0xdd, 0x18, 0xef, 0xa8, 0x06, 0xf6, 0x01, 0x2d, 0x31, 0xee, 0xda,
    0xd5, 0x1d, 0xee, 0x00, 0x34, 0x9d, 0xd3, 0xcb, 0xf9, 0xe2, 0xe9, 0xab,
    0x05, 0x7f, 0x19, 0x26, 0x02, 0x46, 0x14, 0x11, 0x5d, 0xcc, 0x03, 0xa3,
    0x0e, 0xfc, 0x81, 0x13, 0x30, 0x06, 0x11, 0xf3, 0xed, 0x0c, 0xcb, 0xd3,
    0x2e, 0xd6, 0xad, 0xbf, 0xfa, 0xe8, 0x18, 0xf7, 0x2c, 0x18, 0x1d, 0x51,
    0x3c, 0x0a, 0x9e, 0xd3, 0x03, 0xd3, 0x0d, 0xeb, 0x98, 0xe2, 0xa0, 0x71,
    0x0d, 0xfc, 0x70, 0xca, 0xec, 0x2d, 0x6c, 0x0c, 0x0a, 0x8b, 0x0f, 0x17,
    0x4a, 0x42, 0x10, 0x05, 0xe3, 0x7c, 0x81, 0x21, 0x0f, 0x22, 0x28, 0xf5,
    0x7f, 0xc4, 0x2a, 0xeb, 0xd3, 0x0b, 0x96, 0xd0, 0x11, 0x38, 0x13, 0xa6,
    0xe6, 0xda, 0xe8, 0x11, 0x12, 0x9f, 0xbf, 0xf3, 0x1c, 0xb9, 0xc6, 0xbb,
    0x41, 0x71, 0x13, 0x59, 0x9b, 0xe6, 0xbe, 0xff, 0x3a, 0x23, 0x37, 0x7f,
    0xbe, 0x25, 0xb4, 0xf2, 0xb3, 0xec, 0xbc, 0xc4, 0x2c, 0x82, 0x21, 0xc0,
    0x67, 0xa4, 0x7c, 0x2b, 0x86, 0x60, 0x19, 0x79, 0xb8, 0x0a, 0x0d, 0x66,
    0xf1, 0x2a, 0x15, 0x0c, 0x4b, 0xc5, 0xf3, 0xec, 0xc1, 0x0c, 0xd7, 0x26,
    0xd5, 0x3b, 0xe0, 0xe1, 0xf2, 0xf5, 0xdf, 0x14, 0x09, 0x81, 0xf7, 0xf3,
    0x12, 0xf9, 0xf4, 0x01, 0x30, 0x2b, 0x0f, 0x10, 0xbf, 0x0f, 0x23, 0x1f,
    0x29, 0x06, 0xc4, 0x05, 0xfb, 0x41, 0xc8, 0xd3, 0x89, 0xf4, 0xd8, 0xdc,
    0xe5, 0xae, 0xfa, 0x7f, 0xd1, 0xcc, 0xf8, 0x15, 0xc8, 0x0b, 0xff, 0xd0,
    0xe7, 0xaa, 0x12, 0x0e, 0x0e, 0x29, 0x81, 0x09, 0xf5, 0xfb, 0xf0, 0xbb,
    0xe8, 0xec, 0xd4, 0xec, 0x3a, 0xfa, 0x6d, 0xef, 0x2f, 0x1a, 0xdd, 0xd9,
    0x32, 0xe3, 0xba, 0x04, 0x39, 0x10, 0x19, 0x06, 0xb6, 0xff, 0xe5, 0x0f,
    0x34, 0x0f, 0xe6, 0x23, 0x87, 0xb7, 0x1d, 0x12, 0x24, 0x85, 0xec, 0x52,
    0x00, 0xe5, 0xe8, 0xbd, 0xf0, 0x06, 0xf4, 0xec, 0x7f, 0x98, 0x0f, 0x10,
    0x23, 0x0f, 0xc2, 0xec, 0x09, 0xe3, 0xf3, 0x46, 0xb5, 0x0f, 0x20, 0x19,
    0xbf, 0x14, 0x09, 0x02, 0x0e, 0x0a, 0x88, 0x17, 0xab, 0x3b, 0x01, 0x27,
    0xba, 0xc0, 0x01, 0x30, 0xf4, 0xf9, 0x47, 0x1c, 0x90, 0xf2, 0x26, 0x4b,
    0xee, 0x81, 0x5f, 0xda, 0x7f, 0x41, 0xfe, 0xf8, 0xc1, 0x0b, 0x5c, 0xa6,
    0xe1, 0x74, 0x54, 0xfb, 0x0a, 0x00, 0x12, 0x30, 0xd9, 0xd4, 0x03, 0x51,
    0x0a, 0x17, 0x45, 0x9a, 0x73, 0xee, 0xff, 0xfe, 0x3e, 0x15, 0x4e, 0xbf,
    0xec, 0x19, 0x17, 0x40, 0x3d, 0xf8, 0x5a, 0x60, 0x09, 0x81, 0xb8, 0xea,
    0xea, 0x41, 0xba, 0xc6, 0x10, 0x5e, 0xd4, 0xf5, 0x03, 0x8f, 0xa5, 0x39,
    0x47, 0x59, 0x9b, 0x2a, 0x10, 0x5b, 0x7d, 0x4c, 0xf4, 0xe7, 0xec, 0x18,
    0xce, 0xba, 0x28, 0x14, 0x0a, 0xc6, 0xcb, 0xfa, 0xf4, 0x27, 0xdd, 0x14,
    0xe0, 0xc5, 0x1f, 0x0c, 0x7f, 0xee, 0xe5, 0xef, 0xcb, 0xc3, 0xeb, 0x00,
    0x32, 0xb4, 0xff, 0x32, 0xe6, 0xc2, 0x22, 0x04, 0x4c, 0x67, 0x9f, 0xe8,
    0xd4, 0x1e, 0xc0, 0xb3, 0xa2, 0x81, 0xd4, 0xdd, 0x17, 0xa0, 0xbf, 0x11,
    0x4f, 0xca, 0xe7, 0xf6, 0xf3, 0xc1, 0xdc, 0xaf, 0x27, 0xba, 0xe5, 0x42,
    0xc9, 0x10, 0xf4, 0x1c, 0x13, 0xd5, 0x03, 0x08, 0x2a, 0x1a, 0xad, 0xf4,
    0x10, 0x0e, 0xea, 0xfa, 0x2a, 0xc1, 0xef, 0xdc, 0x5d, 0x81, 0xea, 0x31,
    0xf5, 0x9e, 0xd9, 0xe8, 0x33, 0x4b, 0x1a, 0x2d, 0x60, 0x08, 0x06, 0x07,
    0xe7, 0x07, 0xef, 0x2d, 0x1c, 0x42, 0x0b, 0xdc, 0xb1, 0xfb, 0x1d, 0x74,
    0xfa, 0xc9, 0x02, 0x00, 0x74, 0xdd, 0x2d, 0x33, 0x39, 0x81, 0xdc, 0x0e,
    0x07, 0xf0, 0xf3, 0x99, 0x37, 0x15, 0x00, 0x22, 0x1a, 0xe8, 0xe3, 0x21,
    0xff, 0xef, 0x1a, 0xc4, 0xa5, 0x1d, 0xea, 0x0e, 0xf0, 0xbe, 0x1d, 0xf2,
    0x27, 0xde, 0x06, 0x20, 0x22, 0x81, 0xf2, 0xfb, 0x10, 0xfd, 0x06, 0xdc,
    0x0a, 0xc0, 0x0c, 0x93, 0x27, 0x0f, 0x12, 0xd3, 0x39, 0x21, 0x7f, 0x30,
    0x00, 0x16, 0x43, 0xe8, 0x3c, 0xc6, 0x20, 0x15, 0xdf, 0x25, 0xab, 0xe6,
    0x15, 0x2c, 0xf6, 0x03, 0xd2, 0x6c, 0x0e, 0x1a, 0xe4, 0x02, 0x22, 0xed,
    0x27, 0x2a, 0x05, 0x81, 0x25, 0xe9, 0x3d, 0x02, 0xcb, 0xce, 0xdf, 0xd4,
    0x02, 0xde, 0xf9, 0xcd, 0x93, 0x22, 0x35, 0x89, 0x4b, 0x6b, 0x46, 0x5d,
    0xce, 0xff, 0xde, 0x07, 0x23, 0x21, 0xef, 0xf7, 0x3a, 0xcf, 0x11, 0x21,
    0xd1, 0x8e, 0x08, 0x42, 0xc3, 0x37, 0xd0, 0xd3, 0xef, 0x01, 0x12, 0x34,
    0x7f, 0xa9, 0xf1, 0x05, 0x01, 0xc9, 0xd9, 0x09, 0x28, 0xc6, 0x1a, 0x5e,
    0x16, 0xfc, 0xe6, 0xf3, 0xe4, 0xb5, 0xf2, 0xe9, 0xbf, 0xc2, 0xa9, 0x25,
    0xda, 0x43, 0x6a, 0x9e, 0xc2, 0x2e, 0x36, 0x1d, 0x18, 0xc7, 0xfd, 0xf8,
    0x0f, 0x1f, 0x15, 0xf6, 0x81, 0x2e, 0xfc, 0x70, 0x53, 0xe1, 0x1c, 0x26,
    0xe4, 0x7f, 0xa4, 0x36, 0x2e, 0x46, 0xe3, 0xcc, 0x94, 0x51, 0x21, 0x39,
    0xc7, 0xfb, 0x0b, 0xad, 0xe9, 0xfb, 0x4f, 0x05, 0x5c, 0x82, 0x01, 0xa0,
    0x1d, 0x15, 0x10, 0xe6, 0x03, 0x5b, 0xe3, 0xdd, 0x41, 0xcf, 0xfd, 0x20,
    0xf9, 0xbb, 0xa0, 0xe6, 0x25, 0x57, 0x07, 0xdc, 0xd2, 0x23, 0xfa, 0xcd,
    0x21, 0xd2, 0xc6, 0x24, 0xd5, 0x9e, 0xd9, 0xd9, 0x09, 0x7f, 0x3a, 0x31,
    0xca, 0xf3, 0x10, 0xf9, 0xec, 0xca, 0x08, 0xfd, 0x33, 0xd8, 0x01, 0x0e,
    0xf9, 0x2c, 0xde, 0x28, 0xd9, 0xed, 0xcc, 0xf2, 0x7f, 0xcd, 0x0b, 0x01,
    0x0c, 0xb7, 0xda, 0xcb, 0x25, 0xd6, 0x05, 0xfc, 0xdb, 0xd8, 0xd9, 0x28,
    0x1d, 0x68, 0xc8, 0x28, 0xff, 0xc7, 0xfc, 0xb9, 0xe6, 0xe8, 0x3e, 0x0f,
    0xef, 0x49, 0xf8, 0xed, 0x12, 0xdb, 0x81, 0xe2, 0x67, 0x58, 0xf1, 0x15,
    0xb3, 0xc7, 0x0b, 0x47, 0xff, 0xea, 0xe6, 0x23, 0x36, 0x0f, 0x42, 0x2b,
    0xf6, 0xe4, 0x8b, 0x3f, 0xe7, 0x1a, 0xcd, 0x95, 0xb8, 0x02, 0x20, 0x58,
    0xe2, 0x98, 0x13, 0x81, 0xfd, 0x0c, 0x01, 0x24, 0x29, 0xaf, 0xd3, 0x0a,
    0x28, 0x2f, 0xb7, 0xd0, 0xed, 0xd2, 0x27, 0xc0, 0x2c, 0xe7, 0xc9, 0x10,
    0x0c, 0xe8, 0x7f, 0xe1, 0x24, 0x1c, 0x4c, 0xe5, 0x2b, 0xa4, 0xea, 0x02,
    0x69, 0x32, 0x0a, 0xe6, 0x9d, 0x57, 0xca, 0xfc, 0xd9, 0xed, 0xf1, 0x81,
    0x06, 0xf2, 0xb4, 0x38, 0xee, 0x1a, 0x6d, 0x3f, 0xfc, 0x3b, 0x2f, 0x2f,
    0x2e, 0xbc, 0xde, 0x34, 0xd3, 0x58, 0xa0, 0x0d, 0xf7, 0x44, 0xbd, 0xc8,
    0xca, 0x39, 0x41, 0xe0, 0xe6, 0xdf, 0xd8, 0x33, 0xa2, 0x3f, 0x07, 0xc2,
    0x47, 0x18, 0x15, 0xdc, 0x3d, 0x11, 0x2d, 0x7f, 0x11, 0x77, 0x61, 0xff,
    0xbd, 0xeb, 0xd3, 0x0d, 0x7f, 0xe7, 0x1b, 0x43, 0xe4, 0x71, 0x02, 0x05,
    0xfd, 0xf7, 0x08, 0xfb, 0xdf, 0xa8, 0x51, 0xff, 0x17, 0x13, 0x08, 0x4e,
    0x29, 0x37, 0x38, 0xcc, 0xdb, 0xfa, 0x92, 0xd1, 0x6f, 0xcd, 0x44, 0xb6,
    0x34, 0x4a, 0x4c, 0x0a, 0xd0, 0x81, 0xe4, 0x4d, 0x24, 0x0f, 0xed, 0x36,
    0x62, 0x52, 0x90, 0x16, 0x34, 0xcf, 0x56, 0xa0, 0xc4, 0x81, 0xf1, 0xed,
    0xcf, 0xff, 0xde, 0x9c, 0x28, 0xc5, 0x6a, 0x1e, 0x23, 0xba, 0x27, 0xbf,
    0x1f, 0x20, 0x0c, 0x02, 0x66, 0x63, 0x9f, 0x0a, 0x04, 0x02, 0x2d, 0x81,
    0x49, 0xa2, 0x9b, 0xeb, 0x4b, 0xd8, 0x76, 0xc5, 0x59, 0x42, 0x64, 0xcb,
    0x1b, 0xaa, 0xa6, 0x04, 0x5f, 0x78, 0x2f, 0x0c, 0x9a, 0x2f, 0xe0, 0xff,
    0x57, 0xe9, 0xbf, 0x35, 0x10, 0xb0, 0x27, 0x28, 0x84, 0xc5, 0x89, 0x5d,
    0x1f, 0xdb, 0xe9, 0xaa, 0xbc, 0xf3, 0x79, 0xb8, 0x28, 0xcb, 0xbc, 0xc7,
    0x59, 0x65, 0xe8, 0x3e, 0x81, 0x54, 0xfc, 0x38, 0x35, 0x02, 0xb2, 0x1a,
    0xdb, 0x31, 0xcb, 0x0d, 0x0a, 0x17, 0x1f, 0xdb, 0x21, 0xd7, 0x21, 0x1e,
    0x0e, 0x2a, 0x0c, 0xeb, 0xd9, 0x3d, 0x81, 0x07, 0x2d, 0x04, 0xfd, 0x1e,
    0xc8, 0x2d, 0xd0, 0xe1, 0xb1, 0x3c, 0xf6, 0xf5, 0x5b, 0xc7, 0x31, 0x00,
    0x08, 0xa4, 0x81, 0xcb, 0x00, 0x18, 0xee, 0xe1, 0x24, 0x19, 0xf8, 0xd3,
    0x43, 0xc7, 0xd4, 0x0d, 0x0a, 0xdb, 0xcd, 0xe4, 0xdc, 0x29, 0x44, 0x3d,
    0xdd, 0xec, 0x0e, 0xd8, 0xf9, 0x24, 0xc5, 0x38, 0x07, 0xd5, 0xf8, 0x0d,
    0xc0, 0xd4, 0xf6, 0xfd, 0xd9, 0xaa, 0x1a, 0xe8, 0x10, 0xb8, 0x81, 0x33,
    0xd3, 0xb5, 0xcf, 0x88, 0x0c, 0xca, 0x29, 0xd0, 0xfe, 0x2e, 0xe7, 0x48,
    0xfb, 0x5f, 0xd4, 0x3c, 0xee, 0xed, 0x14, 0x1d, 0xcb, 0xc2, 0xee, 0x25,
    0xa2, 0xfb, 0xd9, 0x0e, 0x7f, 0xdb, 0x51, 0x49, 0x3d, 0x48, 0xbc, 0xc4,
    0xd1, 0x34, 0x9f, 0x2b, 0xd7, 0xf1, 0x18, 0xdc, 0x39, 0x0b, 0x2c, 0x43,
    0x15, 0x27, 0x81, 0xeb, 0xc9, 0xd2, 0x0d, 0xc7, 0xd5, 0xbd, 0xf8, 0x75,
    0x21, 0xed, 0x02, 0x06, 0xd9, 0x27, 0xd7, 0xda, 0xf2, 0x08, 0x16, 0x35,
    0x29, 0x37, 0x8b, 0x0c, 0xd9, 0x15, 0xda, 0xd9, 0x13, 0x81, 0x20, 0xda,
    0x42, 0xee, 0x5e, 0x27, 0x30, 0x39, 0x50, 0xc3, 0x32, 0x0c, 0xe9, 0x23,
    0x41, 0x00, 0xe0, 0x12, 0x16, 0x04, 0x1e, 0xbb, 0x39, 0x23, 0xf1, 0xf4,
    0x23, 0x7f, 0x89, 0x5a, 0x2b, 0x17, 0x1e, 0xf2, 0xbc, 0xda, 0x79, 0xf5,
    0x0e, 0x55, 0x5b, 0xac, 0xde, 0x36, 0xc6, 0x20, 0x12, 0xc3, 0xfd, 0xe0,
    0x96, 0x20, 0x1f, 0xf8, 0xf4, 0x48, 0x8b, 0x27, 0x81, 0x36, 0xc8, 0x0c,
    0x08, 0xe4, 0xf5, 0xe2, 0x2e, 0xd8, 0x6b, 0x1e, 0x30, 0x50, 0x1f, 0x2b,
    0xed, 0xd0, 0xe0, 0x0e, 0x0a, 0xb8, 0xc2, 0x22, 0xba, 0xcf, 0x31, 0x00,
    0x55, 0x2c, 0x1b, 0x1c, 0xb7, 0xf7, 0x8c, 0x1a, 0x03, 0x29, 0x46, 0xaa,
    0xf7, 0x6c, 0xe4, 0x7f, 0xb7, 0xf6, 0xf7, 0xec, 0xc7, 0x0a, 0x21, 0x16,
    0x12, 0xc3, 0xe9, 0xa7, 0x34, 0x22, 0xf7, 0xaf, 0x24, 0xe6, 0xcb, 0x96,
    0xc3, 0x67, 0x2b, 0xe9, 0x06, 0x1b, 0x9c, 0xed, 0xd3, 0xde, 0x15, 0xe7,
    0xfe, 0xa1, 0x38, 0x28, 0x24, 0x9b, 0x81, 0xa4, 0x5b, 0x8d, 0x47, 0xb0,
    0x03, 0x29, 0xa8, 0xd6, 0x00, 0x57, 0xd9, 0x46, 0x0d, 0x54, 0xf1, 0xba,
    0x31, 0xb4, 0xa8, 0xc6, 0x7f, 0xbb, 0xfb, 0xc5, 0x66, 0x2f, 0xd5, 0x13,
    0xf5, 0x0f, 0xb0, 0xdf, 0xc1, 0x45, 0x13, 0xed, 0xec, 0xb0, 0xeb, 0x24,
    0xef, 0x37, 0x1c, 0xf2, 0xe1, 0xf2, 0x1a, 0xcf, 0x2e, 0xe3, 0xb5, 0x0c,
    0x4a, 0x03, 0xd0, 0x03, 0x40, 0x00, 0xd2, 0x08, 0x20, 0xfb, 0xf0, 0x31,
    0x81, 0x10, 0x20, 0x2c, 0xfb, 0xc8, 0x02, 0xfe, 0x2a, 0x17, 0xf0, 0xe1,
    0xe2, 0x14, 0xe5, 0xbd, 0xda, 0xea, 0xe8, 0xe6, 0xbe, 0xb1, 0x0a, 0xb8,
    0x18, 0x1a, 0xd0, 0xfa, 0xd8, 0x0b, 0x5b, 0xe7, 0x36, 0x7f, 0x1d, 0x0d,
    0x16, 0x2d, 0x00, 0xf7, 0x78, 0xf6, 0xab, 0x1f, 0x0e, 0xed, 0x12, 0xfe,
    0xa0, 0xea, 0x9f, 0x2e, 0xe7, 0x26, 0xfe, 0xfc, 0xfa, 0x09, 0x7f, 0xec,
    0xfd, 0xd6, 0x1a, 0x06, 0x45, 0x5a, 0xfe, 0x18, 0xe3, 0x2e, 0xc5, 0x37,
    0x16, 0xf1, 0xff, 0xff, 0x04, 0x00, 0x00, 0x00, 0xc0, 0x00, 0x00, 0x00,
    0x88, 0xfd, 0xff, 0xff, 0x01, 0xfa, 0xff, 0xff, 0x37, 0xfd, 0xff, 0xff,
    0x09, 0xfb, 0xff, 0xff, 0x54, 0xfb, 0xff, 0xff, 0x27, 0xfb, 0xff, 0xff,
    0xb2, 0xfc, 0xff, 0xff, 0x20, 0xfe, 0xff, 0xff, 0xe0, 0xff, 0xff, 0xff,
    0xe7, 0x00, 0x00, 0x00, 0x84, 0xfe, 0xff, 0xff, 0x59, 0x00, 0x00, 0x00,
    0x3f, 0xfd, 0xff, 0xff, 0xad, 0xff, 0xff, 0xff, 0xcd, 0xfd, 0xff, 0xff,
    0x8e, 0xfd, 0xff, 0xff, 0x30, 0x01, 0x00, 0x00, 0xec, 0x00, 0x00, 0x00,
    0xe0, 0xff, 0xff, 0xff, 0x2a, 0x00, 0x00, 0x00, 0x7a, 0xff, 0xff, 0xff,
    0xa8, 0xfb, 0xff, 0xff, 0x3b, 0x01, 0x00, 0x00, 0x30, 0xfc, 0xff, 0xff,
    0xe9, 0xff, 0xff, 0xff, 0xcb, 0x00, 0x00, 0x00, 0x72, 0xfb, 0xff, 0xff,
    0xde, 0xfd, 0xff, 0xff, 0x89, 0xff, 0xff, 0xff, 0x36, 0x00, 0x00, 0x00,
    0xe3, 0xfc, 0xff, 0xff, 0x36, 0xff, 0xff, 0xff, 0xf6, 0xfd, 0xff, 0xff,
    0x8a, 0xfb, 0xff, 0xff, 0x29, 0x00, 0x00, 0x00, 0xd4, 0xfd, 0xff, 0xff,
    0xb8, 0xff, 0xff, 0xff, 0x75, 0x01, 0x00, 0x00, 0x52, 0xfe, 0xff, 0xff,
    0x12, 0xfe, 0xff, 0xff, 0x0e, 0x01, 0x00, 0x00, 0x2c, 0x00, 0x00, 0x00,
    0xc4, 0x00, 0x00, 0x00, 0x7e, 0xfb, 0xff, 0xff, 0x25, 0xff, 0xff, 0xff,
    0xe7, 0xfe, 0xff, 0xff, 0x03, 0x00, 0x00, 0x00, 0x69, 0xfd, 0xff, 0xff,
    0xe2, 0xf1, 0xff, 0xff, 0x04, 0x00, 0x00, 0x00, 0x30, 0x00, 0x00, 0x00,
    0x1f, 0x62, 0xf2, 0x5e, 0x61, 0xfe, 0x39, 0x0a, 0xdd, 0x12, 0xed, 0xc8,
    0x2d, 0xe4, 0xfc, 0x24, 0x27, 0x60, 0xd9, 0xcd, 0x26, 0x45, 0x38, 0x17,
    0xef, 0xf1, 0x20, 0x12, 0xd4, 0x0e, 0x3a, 0x75, 0xdd, 0x24, 0xe9, 0x19,
    0xdf, 0x31, 0x27, 0xd2, 0xf2, 0xf5, 0x1d, 0xe7, 0xd3, 0xd1, 0x00, 0x7f,
    0x1e, 0xf2, 0xff, 0xff, 0x04, 0x00, 0x00, 0x00, 0x04, 0x00, 0x00, 0x00,
    0x5c, 0x01, 0x00, 0x00, 0x2e, 0xf2, 0xff, 0xff, 0x04, 0x00, 0x00, 0x00,
    0x00, 0x0c, 0x00, 0x00, 0x07, 0xf5, 0x0c, 0xda, 0xf1, 0x1e, 0xda, 0xca,
    0xd0, 0x24, 0xd0, 0x12, 0xfa, 0xf4, 0x00, 0xe7, 0x3c, 0x35, 0xfd, 0xdc,
    0x35, 0x02, 0x5b, 0x05, 0x22, 0xd6, 0x06, 0xe9, 0xf8, 0xd9, 0x1a, 0x17,
    0xf1, 0x15, 0x81, 0x0a, 0xef, 0x4f, 0xd9, 0xff, 0x9d, 0xb3, 0x19, 0x09,
    0x07, 0xf7, 0xea, 0xfb, 0xa5, 0x52, 0xe1, 0x15, 0x2c, 0xd9, 0x0d, 0xd5,
    0x23, 0x9e, 0x81, 0x2d, 0x51, 0x17, 0xe2, 0x92, 0xe1, 0xf9, 0xad, 0x0f,
    0xac, 0xdc, 0x26, 0xb9, 0xf1, 0xd7, 0xf7, 0xd1, 0xd1, 0x0f, 0x43, 0x11,
    0xa5, 0xd7, 0x97, 0x54, 0x40, 0xb1, 0x1a, 0x13, 0xc9, 0x8f, 0x21, 0x55,
    0x85, 0x13, 0x34, 0xa1, 0x86, 0x3f, 0xf0, 0x7f, 0x14, 0x40, 0x1d, 0xb8,
    0xb6, 0xf8, 0x8f, 0x47, 0xd3, 0xf7, 0x4c, 0x49, 0x5b, 0xc9, 0xf5, 0xea,
    0x9f, 0xbf, 0x9e, 0x9a, 0xc9, 0x40, 0x3f, 0xa1, 0xf3, 0xd4, 0xbe, 0xec,
    0x3d, 0x9c, 0xc2, 0xc5, 0x54, 0xbf, 0x13, 0xae, 0x0f, 0x1d, 0xf4, 0x91,
    0x56, 0xb4, 0x48, 0xe5, 0xd8, 0x1b, 0x00, 0xfe, 0xf0, 0x1b, 0x9e, 0xd2,
    0x84, 0x7c, 0x27, 0xb8, 0x01, 0x51, 0x06, 0x34, 0x05, 0x1f, 0xfa, 0x86,
    0x47, 0x25, 0x56, 0x3d, 0xf8, 0x8a, 0xc8, 0xa3, 0xc9, 0xb9, 0x28, 0x71,
    0x05, 0x01, 0x81, 0x37, 0x3f, 0x32, 0xd5, 0x9b, 0x93, 0x98, 0x31, 0xc9,
    0xd0, 0xd2, 0x48, 0x98, 0xa6, 0xdb, 0x87, 0x13, 0x9d, 0x86, 0x2a, 0xa2,
    0x1d, 0x94, 0x27, 0x9b, 0x9a, 0x90, 0x5b, 0x53, 0xd8, 0x81, 0x8c, 0x5a,
    0x9e, 0x37, 0x07, 0x4c, 0x56, 0x5a, 0xb3, 0x0d, 0x25, 0xc3, 0x13, 0x35,
    0x39, 0xf4, 0xee, 0xc8, 0xcb, 0xb3, 0x91, 0xf0, 0x5f, 0xe8, 0xfd, 0x96,
    0x40, 0xdd, 0x9f, 0x3e, 0xa5, 0xd4, 0xb9, 0xc2, 0x09, 0x3b, 0xc0, 0x42,
    0xba, 0xed, 0xec, 0x56, 0x58, 0xcc, 0xcc, 0x12, 0xb8, 0xf7, 0xae, 0x9b,
    0xe6, 0xf6, 0xf1, 0xb1, 0x8b, 0x9b, 0x25, 0x00, 0xc0, 0x34, 0x4a, 0x83,
    0xe8, 0xaa, 0x3c, 0x5e, 0x98, 0x8a, 0x82, 0x81, 0xe0, 0x8f, 0xc8, 0x02,
    0x90, 0x69, 0x48, 0xca, 0x95, 0x81, 0x17, 0xc9, 0x04, 0x2e, 0xdb, 0x23,
    0x36, 0xfd, 0xe3, 0xd8, 0x4a, 0xcb, 0x18, 0xae, 0x14, 0x31, 0x3d, 0x16,
    0x8b, 0xa3, 0x0a, 0xe4, 0xac, 0xc1, 0x35, 0x21, 0xf1, 0xb9, 0xb1, 0xc8,
    0xed, 0x21, 0x44, 0xaa, 0xaf, 0xfc, 0x27, 0xa1, 0xcb, 0x44, 0x1f, 0xef,
    0xab, 0xe2, 0x38, 0xa1, 0xf8, 0xfc, 0xe6, 0xce, 0x0c, 0xdf, 0xf2, 0x10,
    0xe8, 0xd4, 0x25, 0x1d, 0xbc, 0xd7, 0x29, 0xc2, 0x47, 0x54, 0x05, 0xe0,
    0xc3, 0xe6, 0x7f, 0xf0, 0x09, 0xde, 0xf7, 0xe4, 0x1f, 0xf7, 0x0a, 0x28,
    0xb5, 0x10, 0x3f, 0xd7, 0x0d, 0x01, 0xdf, 0x09, 0x67, 0x08, 0x0e, 0x0b,
    0xff, 0xdd, 0xc4, 0xbc, 0xc8, 0xa4, 0x89, 0xba, 0x40, 0xb6, 0x0b, 0x16,
    0x31, 0xf4, 0x42, 0x49, 0x99, 0xc6, 0x3f, 0xc7, 0xd6, 0x1a, 0x08, 0x08,
    0x54, 0x3d, 0x8f, 0xaf, 0x0c, 0x0d, 0x2f, 0x54, 0x8b, 0x3b, 0x02, 0x97,
    0x41, 0xe7, 0x48, 0xa1, 0xf2, 0xfc, 0x5c, 0xb8, 0x96, 0x83, 0xcd, 0xaf,
    0xeb, 0x81, 0x0b, 0xd8, 0x08, 0x7f, 0x15, 0x27, 0x35, 0xff, 0x19, 0x0a,
    0x21, 0xed, 0x1f, 0xda, 0xfd, 0x14, 0x23, 0xf7, 0x18, 0xeb, 0xf5, 0x11,
    0x10, 0x47, 0xf9, 0x01, 0x17, 0xf3, 0x0a, 0x19, 0xb3, 0xf9, 0x1f, 0x0f,
    0x1b, 0x1d, 0x0f, 0x1b, 0x08, 0xe1, 0xff, 0x29, 0x0a, 0x03, 0xc8, 0xfd,
    0x21, 0x04, 0x0c, 0x4b, 0xde, 0x91, 0xe9, 0xfe, 0x17, 0x07, 0x97, 0x2f,
    0x8c, 0x0a, 0xab, 0xbc, 0x24, 0x90, 0xc6, 0xb6, 0x2f, 0x39, 0x2e, 0x14,
    0xd5, 0x1d, 0x15, 0xf1, 0x8a, 0x7f, 0x0d, 0x19, 0x25, 0x52, 0x93, 0xeb,
    0xc0, 0x51, 0x19, 0x4b, 0xb5, 0x37, 0xcf, 0x4c, 0x76, 0xf0, 0x69, 0x3f,
    0x26, 0xa8, 0xd6, 0xfc, 0x03, 0x7f, 0x1b, 0x3a, 0x51, 0x22, 0x2b, 0xf4,
    0x41, 0x1a, 0x09, 0xce, 0xff, 0x1a, 0x45, 0x03, 0x26, 0x18, 0xf4, 0xea,
    0x1d, 0x4c, 0xea, 0xf2, 0xed, 0xff, 0x0e, 0x3f, 0x9e, 0xf6, 0x20, 0xf5,
    0x29, 0x45, 0x2c, 0xf9, 0x11, 0x13, 0x2e, 0x15, 0xd1, 0x2b, 0xc9, 0x13,
    0xf4, 0x23, 0xe6, 0x3d, 0x10, 0x0f, 0xed, 0x64, 0x56, 0x40, 0x57, 0xcb,
    0xe1, 0x14, 0x8f, 0x3b, 0x05, 0xe4, 0xb1, 0xcf, 0xca, 0x26, 0xe8, 0x00,
    0x3a, 0xa1, 0x49, 0x4f, 0x81, 0x9d, 0xf0, 0x99, 0xd4, 0xcc, 0xf4, 0xfe,
    0xa9, 0x4d, 0x16, 0x83, 0x0b, 0x98, 0x3f, 0x12, 0x93, 0x05, 0x85, 0x5d,
    0xb3, 0xf2, 0x43, 0x8f, 0x25, 0x7f, 0x42, 0x69, 0x54, 0x1d, 0x42, 0x13,
    0xfd, 0xe7, 0x00, 0xe4, 0x20, 0xfb, 0x2a, 0x03, 0xea, 0xe6, 0xa1, 0xb0,
    0x0d, 0x6f, 0x10, 0xee, 0xdb, 0xee, 0x25, 0x22, 0xdf, 0xe2, 0x11, 0x33,
    0x45, 0x5d, 0xf4, 0x1f, 0xdd, 0x42, 0x2b, 0x17, 0xef, 0xe8, 0xda, 0x01,
    0x28, 0x0d, 0xb1, 0x73, 0x19, 0x7f, 0x3d, 0x4e, 0x5d, 0x0f, 0x12, 0x2e,
    0x47, 0x2f, 0x23, 0xe9, 0x10, 0xf8, 0x25, 0x20, 0x32, 0xe8, 0xea, 0xe1,
    0xf0, 0x42, 0xf9, 0x10, 0x21, 0xef, 0x10, 0x38, 0x9e, 0x2a, 0x21, 0x09,
    0x2e, 0x52, 0xdd, 0x1e, 0xfa, 0xf6, 0x33, 0x33, 0xaf, 0x09, 0xdb, 0xf0,
    0xf9, 0x1c, 0xdf, 0x4e, 0x12, 0x7f, 0x0f, 0x4b, 0x1a, 0x0c, 0x4c, 0x1e,
    0x45, 0xe0, 0x00, 0xac, 0x07, 0x0f, 0x3d, 0xfb, 0xf4, 0xf2, 0xa9, 0xdf,
    0xe2, 0x4f, 0xfa, 0x0e, 0x00, 0x00, 0xf2, 0x42, 0xcf, 0x1d, 0x10, 0xd8,
    0x44, 0x42, 0x23, 0x08, 0x04, 0xf7, 0x1d, 0xf5, 0xdf, 0xff, 0xe8, 0x08,
    0x35, 0x19, 0x0e, 0x7b, 0xb5, 0xe0, 0xf7, 0xaf, 0x1f, 0x8b, 0x2f, 0x3e,
    0x66, 0x0a, 0x91, 0x5e, 0xd0, 0xac, 0x13, 0xdb, 0x9b, 0x3d, 0xd5, 0xb0,
    0x4a, 0x5f, 0x1f, 0xb1, 0xda, 0x81, 0x84, 0xf4, 0xe9, 0xe1, 0xe2, 0xa1,
    0x2a, 0x16, 0xd0, 0xc2, 0x93, 0x47, 0x2b, 0xff, 0xa8, 0x9b, 0xd1, 0x1c,
    0x24, 0x5a, 0x25, 0x94, 0x1c, 0xf9, 0xe4, 0x0e, 0x32, 0x27, 0xe6, 0xe6,
    0xcb, 0x20, 0xe8, 0x1a, 0x2b, 0xa5, 0xeb, 0xbb, 0xe3, 0x08, 0xe2, 0x02,
    0xb2, 0xea, 0x0d, 0xca, 0x81, 0x58, 0xc0, 0x44, 0x08, 0x41, 0xd3, 0x24,
    0xed, 0x3b, 0xd8, 0xfc, 0xce, 0x38, 0x14, 0x2d, 0x67, 0xdc, 0x1f, 0xf3,
    0xe2, 0xb6, 0xfe, 0x52, 0xfa, 0x7f, 0x2c, 0x38, 0x50, 0xe4, 0x21, 0x1c,
    0x0a, 0x13, 0xf6, 0xd1, 0x1b, 0x1c, 0xee, 0x1e, 0x17, 0x0c, 0xb3, 0xbf,
    0x16, 0x49, 0xfb, 0x10, 0xdd, 0xb9, 0x10, 0x03, 0xb6, 0xf3, 0x39, 0x18,
    0xf0, 0x7d, 0xd0, 0x13, 0x0a, 0xff, 0x25, 0x05, 0x0b, 0xdc, 0xf1, 0xe3,
    0xf3, 0x07, 0xcd, 0x64, 0x0d, 0x0b, 0x13, 0x15, 0xf2, 0x08, 0x38, 0xb3,
    0xf0, 0x26, 0x23, 0xdd, 0x16, 0x07, 0xf6, 0x08, 0x40, 0x63, 0xba, 0x86,
    0x19, 0x0c, 0x25, 0xf0, 0x38, 0x96, 0x04, 0xc1, 0x13, 0xca, 0xf7, 0x4b,
    0xe8, 0x27, 0x81, 0x17, 0xab, 0x63, 0xe8, 0xfd, 0x84, 0xb3, 0xf1, 0x2b,
    0x1e, 0xc1, 0x22, 0xf8, 0x11, 0x8a, 0x12, 0x65, 0x58, 0x21, 0xb2, 0x9a,
    0xa6, 0xf9, 0xaf, 0xe5, 0xc3, 0xef, 0x2d, 0x18, 0x8a, 0xfa, 0x1a, 0xc4,
    0xa6, 0x87, 0xb1, 0x31, 0x4a, 0xd3, 0x15, 0xc6, 0x97, 0x95, 0xde, 0xd0,
    0xae, 0x3e, 0x14, 0xf4, 0xdd, 0xe9, 0x81, 0xc0, 0xaf, 0xe1, 0x42, 0x98,
    0x5c, 0x43, 0x1e, 0x49, 0x3a, 0x7f, 0x11, 0x51, 0x71, 0x29, 0x32, 0x36,
    0x35, 0xe7, 0x2a, 0x08, 0x1a, 0xd6, 0x42, 0x1a, 0xf6, 0xe5, 0xc8, 0xc8,
    0x16, 0x56, 0x08, 0x09, 0xd6, 0x25, 0x24, 0x2a, 0xa0, 0x3e, 0x00, 0x11,
    0x4c, 0x39, 0xe8, 0x13, 0x03, 0x20, 0x1b, 0x0c, 0xd8, 0x19, 0xc3, 0xe6,
    0x19, 0xe9, 0xf7, 0x6b, 0x22, 0x7f, 0x46, 0x50, 0x61, 0x1e, 0x4d, 0x35,
    0x53, 0x10, 0x0a, 0xd9, 0xd4, 0x25, 0x05, 0x06, 0x25, 0xdf, 0xab, 0x06,
    0xe8, 0x4d, 0xfc, 0x12, 0x13, 0xf1, 0x18, 0x42, 0x82, 0x08, 0x0d, 0xfe,
    0x35, 0x51, 0xe1, 0x30, 0x08, 0xfb, 0xfd, 0x4a, 0xe5, 0x04, 0xec, 0x20,
    0x1a, 0x12, 0x00, 0x57, 0xea, 0x74, 0x3a, 0x5f, 0x62, 0x00, 0x00, 0x27,
    0x1c, 0x24, 0x10, 0xe9, 0xf4, 0x1a, 0x35, 0x04, 0x26, 0x20, 0x8b, 0x9b,
    0x1d, 0x7f, 0xf5, 0xfe, 0x0b, 0xd7, 0xff, 0x33, 0xc0, 0xfc, 0x46, 0x09,
    0x1c, 0x5c, 0xf2, 0xf0, 0xdb, 0x19, 0x0a, 0x2e, 0xdd, 0xef, 0xed, 0x0b,
    0x0c, 0xfa, 0xf6, 0x77, 0xd9, 0x27, 0x02, 0x02, 0x0e, 0x01, 0xcc, 0xb4,
    0xe1, 0x68, 0xdd, 0xe9, 0x3d, 0x19, 0x2c, 0x38, 0x58, 0x12, 0xc5, 0xba,
    0x59, 0x1e, 0x1b, 0x0b, 0x24, 0x81, 0xff, 0xf6, 0x1e, 0x88, 0x20, 0x15,
    0x23, 0x11, 0x96, 0x27, 0xdf, 0x6a, 0xf5, 0xf5, 0xaa, 0xe7, 0x39, 0x1c,
    0xd5, 0xbb, 0xdc, 0x96, 0xc6, 0x4e, 0x82, 0xd1, 0x86, 0x8b, 0x0d, 0xf8,
    0x5b, 0xff, 0xc6, 0xea, 0xe3, 0xe3, 0x81, 0x60, 0x64, 0x82, 0x8f, 0x9b,
    0x54, 0x8f, 0x64, 0x07, 0x85, 0xae, 0xa5, 0xd9, 0x8b, 0xd6, 0xcc, 0x3e,
    0x33, 0x49, 0x4b, 0x4d, 0x57, 0x90, 0x4a, 0x96, 0xb2, 0x9a, 0xa4, 0x5a,
    0x93, 0x1e, 0xfd, 0xc5, 0xc2, 0xe1, 0xa6, 0xbb, 0xbe, 0x04, 0x91, 0x13,
    0x4f, 0xe4, 0xfd, 0xdb, 0xc1, 0x43, 0x19, 0x00, 0xfc, 0x8e, 0x9b, 0x2a,
    0xec, 0x46, 0x08, 0x0f, 0xa0, 0x9d, 0x81, 0x3d, 0x0a, 0x52, 0x4c, 0x31,
    0x30, 0xc3, 0x9d, 0x2f, 0xd9, 0xc0, 0x98, 0x03, 0x9e, 0x3d, 0x1a, 0x5e,
    0xd2, 0xf6, 0xeb, 0xfe, 0x5b, 0xd6, 0x6b, 0x90, 0xcd, 0x07, 0x5a, 0xb0,
    0x54, 0x13, 0x81, 0x58, 0xea, 0x5d, 0x16, 0x05, 0x88, 0x97, 0xb2, 0xf0,
    0xd7, 0x20, 0x97, 0x89, 0x26, 0xc9, 0x4e, 0xc9, 0x91, 0x3b, 0xbe, 0x96,
    0x90, 0x0d, 0x43, 0xb7, 0x8b, 0x73, 0xa2, 0x3e, 0x8d, 0x82, 0x5a, 0x67,
    0xa2, 0xe3, 0xc6, 0x8a, 0x06, 0x7f, 0x31, 0x1c, 0x1d, 0x24, 0x33, 0x23,
    0x1e, 0xfd, 0x0f, 0xf4, 0x11, 0x1c, 0x26, 0xf0, 0x08, 0xfd, 0xc5, 0xe4,
    0x1d, 0x52, 0xf8, 0x0e, 0x07, 0xed, 0x28, 0x24, 0xa8, 0x10, 0x00, 0x01,
    0x31, 0x3a, 0x17, 0xe2, 0xf3, 0xf2, 0xff, 0x19, 0xdc, 0xf9, 0xda, 0x02,
    0x0a, 0x0e, 0xf8, 0x35, 0x00, 0x82, 0xbf, 0xd5, 0x1d, 0xa2, 0x5f, 0x97,
    0x1c, 0xe6, 0x42, 0x1c, 0x01, 0xc2, 0xd9, 0xf2, 0x05, 0x99, 0x27, 0xe6,
    0x8e, 0x15, 0x1a, 0xc9, 0x4d, 0x87, 0xc0, 0xcd, 0x89, 0xbd, 0xbc, 0x21,
    0x5d, 0x0b, 0x0d, 0xb5, 0xfd, 0xba, 0x20, 0xcf, 0x11, 0x3d, 0x34, 0x61,
    0xae, 0x81, 0x27, 0xb9, 0x36, 0xdb, 0x8d, 0xe8, 0x43, 0x57, 0x07, 0xbf,
    0xe6, 0xca, 0x46, 0xb6, 0x38, 0x12, 0x18, 0x7f, 0x29, 0x61, 0xb2, 0xb7,
    0x5e, 0x4b, 0x2c, 0xe5, 0x54, 0x92, 0xdc, 0xf4, 0xc8, 0xad, 0xf4, 0xcf,
    0xd9, 0x2b, 0x94, 0x36, 0xf1, 0x21, 0xf0, 0xf2, 0x4e, 0xf9, 0x29, 0xc1,
    0xb7, 0x32, 0x1d, 0xc3, 0x01, 0xa5, 0x81, 0xf2, 0x31, 0xcd, 0x69, 0x20,
    0xce, 0xee, 0xd1, 0xf3, 0x38, 0xbb, 0x4d, 0x47, 0xa4, 0x2f, 0x9b, 0xe4,
    0x27, 0xf7, 0x8b, 0x9e, 0x84, 0x9f, 0x9d, 0x26, 0x9a, 0xc0, 0xf7, 0x5c,
    0x90, 0xd9, 0xe5, 0xc9, 0x57, 0x9f, 0xfb, 0xa2, 0xde, 0xf1, 0x8a, 0x74,
    0xd5, 0x26, 0x37, 0x0d, 0x1e, 0x1b, 0xd6, 0x0d, 0x1f, 0xc7, 0xa6, 0x15,
    0xd5, 0x1c, 0xe4, 0x35, 0x28, 0xf0, 0x23, 0xd3, 0xca, 0xcb, 0x64, 0x04,
    0x89, 0x17, 0xd7, 0x3b, 0xb8, 0x4f, 0xe3, 0x1a, 0xe5, 0x19, 0xac, 0x4a,
    0x07, 0xd0, 0xd7, 0x3d, 0x82, 0x6f, 0x17, 0x1f, 0x3f, 0x2a, 0x81, 0xfe,
    0xe6, 0xdb, 0x0e, 0x12, 0xb5, 0x24, 0x2b, 0x4d, 0x1e, 0x99, 0x02, 0xf3,
    0xe7, 0xcf, 0xe2, 0x2b, 0xcf, 0xc4, 0xeb, 0xcc, 0x56, 0x30, 0xef, 0x81,
    0xbe, 0x1e, 0x46, 0xe9, 0xc4, 0x11, 0xe3, 0x13, 0xff, 0x24, 0xf1, 0x3c,
    0xcc, 0x2e, 0x1f, 0xf2, 0xa5, 0x21, 0xe9, 0xed, 0x64, 0xf3, 0x2e, 0xeb,
    0xc4, 0xdc, 0x97, 0x22, 0x04, 0x4c, 0xa5, 0x2d, 0x25, 0xed, 0x21, 0xe4,
    0xf8, 0x0b, 0x27, 0x49, 0xd7, 0x30, 0xf2, 0xea, 0xc9, 0x20, 0x25, 0x13,
    0x7f, 0xc8, 0x25, 0xa0, 0x0c, 0xc2, 0xb7, 0xa5, 0xfc, 0xa4, 0x3c, 0xc9,
    0x01, 0xd8, 0x21, 0xd5, 0x08, 0xac, 0xef, 0xc5, 0xe6, 0xa4, 0xe9, 0x1e,
    0x4e, 0x17, 0xb5, 0x21, 0xb3, 0x01, 0x96, 0xd7, 0x28, 0xdb, 0x0a, 0x05,
    0xfa, 0x81, 0xd1, 0x1e, 0xbb, 0xcd, 0xd5, 0x9b, 0x23, 0x0f, 0x2e, 0xa7,
    0xa6, 0xd4, 0x6c, 0x99, 0xff, 0x07, 0x25, 0x18, 0x04, 0x19, 0xcc, 0x72,
    0xc6, 0x03, 0x33, 0x0c, 0xc8, 0xe3, 0x0f, 0x4b, 0x38, 0xe1, 0x4d, 0x00,
    0xf6, 0xab, 0x0a, 0xfc, 0x0d, 0xf4, 0x4b, 0xcf, 0x3c, 0x90, 0xa5, 0xcb,
    0x3b, 0x94, 0x05, 0x00, 0xbc, 0xc6, 0x9b, 0xe5, 0x81, 0xb6, 0xeb, 0xb1,
    0xe3, 0x91, 0xb9, 0xa9, 0x43, 0x51, 0x01, 0x01, 0xf3, 0xf1, 0x92, 0x70,
    0xa6, 0x1b, 0xd1, 0xea, 0xc0, 0xc8, 0x67, 0xca, 0xb2, 0x44, 0x09, 0x4a,
    0xc5, 0xb7, 0x05, 0xbc, 0xbb, 0x09, 0x57, 0xaf, 0x4b, 0x97, 0x42, 0x35,
    0x10, 0x10, 0x41, 0x64, 0xa3, 0xa7, 0xde, 0xb0, 0x33, 0x44, 0xf8, 0x9b,
    0xfd, 0x81, 0x63, 0xba, 0x9f, 0x2b, 0xa5, 0x0c, 0xdf, 0x37, 0xab, 0x27,
    0x40, 0xf1, 0x3c, 0x97, 0x27, 0x2f, 0x6e, 0xc1, 0x1f, 0xd7, 0xe6, 0xa8,
    0xce, 0x13, 0xb5, 0x24, 0xe7, 0x83, 0xf7, 0x3a, 0x5f, 0xb9, 0xcd, 0xcc,
    0x02, 0x06, 0xa0, 0x4c, 0x9a, 0x89, 0x83, 0x03, 0x93, 0xbb, 0xe3, 0xad,
    0xdc, 0x26, 0xc4, 0xfd, 0x41, 0x09, 0xdf, 0x39, 0x37, 0xc9, 0x56, 0x0f,
    0x81, 0xcc, 0xab, 0x4b, 0xc6, 0xd0, 0x5d, 0xb7, 0x51, 0x8c, 0xcc, 0x3d,
    0xde, 0xf3, 0xf4, 0xaf, 0xc3, 0xff, 0x29, 0x48, 0xf9, 0xa5, 0xf1, 0xde,
    0xde, 0xd4, 0xd8, 0x22, 0xee, 0xe5, 0xe6, 0xd4, 0x71, 0x60, 0x02, 0xc6,
    0xe7, 0x1a, 0x7f, 0xc5, 0xce, 0xef, 0xd2, 0xfb, 0xf3, 0x07, 0xe4, 0x43,
    0xf2, 0xe9, 0x41, 0xad, 0xcc, 0x37, 0xb2, 0xf0, 0x49, 0xfb, 0x35, 0xf9,
    0x97, 0xb9, 0x9a, 0x12, 0x14, 0x31, 0xd1, 0x2f, 0x49, 0xce, 0xe8, 0x9e,
    0x23, 0xd6, 0x20, 0xa7, 0x0f, 0xf9, 0xfc, 0x26, 0xd1, 0x34, 0xee, 0x1a,
    0x30, 0x25, 0x56, 0x81, 0x91, 0xbc, 0x38, 0xab, 0x4d, 0xeb, 0x23, 0xed,
    0x8c, 0x3a, 0x15, 0xec, 0x48, 0xb5, 0x94, 0xe7, 0x18, 0xb0, 0xa8, 0xfa,
    0x45, 0xe8, 0x96, 0xba, 0xdc, 0xcc, 0xb2, 0x3d, 0xfe, 0x13, 0xbf, 0xe0,
    0x81, 0x31, 0xc7, 0xbb, 0x98, 0xaf, 0xaa, 0x87, 0x15, 0xe5, 0x2b, 0x28,
    0xf5, 0xa4, 0x97, 0x22, 0x16, 0xda, 0xdc, 0xa8, 0x89, 0x0f, 0x37, 0x1e,
    0x99, 0xa2, 0x45, 0xa7, 0x31, 0x37, 0x33, 0xa5, 0xed, 0xa7, 0xbe, 0x4b,
    0xad, 0xe3, 0x37, 0x42, 0xba, 0x25, 0x50, 0xdd, 0x93, 0x3a, 0x04, 0x4c,
    0x43, 0x1b, 0x21, 0x35, 0x9c, 0xd1, 0x81, 0xb2, 0xb9, 0x3a, 0xd5, 0x08,
    0xd2, 0xe8, 0x3c, 0xfa, 0x47, 0xef, 0xde, 0x37, 0x8c, 0x3f, 0x2d, 0xce,
    0x6b, 0x98, 0x95, 0x91, 0x23, 0xae, 0x21, 0x91, 0xb5, 0xc0, 0x0d, 0xe0,
    0x13, 0x91, 0x63, 0xb0, 0xf5, 0x6d, 0x19, 0x40, 0x56, 0x01, 0x38, 0xfe,
    0x0a, 0x33, 0xee, 0xf1, 0xf7, 0x23, 0x2b, 0x38, 0x08, 0x01, 0xc3, 0x82,
    0x0a, 0x7f, 0x26, 0xf8, 0x1a, 0xa5, 0x16, 0x3a, 0xbe, 0xb8, 0x49, 0x32,
    0x32, 0x6c, 0xfb, 0x43, 0xf5, 0x54, 0x07, 0x38, 0xac, 0xc1, 0xe6, 0x0a,
    0x07, 0x23, 0xca, 0x7c, 0x02, 0x5a, 0x94, 0x14, 0xae, 0xd3, 0x75, 0xb4,
    0xee, 0x28, 0x0a, 0xd6, 0x14, 0x9d, 0x81, 0xc6, 0x4b, 0xff, 0x6c, 0xfb,
    0xb1, 0x0b, 0x41, 0x18, 0x3f, 0xa5, 0xe7, 0x08, 0x25, 0xdb, 0x05, 0xa8,
    0x4d, 0xf3, 0xca, 0xd0, 0xaa, 0x5a, 0xec, 0xa5, 0xe6, 0x96, 0x30, 0xe8,
    0xb2, 0xde, 0x31, 0x00, 0x04, 0xff, 0x01, 0xf2, 0x05, 0x0d, 0xd7, 0x2a,
    0xdc, 0x08, 0xe2, 0x01, 0x2d, 0xbb, 0x20, 0x04, 0xe6, 0xae, 0x22, 0x81,
    0x01, 0xc8, 0xde, 0x01, 0xff, 0x2c, 0xdf, 0x05, 0x4a, 0x48, 0xa8, 0x1f,
    0xe8, 0xfe, 0x18, 0x28, 0xbf, 0x40, 0x11, 0x29, 0x39, 0x0a, 0xe7, 0x00,
    0xd2, 0xd7, 0xdb, 0x1c, 0x1a, 0x52, 0x3a, 0x48, 0x81, 0x1d, 0x15, 0x2b,
    0x15, 0x9b, 0xa0, 0x30, 0x3e, 0x8a, 0x93, 0xa7, 0xf6, 0x19, 0x9d, 0x44,
    0xa4, 0x90, 0x09, 0xa1, 0x2d, 0xf1, 0x92, 0xd9, 0x96, 0x83, 0x34, 0x43,
    0xec, 0xef, 0xd2, 0xf1, 0x98, 0x44, 0xc0, 0xe8, 0x07, 0xa6, 0x99, 0x97,
    0xf1, 0xd3, 0xf4, 0x31, 0x05, 0xd0, 0xff, 0x10, 0xe4, 0xc4, 0xae, 0xe0,
    0xdb, 0xae, 0x0c, 0xe2, 0xe1, 0xe5, 0xeb, 0xfa, 0x71, 0x45, 0xe2, 0xd8,
    0xda, 0xe5, 0x7f, 0xdb, 0xd1, 0x21, 0xd1, 0xf3, 0x31, 0x10, 0xf3, 0x4e,
    0x15, 0xe9, 0x14, 0xfa, 0xc0, 0xef, 0xed, 0x17, 0x51, 0xeb, 0x3b, 0x0f,
    0xc8, 0xfc, 0xc0, 0x0f, 0x2a, 0x7f, 0x11, 0x3a, 0x32, 0x19, 0x14, 0x11,
    0x27, 0x04, 0xf1, 0x16, 0xea, 0xe8, 0x2c, 0x20, 0x18, 0xdb, 0xe8, 0xdf,
    0xf2, 0x34, 0xef, 0x0e, 0xf9, 0x27, 0x2d, 0x27, 0xe5, 0x0c, 0xdb, 0x06,
    0x21, 0x42, 0x19, 0xf7, 0x1b, 0x20, 0x0e, 0x1d, 0x0d, 0x1e, 0xcb, 0x1b,
    0x1a, 0x15, 0xfe, 0x3e, 0x22, 0x65, 0xf4, 0x05, 0x08, 0x81, 0xbf, 0x3a,
    0x31, 0x91, 0xc9, 0x76, 0x13, 0x88, 0x52, 0x87, 0xb9, 0xc5, 0x25, 0xd8,
    0xa7, 0xcc, 0x75, 0xc5, 0xb0, 0xc0, 0xd1, 0xde, 0xcb, 0xd3, 0xcc, 0xba,
    0x09, 0x29, 0x6c, 0xc7, 0xe6, 0x28, 0xdb, 0x0d, 0x2e, 0xfe, 0xbb, 0x22,
    0xae, 0x09, 0x21, 0x53, 0x9e, 0xe3, 0xb3, 0x9c, 0x24, 0x22, 0xcf, 0xe8,
    0xd1, 0xbf, 0x16, 0xe5, 0x81, 0xf1, 0xad, 0x23, 0x8c, 0x30, 0x19, 0x96,
    0xd6, 0x1d, 0x03, 0xdf, 0x9f, 0xbd, 0x22, 0x04, 0xe3, 0x9e, 0x20, 0x34,
    0x1d, 0x37, 0x30, 0xd4, 0xb8, 0xe9, 0xe3, 0x92, 0x1e, 0x01, 0x28, 0x43,
    0x2b, 0x95, 0xcf, 0x5c, 0x01, 0x0a, 0x3b, 0x0a, 0x31, 0x84, 0x53, 0x90,
    0x81, 0x87, 0x39, 0xcd, 0x37, 0x93, 0x29, 0x45, 0xd8, 0x34, 0xb6, 0x30,
    0x36, 0xf5, 0xf6, 0xbe, 0x1c, 0x39, 0xa3, 0x43, 0x5a, 0x92, 0x86, 0xaa,
    0x17, 0x38, 0x8e, 0x9c, 0x93, 0xd4, 0xc4, 0x36, 0x84, 0xfe, 0x88, 0xf7,
    0x69, 0x54, 0xfe, 0xb0, 0x39, 0x1d, 0x1a, 0xec, 0x3a, 0x16, 0xeb, 0x10,
    0xc8, 0x25, 0xd8, 0xbd, 0x02, 0xb2, 0xd1, 0x1e, 0xf8, 0x8f, 0x5e, 0x07,
    0xb6, 0x3e, 0xf0, 0xfb, 0xd1, 0x49, 0xff, 0x1b, 0xf6, 0x42, 0xb3, 0x4a,
    0x2a, 0xe6, 0xeb, 0x23, 0x81, 0x6c, 0x30, 0xf6, 0x30, 0x22, 0xca, 0x2d,
    0xe8, 0xe8, 0x0f, 0x4a, 0x8e, 0x4b, 0xca, 0xa5, 0xc6, 0x96, 0x3c, 0x19,
    0x9b, 0xca, 0x97, 0xc5, 0x4c, 0xe7, 0xac, 0x82, 0xea, 0xcd, 0x11, 0x1d,
    0x8b, 0xd4, 0x0b, 0x95, 0x08, 0xd0, 0xeb, 0x6a, 0x6d, 0xc1, 0xc9, 0x20,
    0xc3, 0x42, 0x22, 0xe6, 0xcb, 0xad, 0xa0, 0xdf, 0xcb, 0xfd, 0xe4, 0x81,
    0x0e, 0x2c, 0xf3, 0xce, 0x36, 0x1e, 0x8e, 0xbf, 0x12, 0x99, 0xdd, 0x11,
    0xac, 0x91, 0x42, 0xc5, 0xe0, 0xd2, 0xf7, 0x18, 0x2b, 0xa7, 0x0b, 0xcc,
    0x0d, 0x44, 0x33, 0xb3, 0xfb, 0x49, 0x9e, 0xe8, 0xb3, 0xe5, 0x35, 0xdb,
    0x81, 0xb0, 0xa0, 0xef, 0x94, 0xae, 0x36, 0xf6, 0x46, 0xad, 0xc9, 0xad,
    0xc5, 0x29, 0xee, 0xd9, 0x1b, 0xb1, 0xc3, 0x00, 0xa5, 0x34, 0x81, 0x3e,
    0x41, 0xd4, 0x37, 0xdd, 0xfc, 0xae, 0x40, 0x1d, 0xdc, 0xe7, 0xb0, 0xf7,
    0x0f, 0xf5, 0x0b, 0x25, 0xc1, 0xae, 0x25, 0x2f, 0x1b, 0xfe, 0xa5, 0x00,
    0xdf, 0x2c, 0xc8, 0xd5, 0x4c, 0x17, 0x1e, 0xc9, 0x04, 0x03, 0x55, 0xb4,
    0xf4, 0x9f, 0x15, 0x58, 0xbc, 0x9f, 0x81, 0xb1, 0xaa, 0x17, 0xb2, 0x1a,
    0x1c, 0xbf, 0x90, 0x11, 0x09, 0xbc, 0x0c, 0x04, 0xe1, 0xeb, 0x48, 0xa8,
    0x68, 0x42, 0xe5, 0xde, 0xb2, 0xae, 0xe0, 0x12, 0xc3, 0xfa, 0x9d, 0xfa,
    0x58, 0xef, 0xbb, 0xa1, 0xd2, 0xc8, 0xba, 0x95, 0x2d, 0x03, 0x48, 0x3e,
    0x26, 0x63, 0x23, 0x62, 0x0b, 0x7f, 0x08, 0x57, 0x34, 0x1d, 0xff, 0xfa,
    0x53, 0x25, 0x19, 0xc6, 0x06, 0xfc, 0x36, 0x26, 0x17, 0xf9, 0xe5, 0x1a,
    0x09, 0x4b, 0x1c, 0x12, 0x1c, 0xfe, 0x25, 0x25, 0xad, 0xef, 0xf1, 0xcf,
    0x0e, 0x25, 0x0a, 0x08, 0x12, 0x12, 0x1a, 0xfc, 0xf2, 0x30, 0xd4, 0xe6,
    0x0a, 0x0a, 0xdb, 0x55, 0x81, 0xa7, 0x2a, 0x5a, 0x4f, 0x42, 0x8c, 0xe2,
    0xc8, 0x4c, 0xfe, 0x90, 0xcb, 0xd3, 0xa0, 0x3b, 0x0c, 0x85, 0x52, 0xe2,
    0x65, 0xb2, 0x32, 0xa7, 0xce, 0xa0, 0x14, 0xb3, 0x5f, 0xff, 0x16, 0xa2,
    0xf3, 0x8e, 0xa7, 0x9e, 0xb7, 0x26, 0xa6, 0xb4, 0xe1, 0xdc, 0x30, 0x21,
    0x94, 0xf2, 0xf9, 0xbc, 0xdd, 0xbd, 0x03, 0x00, 0x09, 0x35, 0xb9, 0xfa,
    0xda, 0xfe, 0x81, 0xce, 0x12, 0xc7, 0xf2, 0xe7, 0xe3, 0xa2, 0x0d, 0x31,
    0xc1, 0xef, 0xeb, 0x0b, 0x8c, 0x4e, 0xd3, 0x0e, 0xf3, 0xf2, 0xd9, 0x33,
    0x4d, 0x34, 0x13, 0xf0, 0x97, 0x57, 0x0f, 0x08, 0x06, 0x3e, 0xf6, 0xf6,
    0x43, 0x12, 0x2f, 0x51, 0xf5, 0xce, 0xd5, 0x94, 0x35, 0x0d, 0xd8, 0xdf,
    0x89, 0x41, 0xc8, 0x2a, 0x11, 0x37, 0x00, 0x56, 0x33, 0x29, 0xcc, 0xcc,
    0x7f, 0xfd, 0x45, 0x1c, 0x3f, 0xf4, 0xd5, 0xe4, 0x32, 0xa4, 0xdb, 0x09,
    0xc6, 0xe2, 0x86, 0x38, 0x10, 0x3f, 0xc4, 0xad, 0xda, 0x92, 0x31, 0xdc,
    0xb8, 0x05, 0x24, 0xcb, 0xb3, 0x07, 0x37, 0x33, 0x48, 0xed, 0xfa, 0xac,
    0xbc, 0x27, 0x86, 0xf7, 0x1b, 0x05, 0x05, 0x26, 0x59, 0x1e, 0xc9, 0xbe,
    0x10, 0x19, 0x46, 0x36, 0xff, 0xc6, 0x45, 0x41, 0x2c, 0xd2, 0xcc, 0x5e,
    0x17, 0x77, 0x81, 0xe2, 0x9e, 0x0c, 0xb2, 0xda, 0x8e, 0xa5, 0x65, 0xdb,
    0x8a, 0xc8, 0xfe, 0x72, 0x63, 0x3f, 0xe0, 0xbe, 0x3c, 0x02, 0x12, 0x58,
    0xe5, 0xfc, 0xcd, 0xdb, 0x3b, 0x8b, 0x59, 0x15, 0xe2, 0xea, 0x29, 0xd4,
    0xde, 0x25, 0xfe, 0x00, 0xa6, 0x05, 0xdd, 0x10, 0xea, 0x62, 0x81, 0x24,
    0x38, 0x02, 0x1a, 0x3d, 0x8f, 0x70, 0x08, 0x40, 0x17, 0x49, 0x93, 0xc0,
    0x39, 0xbd, 0x33, 0x73, 0x19, 0x15, 0xd2, 0x83, 0x22, 0x04, 0x43, 0xeb,
    0x1d, 0x2f, 0x0c, 0xcd, 0xca, 0x81, 0xcc, 0xdf, 0xdc, 0x22, 0xf8, 0xfd,
    0xb2, 0x94, 0xdb, 0x89, 0xd1, 0x3a, 0xca, 0x32, 0x11, 0x2d, 0x27, 0x97,
    0x1e, 0x9c, 0x07, 0xf5, 0x2e, 0xdc, 0x37, 0x17, 0xce, 0xab, 0x20, 0x14,
    0xf0, 0xd1, 0x0f, 0x3e, 0x3a, 0xfe, 0xff, 0xff, 0x04, 0x00, 0x00, 0x00,
    0x00, 0x01, 0x00, 0x00, 0x07, 0x06, 0x00, 0x00, 0xeb, 0xef, 0xff, 0xff,
    0x8b, 0xf7, 0xff, 0xff, 0x34, 0x08, 0x00, 0x00, 0xa9, 0xf2, 0xff, 0xff,
    0xcf, 0xf8, 0xff, 0xff, 0x95, 0xed, 0xff, 0xff, 0x96, 0x02, 0x00, 0x00,
    0xcf, 0xf5, 0xff, 0xff, 0xf9, 0xf9, 0xff, 0xff, 0x18, 0x05, 0x00, 0x00,
    0x70, 0xf3, 0xff, 0xff, 0x6a, 0xf9, 0xff, 0xff, 0xd7, 0xed, 0xff, 0xff,
    0xa5, 0xf3, 0xff, 0xff, 0xa8, 0xf5, 0xff, 0xff, 0x4a, 0xf4, 0xff, 0xff,
    0x6a, 0x01, 0x00, 0x00, 0x7e, 0xf6, 0xff, 0xff, 0x5a, 0x0a, 0x00, 0x00,
    0xd8, 0xf6, 0xff, 0xff, 0x35, 0xf4, 0xff, 0xff, 0x99, 0xf4, 0xff, 0xff,
    0xfa, 0xf2, 0xff, 0xff, 0x8e, 0x04, 0x00, 0x00, 0x01, 0xf5, 0xff, 0xff,
    0xe1, 0xef, 0xff, 0xff, 0x42, 0xfb, 0xff, 0xff, 0xd6, 0xf7, 0xff, 0xff,
    0xfa, 0xef, 0xff, 0xff, 0x72, 0x02, 0x00, 0x00, 0x67, 0xf1, 0xff, 0xff,
    0x81, 0x09, 0x00, 0x00, 0x6e, 0x04, 0x00, 0x00, 0xde, 0x00, 0x00, 0x00,
    0x8d, 0x05, 0x00, 0x00, 0xd1, 0xfd, 0xff, 0xff, 0x46, 0x03, 0x00, 0x00,
    0xee, 0xf5, 0xff, 0xff, 0x33, 0x0b, 0x00, 0x00, 0x5a, 0xeb, 0xff, 0xff,
    0x00, 0xf3, 0xff, 0xff, 0xf7, 0xf8, 0xff, 0xff, 0xab, 0xf2, 0xff, 0xff,
    0x81, 0xf5, 0xff, 0xff, 0xd8, 0x04, 0x00, 0x00, 0xdb, 0xf0, 0xff, 0xff,
    0xb2, 0x06, 0x00, 0x00, 0x64, 0xf7, 0xff, 0xff, 0x0d, 0xfa, 0xff, 0xff,
    0x32, 0xee, 0xff, 0xff, 0xf9, 0xf8, 0xff, 0xff, 0x1c, 0x00, 0x00, 0x00,
    0x6b, 0xf5, 0xff, 0xff, 0x24, 0xf5, 0xff, 0xff, 0x76, 0xec, 0xff, 0xff,
    0x82, 0xed, 0xff, 0xff, 0x09, 0xf9, 0xff, 0xff, 0xc1, 0xf6, 0xff, 0xff,
    0xde, 0xfd, 0xff, 0xff, 0x18, 0x02, 0x00, 0x00, 0xbc, 0x06, 0x00, 0x00,
    0x94, 0xfc, 0xff, 0xff, 0x10, 0xef, 0xff, 0xff, 0x46, 0xff, 0xff, 0xff,
    0x04, 0x00, 0x00, 0x00, 0x40, 0x00, 0x00, 0x00, 0x52, 0x47, 0x41, 0x2d,
    0x40, 0xf0, 0x03, 0x08, 0xe0, 0xfe, 0xde, 0x01, 0xde, 0x01, 0x01, 0xfd,
    0xcb, 0xc4, 0x06, 0x5f, 0x44, 0xfc, 0x01, 0x02, 0x4d, 0xc5, 0x2e, 0x3f,
    0x01, 0xdb, 0x26, 0xee, 0x9f, 0xf7, 0x36, 0xea, 0x41, 0x02, 0x37, 0x0d,
    0xe1, 0x48, 0xc7, 0x08, 0xb6, 0x81, 0x1c, 0xfd, 0xfb, 0x67, 0x1c, 0x18,
    0xba, 0xd7, 0x10, 0xc8, 0x11, 0x00, 0x42, 0xd2, 0x3d, 0x5b, 0xd2, 0xde,
    0x92, 0xff, 0xff, 0xff, 0x04, 0x00, 0x00, 0x00, 0x04, 0x00, 0x00, 0x00,
    0xd7, 0xfe, 0xff, 0xff, 0xa2, 0xff, 0xff, 0xff, 0x04, 0x00, 0x00, 0x00,
    0x40, 0x00, 0x00, 0x00, 0xf3, 0xfb, 0xef, 0x09, 0xea, 0xf8, 0xfd, 0xb9,
    0xed, 0x1e, 0xd8, 0x24, 0xfb, 0x67, 0x24, 0x2b, 0xf9, 0xcf, 0x3c, 0xfb,
    0xf9, 0x39, 0x23, 0x58, 0x0d, 0xf8, 0xf9, 0xf9, 0x2a, 0xe8, 0x09, 0x09,
    0x0e, 0x81, 0x0f, 0xb3, 0xf0, 0xe2, 0xea, 0xb3, 0xf2, 0xf7, 0x07, 0x2f,
    0x00, 0xdd, 0xef, 0xc2, 0x3c, 0xf4, 0xfb, 0xe5, 0x18, 0x18, 0xf1, 0xf7,
    0x0b, 0x2a, 0xf2, 0x16, 0x00, 0xaf, 0x27, 0xf9, 0xee, 0xff, 0xff, 0xff,
    0x04, 0x00, 0x00, 0x00, 0x04, 0x00, 0x00, 0x00, 0x33, 0x21, 0x00, 0x00,
    0x00, 0x00, 0x06, 0x00, 0x08, 0x00, 0x04, 0x00, 0x06, 0x00, 0x00, 0x00,
    0x04, 0x00, 0x00, 0x00, 0x08, 0x00, 0x00, 0x00, 0x01, 0x00, 0x00, 0x00,
    0x02, 0x00, 0x00, 0x00, 0xe8, 0xcc, 0xff, 0xff, 0xec, 0xcc, 0xff, 0xff,
    0x0f, 0x00, 0x00, 0x00, 0x4d, 0x4c, 0x49, 0x52, 0x20, 0x43, 0x6f, 0x6e,
    0x76, 0x65, 0x72, 0x74, 0x65, 0x64, 0x2e, 0x00, 0x01, 0x00, 0x00, 0x00,
    0x14, 0x00, 0x00, 0x00, 0x00, 0x00, 0x0e, 0x00, 0x18, 0x00, 0x14, 0x00,
    0x10, 0x00, 0x0c, 0x00, 0x08, 0x00, 0x04, 0x00, 0x0e, 0x00, 0x00, 0x00,
    0x14, 0x00, 0x00, 0x00, 0x1c, 0x00, 0x00, 0x00, 0x38, 0x04, 0x00, 0x00,
    0x40, 0x04, 0x00, 0x00, 0x44, 0x04, 0x00, 0x00, 0x04, 0x00, 0x00, 0x00,
    0x6d, 0x61, 0x69, 0x6e, 0x00, 0x00, 0x00, 0x00, 0x10, 0x00, 0x00, 0x00,
    0xd4, 0x03, 0x00, 0x00, 0x74, 0x03, 0x00, 0x00, 0x14, 0x03, 0x00, 0x00,
    0xd0, 0x02, 0x00, 0x00, 0x8c, 0x02, 0x00, 0x00, 0x48, 0x02, 0x00, 0x00,
    0x04, 0x02, 0x00, 0x00, 0xb8, 0x01, 0x00, 0x00, 0x84, 0x01, 0x00, 0x00,
    0x44, 0x01, 0x00, 0x00, 0x10, 0x01, 0x00, 0x00, 0xcc, 0x00, 0x00, 0x00,
    0x84, 0x00, 0x00, 0x00, 0x60, 0x00, 0x00, 0x00, 0x28, 0x00, 0x00, 0x00,
    0x04, 0x00, 0x00, 0x00, 0xa6, 0xfe, 0xff, 0xff, 0x0c, 0x00, 0x00, 0x00,
    0x10, 0x00, 0x00, 0x00, 0x02, 0x00, 0x00, 0x00, 0x01, 0x00, 0x00, 0x00,
    0x27, 0x00, 0x00, 0x00, 0x01, 0x00, 0x00, 0x00, 0x26, 0x00, 0x00, 0x00,
    0xf6, 0xfc, 0xff, 0xff, 0x14, 0x00, 0x00, 0x00, 0x00, 0x00, 0x00, 0x08,
    0x10, 0x00, 0x00, 0x00, 0x14, 0x00, 0x00, 0x00, 0x05, 0x00, 0x00, 0x00,
    0xbc, 0xcd, 0xff, 0xff, 0x01, 0x00, 0x00, 0x00, 0x26, 0x00, 0x00, 0x00,
    0x03, 0x00, 0x00, 0x00, 0x23, 0x00, 0x00, 0x00, 0x03, 0x00, 0x00, 0x00,
    0x02, 0x00, 0x00, 0x00, 0xfa, 0xfe, 0xff, 0xff, 0x0c, 0x00, 0x00, 0x00,
    0x10, 0x00, 0x00, 0x00, 0x06, 0x00, 0x00, 0x00, 0x01, 0x00, 0x00, 0x00,
    0x25, 0x00, 0x00, 0x00, 0x01, 0x00, 0x00, 0x00, 0x24, 0x00, 0x00, 0x00,
    0x4a, 0xfd, 0xff, 0xff, 0x14, 0x00, 0x00, 0x00, 0x00, 0x00, 0x00, 0x08,
    0x10, 0x00, 0x00, 0x00, 0x14, 0x00, 0x00, 0x00, 0x05, 0x00, 0x00, 0x00,
    0x10, 0xce, 0xff, 0xff, 0x01, 0x00, 0x00, 0x00, 0x24, 0x00, 0x00, 0x00,
    0x03, 0x00, 0x00, 0x00, 0x23, 0x00, 0x00, 0x00, 0x05, 0x00, 0x00, 0x00,
    0x04, 0x00, 0x00, 0x00, 0x00, 0x00, 0x0e, 0x00, 0x1a, 0x00, 0x14, 0x00,
    0x10, 0x00, 0x0c, 0x00, 0x0b, 0x00, 0x04, 0x00, 0x0e, 0x00, 0x00, 0x00,
    0x1c, 0x00, 0x00, 0x00, 0x00, 0x00, 0x00, 0x08, 0x1c, 0x00, 0x00, 0x00,
    0x20, 0x00, 0x00, 0x00, 0x05, 0x00, 0x00, 0x00, 0x00, 0x00, 0x06, 0x00,
    0x08, 0x00, 0x07, 0x00, 0x06, 0x00, 0x00, 0x00, 0x00, 0x00, 0x00, 0x03,
    0x01, 0x00, 0x00, 0x00, 0x23, 0x00, 0x00, 0x00, 0x03, 0x00, 0x00, 0x00,
    0x22, 0x00, 0x00, 0x00, 0x07, 0x00, 0x00, 0x00, 0x06, 0x00, 0x00, 0x00,
    0xce, 0xfd, 0xff, 0xff, 0x14, 0x00, 0x00, 0x00, 0x00, 0x00, 0x00, 0x1b,
    0x10, 0x00, 0x00, 0x00, 0x14, 0x00, 0x00, 0x00, 0x04, 0x00, 0x00, 0x00,
    0x94, 0xce, 0xff, 0xff, 0x01, 0x00, 0x00, 0x00, 0x22, 0x00, 0x00, 0x00,
    0x02, 0x00, 0x00, 0x00, 0x21, 0x00, 0x00, 0x00, 0x01, 0x00, 0x00, 0x00,
    0xfe, 0xfd, 0xff, 0xff, 0x14, 0x00, 0x00, 0x00, 0x00, 0x00, 0x00, 0x15,
    0x10, 0x00, 0x00, 0x00, 0x14, 0x00, 0x00, 0x00, 0x03, 0x00, 0x00, 0x00,
    0xc4, 0xce, 0xff, 0xff, 0x01, 0x00, 0x00, 0x00, 0x21, 0x00, 0x00, 0x00,
    0x02, 0x00, 0x00, 0x00, 0x1e, 0x00, 0x00, 0x00, 0x20, 0x00, 0x00, 0x00,
    0x00, 0x00, 0x0a, 0x00, 0x10, 0x00, 0x0c, 0x00, 0x08, 0x00, 0x04, 0x00,
    0x0a, 0x00, 0x00, 0x00, 0x0c, 0x00, 0x00, 0x00, 0x10, 0x00, 0x00, 0x00,
    0x02, 0x00, 0x00, 0x00, 0x01, 0x00, 0x00, 0x00, 0x20, 0x00, 0x00, 0x00,
    0x01, 0x00, 0x00, 0x00, 0x1f, 0x00, 0x00, 0x00, 0x00, 0x00, 0x0e, 0x00,
    0x16, 0x00, 0x00, 0x00, 0x10, 0x00, 0x0c, 0x00, 0x0b, 0x00, 0x04, 0x00,
    0x0e, 0x00, 0x00, 0x00, 0x1c, 0x00, 0x00, 0x00, 0x00, 0x00, 0x00, 0x01,
    0x24, 0x00, 0x00, 0x00, 0x28, 0x00, 0x00, 0x00, 0x00, 0x00, 0x0a, 0x00,
    0x10, 0x00, 0x0f, 0x00, 0x08, 0x00, 0x04, 0x00, 0x0a, 0x00, 0x00, 0x00,
    0x01, 0x00, 0x00, 0x00, 0x01, 0x00, 0x00, 0x00, 0x00, 0x00, 0x00, 0x01,
    0x01, 0x00, 0x00, 0x00, 0x1f, 0x00, 0x00, 0x00, 0x03, 0x00, 0x00, 0x00,
    0x1e, 0x00, 0x00, 0x00, 0x09, 0x00, 0x00, 0x00, 0x08, 0x00, 0x00, 0x00,
    0x56, 0xfe, 0xff, 0xff, 0x10, 0x00, 0x00, 0x00, 0x00, 0x00, 0x00, 0x01,
    0x1c, 0x00, 0x00, 0x00, 0x20, 0x00, 0x00, 0x00, 0x00, 0xff, 0xff, 0xff,
    0x00, 0x00, 0x00, 0x03, 0x01, 0x00, 0x00, 0x00, 0x01, 0x00, 0x00, 0x00,
    0x00, 0x00, 0x00, 0x01, 0x01, 0x00, 0x00, 0x00, 0x1e, 0x00, 0x00, 0x00,
    0x03, 0x00, 0x00, 0x00, 0x1d, 0x00, 0x00, 0x00, 0x0b, 0x00, 0x00, 0x00,
    0x0a, 0x00, 0x00, 0x00, 0xf2, 0xfe, 0xff, 0xff, 0x14, 0x00, 0x00, 0x00,
    0x00, 0x00, 0x00, 0x02, 0x1c, 0x00, 0x00, 0x00, 0x20, 0x00, 0x00, 0x00,
    0x01, 0x00, 0x00, 0x00, 0xe4, 0xfe, 0xff, 0xff, 0x01, 0x00, 0x00, 0x00,
    0x01, 0x00, 0x00, 0x00, 0x01, 0x00, 0x00, 0x00, 0x01, 0x00, 0x00, 0x00,
    0x1d, 0x00, 0x00, 0x00, 0x03, 0x00, 0x00, 0x00, 0x1c, 0x00, 0x00, 0x00,
    0x0c, 0x00, 0x00, 0x00, 0x10, 0x00, 0x00, 0x00, 0xd6, 0xfe, 0xff, 0xff,
    0x10, 0x00, 0x00, 0x00, 0x00, 0x00, 0x00, 0x01, 0x1c, 0x00, 0x00, 0x00,
    0x20, 0x00, 0x00, 0x00, 0x80, 0xff, 0xff, 0xff, 0x00, 0x00, 0x00, 0x03,
    0x01, 0x00, 0x00, 0x00, 0x01, 0x00, 0x00, 0x00, 0x00, 0x00, 0x00, 0x01,
    0x01, 0x00, 0x00, 0x00, 0x1c, 0x00, 0x00, 0x00, 0x03, 0x00, 0x00, 0x00,
    0x1b, 0x00, 0x00, 0x00, 0x0e, 0x00, 0x00, 0x00, 0x0d, 0x00, 0x00, 0x00,
    0x72, 0xff, 0xff, 0xff, 0x14, 0x00, 0x00, 0x00, 0x00, 0x00, 0x00, 0x02,
    0x1c, 0x00, 0x00, 0x00, 0x20, 0x00, 0x00, 0x00, 0x01, 0x00, 0x00, 0x00,
    0x64, 0xff, 0xff, 0xff, 0x01, 0x00, 0x00, 0x00, 0x01, 0x00, 0x00, 0x00,
    0x01, 0x00, 0x00, 0x00, 0x01, 0x00, 0x00, 0x00, 0x1b, 0x00, 0x00, 0x00,
    0x03, 0x00, 0x00, 0x00, 0x1a, 0x00, 0x00, 0x00, 0x11, 0x00, 0x00, 0x00,
    0x0f, 0x00, 0x00, 0x00, 0x56, 0xff, 0xff, 0xff, 0x1c, 0x00, 0x00, 0x00,
    0x00, 0x00, 0x00, 0x01, 0x28, 0x00, 0x00, 0x00, 0x2c, 0x00, 0x00, 0x00,
    0x0c, 0x00, 0x14, 0x00, 0x13, 0x00, 0x0c, 0x00, 0x08, 0x00, 0x07, 0x00,
    0x0c, 0x00, 0x00, 0x00, 0x00, 0x00, 0x00, 0x03, 0x01, 0x00, 0x00, 0x00,
    0x01, 0x00, 0x00, 0x00, 0x00, 0x00, 0x00, 0x01, 0x01, 0x00, 0x00, 0x00,
    0x1a, 0x00, 0x00, 0x00, 0x03, 0x00, 0x00, 0x00, 0x19, 0x00, 0x00, 0x00,
    0x13, 0x00, 0x00, 0x00, 0x12, 0x00, 0x00, 0x00, 0x00, 0x00, 0x0e, 0x00,
    0x18, 0x00, 0x14, 0x00, 0x10, 0x00, 0x0c, 0x00, 0x0b, 0x00, 0x04, 0x00,
    0x0e, 0x00, 0x00, 0x00, 0x20, 0x00, 0x00, 0x00, 0x00, 0x00, 0x00, 0x02,
    0x28, 0x00, 0x00, 0x00, 0x2c, 0x00, 0x00, 0x00, 0x01, 0x00, 0x00, 0x00,
    0x0c, 0x00, 0x10, 0x00, 0x00, 0x00, 0x0c, 0x00, 0x08, 0x00, 0x04, 0x00,
    0x0c, 0x00, 0x00, 0x00, 0x01, 0x00, 0x00, 0x00, 0x02, 0x00, 0x00, 0x00,
    0x02, 0x00, 0x00, 0x00, 0x01, 0x00, 0x00, 0x00, 0x19, 0x00, 0x00, 0x00,
    0x03, 0x00, 0x00, 0x00, 0x18, 0x00, 0x00, 0x00, 0x15, 0x00, 0x00, 0x00,
    0x14, 0x00, 0x00, 0x00, 0x00, 0x00, 0x0e, 0x00, 0x14, 0x00, 0x00, 0x00,
    0x10, 0x00, 0x0c, 0x00, 0x0b, 0x00, 0x04, 0x00, 0x0e, 0x00, 0x00, 0x00,
    0x1c, 0x00, 0x00, 0x00, 0x00, 0x00, 0x00, 0x01, 0x24, 0x00, 0x00, 0x00,
    0x28, 0x00, 0x00, 0x00, 0x0c, 0x00, 0x10, 0x00, 0x00, 0x00, 0x0c, 0x00,
    0x08, 0x00, 0x07, 0x00, 0x0c, 0x00, 0x00, 0x00, 0x00, 0x00, 0x00, 0x03,
    0x02, 0x00, 0x00, 0x00, 0x02, 0x00, 0x00, 0x00, 0x01, 0x00, 0x00, 0x00,
    0x18, 0x00, 0x00, 0x00, 0x03, 0x00, 0x00, 0x00, 0x00, 0x00, 0x00, 0x00,
    0x17, 0x00, 0x00, 0x00, 0x16, 0x00, 0x00, 0x00, 0x02, 0x00, 0x00, 0x00,
    0x27, 0x00, 0x00, 0x00, 0x25, 0x00, 0x00, 0x00, 0x01, 0x00, 0x00, 0x00,
    0x00, 0x00, 0x00, 0x00, 0x28, 0x00, 0x00, 0x00, 0xc4, 0x2e, 0x00, 0x00,
    0x68, 0x2e, 0x00, 0x00, 0xf0, 0x2d, 0x00, 0x00, 0x8c, 0x2d, 0x00, 0x00,
    0x28, 0x2d, 0x00, 0x00, 0xc4, 0x2c, 0x00, 0x00, 0x70, 0x29, 0x00, 0x00,
    0x14, 0x26, 0x00, 0x00, 0xb0, 0x25, 0x00, 0x00, 0x44, 0x25, 0x00, 0x00,
    0xb0, 0x22, 0x00, 0x00, 0x0c, 0x20, 0x00, 0x00, 0x10, 0x1e, 0x00, 0x00,
    0x24, 0x1c, 0x00, 0x00, 0x40, 0x1a, 0x00, 0x00, 0x6c, 0x18, 0x00, 0x00,
    0x98, 0x16, 0x00, 0x00, 0xb0, 0x14, 0x00, 0x00, 0xd8, 0x12, 0x00, 0x00,
    0xf4, 0x10, 0x00, 0x00, 0xe0, 0x0f, 0x00, 0x00, 0xb8, 0x0e, 0x00, 0x00,
    0xa0, 0x0d, 0x00, 0x00, 0x7c, 0x0c, 0x00, 0x00, 0x70, 0x0b, 0x00, 0x00,
    0xbc, 0x0a, 0x00, 0x00, 0x88, 0x09, 0x00, 0x00, 0xd4, 0x08, 0x00, 0x00,
    0xa0, 0x07, 0x00, 0x00, 0xec, 0x06, 0x00, 0x00, 0xb8, 0x05, 0x00, 0x00,
    0xd4, 0x04, 0x00, 0x00, 0x38, 0x04, 0x00, 0x00, 0xa4, 0x03, 0x00, 0x00,
    0x10, 0x03, 0x00, 0x00, 0x44, 0x02, 0x00, 0x00, 0xa0, 0x01, 0x00, 0x00,
    0x24, 0x01, 0x00, 0x00, 0x80, 0x00, 0x00, 0x00, 0x04, 0x00, 0x00, 0x00,
    0xf2, 0xd1, 0xff, 0xff, 0x00, 0x00, 0x00, 0x01, 0x18, 0x00, 0x00, 0x00,
    0x20, 0x00, 0x00, 0x00, 0x3c, 0x00, 0x00, 0x00, 0x28, 0x00, 0x00, 0x00,
    0x00, 0x00, 0x00, 0x09, 0x50, 0x00, 0x00, 0x00, 0x02, 0x00, 0x00, 0x00,
    0xff, 0xff, 0xff, 0xff, 0x01, 0x00, 0x00, 0x00, 0xd4, 0xd1, 0xff, 0xff,
    0x08, 0x00, 0x00, 0x00, 0x10, 0x00, 0x00, 0x00, 0x01, 0x00, 0x00, 0x00,
    0x80, 0xff, 0xff, 0xff, 0xff, 0xff, 0xff, 0xff, 0x01, 0x00, 0x00, 0x00,
    0x00, 0x00, 0x80, 0x3b, 0x1b, 0x00, 0x00, 0x00, 0x53, 0x74, 0x61, 0x74,
    0x65, 0x66, 0x75, 0x6c, 0x50, 0x61, 0x72, 0x74, 0x69, 0x74, 0x69, 0x6f,
    0x6e, 0x65, 0x64, 0x43, 0x61, 0x6c, 0x6c, 0x5f, 0x31, 0x3a, 0x31, 0x00,
    0x02, 0x00, 0x00, 0x00, 0x01, 0x00, 0x00, 0x00, 0x01, 0x00, 0x00, 0x00,
    0x6a, 0xd2, 0xff, 0xff, 0x00, 0x00, 0x00, 0x01, 0x18, 0x00, 0x00, 0x00,
    0x20, 0x00, 0x00, 0x00, 0x3c, 0x00, 0x00, 0x00, 0x27, 0x00, 0x00, 0x00,
    0x00, 0x00, 0x00, 0x09, 0x78, 0x00, 0x00, 0x00, 0x02, 0x00, 0x00, 0x00,
    0xff, 0xff, 0xff, 0xff, 0x01, 0x00, 0x00, 0x00, 0x4c, 0xd2, 0xff, 0xff,
    0x08, 0x00, 0x00, 0x00, 0x10, 0x00, 0x00, 0x00, 0x01, 0x00, 0x00, 0x00,
    0xf8, 0xff, 0xff, 0xff, 0xff, 0xff, 0xff, 0xff, 0x01, 0x00, 0x00, 0x00,
    0x2a, 0x26, 0x90, 0x3d, 0x40, 0x00, 0x00, 0x00, 0x66, 0x75, 0x6e, 0x63,
    0x74, 0x69, 0x6f, 0x6e, 0x61, 0x6c, 0x5f, 0x37, 0x30, 0x5f, 0x31, 0x2f,
    0x74, 0x68, 0x72, 0x6f, 0x74, 0x74, 0x6c, 0x65, 0x5f, 0x31, 0x2f, 0x4d,
    0x61, 0x74, 0x4d, 0x75, 0x6c, 0x3b, 0x66, 0x75, 0x6e, 0x63, 0x74, 0x69,
    0x6f, 0x6e, 0x61, 0x6c, 0x5f, 0x37, 0x30, 0x5f, 0x31, 0x2f, 0x74, 0x68,
    0x72, 0x6f, 0x74, 0x74, 0x6c, 0x65, 0x5f, 0x31, 0x2f, 0x41, 0x64, 0x64,
    0x00, 0x00, 0x00, 0x00, 0x02, 0x00, 0x00, 0x00, 0x01, 0x00, 0x00, 0x00,
    0x01, 0x00, 0x00, 0x00, 0x0a, 0xd3, 0xff, 0xff, 0x00, 0x00, 0x00, 0x01,
    0x18, 0x00, 0x00, 0x00, 0x20, 0x00, 0x00, 0x00, 0x3c, 0x00, 0x00, 0x00,
    0x26, 0x00, 0x00, 0x00, 0x00, 0x00, 0x00, 0x09, 0x50, 0x00, 0x00, 0x00,
    0x02, 0x00, 0x00, 0x00, 0xff, 0xff, 0xff, 0xff, 0x01, 0x00, 0x00, 0x00,
    0xec, 0xd2, 0xff, 0xff, 0x08, 0x00, 0x00, 0x00, 0x10, 0x00, 0x00, 0x00,
    0x01, 0x00, 0x00, 0x00, 0x00, 0x00, 0x00, 0x00, 0x00, 0x00, 0x00, 0x00,
    0x01, 0x00, 0x00, 0x00, 0x00, 0x00, 0x00, 0x3c, 0x1b, 0x00, 0x00, 0x00,
    0x53, 0x74, 0x61, 0x74, 0x65, 0x66, 0x75, 0x6c, 0x50, 0x61, 0x72, 0x74,
    0x69, 0x74, 0x69, 0x6f, 0x6e, 0x65, 0x64, 0x43, 0x61, 0x6c, 0x6c, 0x5f,
    0x31, 0x3a, 0x30, 0x00, 0x02, 0x00, 0x00, 0x00, 0x01, 0x00, 0x00, 0x00,
    0x01, 0x00, 0x00, 0x00, 0x82, 0xd3, 0xff, 0xff, 0x00, 0x00, 0x00, 0x01,
    0x18, 0x00, 0x00, 0x00, 0x20, 0x00, 0x00, 0x00, 0x3c, 0x00, 0x00, 0x00,
    0x25, 0x00, 0x00, 0x00, 0x00, 0x00, 0x00, 0x09, 0x78, 0x00, 0x00, 0x00,
    0x02, 0x00, 0x00, 0x00, 0xff, 0xff, 0xff, 0xff, 0x01, 0x00, 0x00, 0x00,
    0x64, 0xd3, 0xff, 0xff, 0x08, 0x00, 0x00, 0x00, 0x10, 0x00, 0x00, 0x00,
    0x01, 0x00, 0x00, 0x00, 0x02, 0x00, 0x00, 0x00, 0x00, 0x00, 0x00, 0x00,
    0x01, 0x00, 0x00, 0x00, 0xaf, 0xea, 0xad, 0x3b, 0x40, 0x00, 0x00, 0x00,
    0x66, 0x75, 0x6e, 0x63, 0x74, 0x69, 0x6f, 0x6e, 0x61, 0x6c, 0x5f, 0x37,
    0x30, 0x5f, 0x31, 0x2f, 0x73, 0x74, 0x65, 0x65, 0x72, 0x69, 0x6e, 0x67,
    0x5f, 0x31, 0x2f, 0x4d, 0x61, 0x74, 0x4d, 0x75, 0x6c, 0x3b, 0x66, 0x75,
    0x6e, 0x63, 0x74, 0x69, 0x6f, 0x6e, 0x61, 0x6c, 0x5f, 0x37, 0x30, 0x5f,
    0x31, 0x2f, 0x73, 0x74, 0x65, 0x65, 0x72, 0x69, 0x6e, 0x67, 0x5f, 0x31,
    0x2f, 0x41, 0x64, 0x64, 0x00, 0x00, 0x00, 0x00, 0x02, 0x00, 0x00, 0x00,
    0x01, 0x00, 0x00, 0x00, 0x01, 0x00, 0x00, 0x00, 0x22, 0xd4, 0xff, 0xff,
    0x00, 0x00, 0x00, 0x01, 0x18, 0x00, 0x00, 0x00, 0x20, 0x00, 0x00, 0x00,
    0x40, 0x00, 0x00, 0x00, 0x24, 0x00, 0x00, 0x00, 0x00, 0x00, 0x00, 0x09,
    0xa0, 0x00, 0x00, 0x00, 0x02, 0x00, 0x00, 0x00, 0xff, 0xff, 0xff, 0xff,
    0x40, 0x00, 0x00, 0x00, 0x04, 0xd4, 0xff, 0xff, 0x08, 0x00, 0x00, 0x00,
    0x14, 0x00, 0x00, 0x00, 0x01, 0x00, 0x00, 0x00, 0x80, 0xff, 0xff, 0xff,
    0xff, 0xff, 0xff, 0xff, 0x00, 0x00, 0x00, 0x00, 0x01, 0x00, 0x00, 0x00,
    0xbe, 0x03, 0x1f, 0x3c, 0x65, 0x00, 0x00, 0x00, 0x66, 0x75, 0x6e, 0x63,
    0x74, 0x69, 0x6f, 0x6e, 0x61, 0x6c, 0x5f, 0x37, 0x30, 0x5f, 0x31, 0x2f,
    0x64, 0x65, 0x6e, 0x73, 0x65, 0x5f, 0x39, 0x33, 0x5f, 0x31, 0x2f, 0x4d,
    0x61, 0x74, 0x4d, 0x75, 0x6c, 0x3b, 0x66, 0x75, 0x6e, 0x63, 0x74, 0x69,
    0x6f, 0x6e, 0x61, 0x6c, 0x5f, 0x37, 0x30, 0x5f, 0x31, 0x2f, 0x64, 0x65,
    0x6e, 0x73, 0x65, 0x5f, 0x39, 0x33, 0x5f, 0x31, 0x2f, 0x52, 0x65, 0x6c,
    0x75, 0x36, 0x3b, 0x66, 0x75, 0x6e, 0x63, 0x74, 0x69, 0x6f, 0x6e, 0x61,
    0x6c, 0x5f, 0x37, 0x30, 0x5f, 0x31, 0x2f, 0x64, 0x65, 0x6e, 0x73, 0x65,
    0x5f, 0x39, 0x33, 0x5f, 0x31, 0x2f, 0x42, 0x69, 0x61, 0x73, 0x41, 0x64,
    0x64, 0x00, 0x00, 0x00, 0x02, 0x00, 0x00, 0x00, 0x01, 0x00, 0x00, 0x00,
    0x40, 0x00, 0x00, 0x00, 0xea, 0xd4, 0xff, 0xff, 0x00, 0x00, 0x00, 0x01,
    0x18, 0x00, 0x00, 0x00, 0x20, 0x00, 0x00, 0x00, 0x3c, 0x00, 0x00, 0x00,
    0x23, 0x00, 0x00, 0x00, 0x00, 0x00, 0x00, 0x09, 0x68, 0x00, 0x00, 0x00,
    0x02, 0x00, 0x00, 0x00, 0xff, 0xff, 0xff, 0xff, 0x30, 0x00, 0x00, 0x00,
    0xcc, 0xd4, 0xff, 0xff, 0x08, 0x00, 0x00, 0x00, 0x10, 0x00, 0x00, 0x00,
    0x01, 0x00, 0x00, 0x00, 0x80, 0xff, 0xff, 0xff, 0xff, 0xff, 0xff, 0xff,
    0x01, 0x00, 0x00, 0x00, 0x82, 0xa6, 0xd9, 0x3b, 0x32, 0x00, 0x00, 0x00,
    0x66, 0x75, 0x6e, 0x63, 0x74, 0x69, 0x6f, 0x6e, 0x61, 0x6c, 0x5f, 0x37,
    0x30, 0x5f, 0x31, 0x2f, 0x67, 0x6c, 0x6f, 0x62, 0x61, 0x6c, 0x5f, 0x61,
    0x76, 0x65, 0x72, 0x61, 0x67, 0x65, 0x5f, 0x70, 0x6f, 0x6f, 0x6c, 0x69,
    0x6e, 0x67, 0x32, 0x64, 0x5f, 0x37, 0x38, 0x5f, 0x31, 0x2f, 0x4d, 0x65,
    0x61, 0x6e, 0x00, 0x00, 0x02, 0x00, 0x00, 0x00, 0x01, 0x00, 0x00, 0x00,
    0x30, 0x00, 0x00, 0x00, 0x7a, 0xd5, 0xff, 0xff, 0x00, 0x00, 0x00, 0x01,
    0x18, 0x00, 0x00, 0x00, 0x28, 0x00, 0x00, 0x00, 0x44, 0x00, 0x00, 0x00,
    0x22, 0x00, 0x00, 0x00, 0x00, 0x00, 0x00, 0x09, 0x60, 0x00, 0x00, 0x00,
    0x04, 0x00, 0x00, 0x00, 0xff, 0xff, 0xff, 0xff, 0x06, 0x00, 0x00, 0x00,
    0x06, 0x00, 0x00, 0x00, 0x30, 0x00, 0x00, 0x00, 0x64, 0xd5, 0xff, 0xff,
    0x08, 0x00, 0x00, 0x00, 0x10, 0x00, 0x00, 0x00, 0x01, 0x00, 0x00, 0x00,
    0x80, 0xff, 0xff, 0xff, 0xff, 0xff, 0xff, 0xff, 0x01, 0x00, 0x00, 0x00,
    0xba, 0x40, 0xbf, 0x3c, 0x21, 0x00, 0x00, 0x00, 0x66, 0x75, 0x6e, 0x63,
    0x74, 0x69, 0x6f, 0x6e, 0x61, 0x6c, 0x5f, 0x37, 0x30, 0x5f, 0x31, 0x2f,
    0x6d, 0x75, 0x6c, 0x74, 0x69, 0x70, 0x6c, 0x79, 0x5f, 0x34, 0x33, 0x5f,
    0x31, 0x2f, 0x4d, 0x75, 0x6c, 0x00, 0x00, 0x00, 0x04, 0x00, 0x00, 0x00,
    0x01, 0x00, 0x00, 0x00, 0x06, 0x00, 0x00, 0x00, 0x06, 0x00, 0x00, 0x00,
    0x30, 0x00, 0x00, 0x00, 0x0a, 0xd6, 0xff, 0xff, 0x00, 0x00, 0x00, 0x01,
    0x18, 0x00, 0x00, 0x00, 0x28, 0x00, 0x00, 0x00, 0x48, 0x00, 0x00, 0x00,
    0x21, 0x00, 0x00, 0x00, 0x00, 0x00, 0x00, 0x09, 0x68, 0x00, 0x00, 0x00,
    0x04, 0x00, 0x00, 0x00, 0xff, 0xff, 0xff, 0xff, 0x06, 0x00, 0x00, 0x00,
    0x06, 0x00, 0x00, 0x00, 0x01, 0x00, 0x00, 0x00, 0xf4, 0xd5, 0xff, 0xff,
    0x08, 0x00, 0x00, 0x00, 0x14, 0x00, 0x00, 0x00, 0x01, 0x00, 0x00, 0x00,
    0x80, 0xff, 0xff, 0xff, 0xff, 0xff, 0xff, 0xff, 0x00, 0x00, 0x00, 0x00,
    0x01, 0x00, 0x00, 0x00, 0x00, 0x00, 0x80, 0x3b, 0x24, 0x00, 0x00, 0x00,
    0x66, 0x75, 0x6e, 0x63, 0x74, 0x69, 0x6f, 0x6e, 0x61, 0x6c, 0x5f, 0x37,
    0x30, 0x5f, 0x31, 0x2f, 0x63, 0x6f, 0x6e, 0x76, 0x32, 0x64, 0x5f, 0x33,
    0x32, 0x38, 0x5f, 0x31, 0x2f, 0x53, 0x69, 0x67, 0x6d, 0x6f, 0x69, 0x64,
    0x00, 0x00, 0x00, 0x00, 0x04, 0x00, 0x00, 0x00, 0x01, 0x00, 0x00, 0x00,
    0x06, 0x00, 0x00, 0x00, 0x06, 0x00, 0x00, 0x00, 0x01, 0x00, 0x00, 0x00,
    0xa2, 0xd6, 0xff, 0xff, 0x00, 0x00, 0x00, 0x01, 0x18, 0x00, 0x00, 0x00,
    0x28, 0x00, 0x00, 0x00, 0x48, 0x00, 0x00, 0x00, 0x20, 0x00, 0x00, 0x00,
    0x00, 0x00, 0x00, 0x09, 0xb0, 0x00, 0x00, 0x00, 0x04, 0x00, 0x00, 0x00,
    0xff, 0xff, 0xff, 0xff, 0x06, 0x00, 0x00, 0x00, 0x06, 0x00, 0x00, 0x00,
    0x01, 0x00, 0x00, 0x00, 0x8c, 0xd6, 0xff, 0xff, 0x08, 0x00, 0x00, 0x00,
    0x14, 0x00, 0x00, 0x00, 0x01, 0x00, 0x00, 0x00, 0xe5, 0xff, 0xff, 0xff,
    0xff, 0xff, 0xff, 0xff, 0x00, 0x00, 0x00, 0x00, 0x01, 0x00, 0x00, 0x00,
    0x25, 0x12, 0x81, 0x3d, 0x6e, 0x00, 0x00, 0x00, 0x66, 0x75, 0x6e, 0x63,
    0x74, 0x69, 0x6f, 0x6e, 0x61, 0x6c, 0x5f, 0x37, 0x30, 0x5f, 0x31, 0x2f,
    0x63, 0x6f, 0x6e, 0x76, 0x32, 0x64, 0x5f, 0x33, 0x32, 0x38, 0x5f, 0x31,
    0x2f, 0x41, 0x64, 0x64, 0x3b, 0x66, 0x75, 0x6e, 0x63, 0x74, 0x69, 0x6f,
    0x6e, 0x61, 0x6c, 0x5f, 0x37, 0x30, 0x5f, 0x31, 0x2f, 0x63, 0x6f, 0x6e,
    0x76, 0x32, 0x64, 0x5f, 0x33, 0x32, 0x38, 0x5f, 0x31, 0x2f, 0x63, 0x6f,
    0x6e, 0x76, 0x6f, 0x6c, 0x75, 0x74, 0x69, 0x6f, 0x6e, 0x3b, 0x66, 0x75,
    0x6e, 0x63, 0x74, 0x69, 0x6f, 0x6e, 0x61, 0x6c, 0x5f, 0x37, 0x30, 0x5f,
    0x31, 0x2f, 0x63, 0x6f, 0x6e, 0x76, 0x32, 0x64, 0x5f, 0x33, 0x32, 0x38,
    0x5f, 0x31, 0x2f, 0x52, 0x65, 0x73, 0x68, 0x61, 0x70, 0x65, 0x00, 0x00,
    0x04, 0x00, 0x00, 0x00, 0x01, 0x00, 0x00, 0x00, 0x06, 0x00, 0x00, 0x00,
    0x06, 0x00, 0x00, 0x00, 0x01, 0x00, 0x00, 0x00, 0x82, 0xd7, 0xff, 0xff,
    0x00, 0x00, 0x00, 0x01, 0x18, 0x00, 0x00, 0x00, 0x28, 0x00, 0x00, 0x00,
    0x48, 0x00, 0x00, 0x00, 0x1f, 0x00, 0x00, 0x00, 0x00, 0x00, 0x00, 0x09,
    0x00, 0x01, 0x00, 0x00, 0x04, 0x00, 0x00, 0x00, 0xff, 0xff, 0xff, 0xff,
    0x06, 0x00, 0x00, 0x00, 0x06, 0x00, 0x00, 0x00, 0x30, 0x00, 0x00, 0x00,
    0x6c, 0xd7, 0xff, 0xff, 0x08, 0x00, 0x00, 0x00, 0x14, 0x00, 0x00, 0x00,
    0x01, 0x00, 0x00, 0x00, 0x80, 0xff, 0xff, 0xff, 0xff, 0xff, 0xff, 0xff,
    0x00, 0x00, 0x00, 0x00, 0x01, 0x00, 0x00, 0x00, 0xc1, 0xc0, 0xc0, 0x3c,
    0xbe, 0x00, 0x00, 0x00, 0x66, 0x75, 0x6e, 0x63, 0x74, 0x69, 0x6f, 0x6e,
    0x61, 0x6c, 0x5f, 0x37, 0x30, 0x5f, 0x31, 0x2f, 0x73, 0x65, 0x70, 0x61,
    0x72, 0x61, 0x62, 0x6c, 0x65, 0x5f, 0x63, 0x6f, 0x6e, 0x76, 0x32, 0x64,
    0x5f, 0x36, 0x31, 0x5f, 0x31, 0x2f, 0x52, 0x65, 0x6c, 0x75, 0x36, 0x3b,
    0x66, 0x75, 0x6e, 0x63, 0x74, 0x69, 0x6f, 0x6e, 0x61, 0x6c, 0x5f, 0x37,
    0x30, 0x5f, 0x31, 0x2f, 0x73, 0x65, 0x70, 0x61, 0x72, 0x61, 0x62, 0x6c,
    0x65, 0x5f, 0x63, 0x6f, 0x6e, 0x76, 0x32, 0x64, 0x5f, 0x36, 0x31, 0x5f,
    0x31, 0x2f, 0x42, 0x69, 0x61, 0x73, 0x41, 0x64, 0x64, 0x3b, 0x66, 0x75,
    0x6e, 0x63, 0x74, 0x69, 0x6f, 0x6e, 0x61, 0x6c, 0x5f, 0x37, 0x30, 0x5f,
    0x31, 0x2f, 0x73, 0x65, 0x70, 0x61, 0x72, 0x61, 0x62, 0x6c, 0x65, 0x5f,
    0x63, 0x6f, 0x6e, 0x76, 0x32, 0x64, 0x5f, 0x36, 0x31, 0x5f, 0x31, 0x2f,
    0x73, 0x65, 0x70, 0x61, 0x72, 0x61, 0x62, 0x6c, 0x65, 0x5f, 0x63, 0x6f,
    0x6e, 0x76, 0x32, 0x64, 0x3b, 0x66, 0x75, 0x6e, 0x63, 0x74, 0x69, 0x6f,
    0x6e, 0x61, 0x6c, 0x5f, 0x37, 0x30, 0x5f, 0x31, 0x2f, 0x73, 0x65, 0x70,
    0x61, 0x72, 0x61, 0x62, 0x6c, 0x65, 0x5f, 0x63, 0x6f, 0x6e, 0x76, 0x32,
    0x64, 0x5f, 0x36, 0x31, 0x5f, 0x31, 0x2f, 0x53, 0x71, 0x75, 0x65, 0x65,
    0x7a, 0x65, 0x00, 0x00, 0x04, 0x00, 0x00, 0x00, 0x01, 0x00, 0x00, 0x00,
    0x06, 0x00, 0x00, 0x00, 0x06, 0x00, 0x00, 0x00, 0x30, 0x00, 0x00, 0x00,
    0xb2, 0xd8, 0xff, 0xff, 0x00, 0x00, 0x00, 0x01, 0x18, 0x00, 0x00, 0x00,
    0x28, 0x00, 0x00, 0x00, 0x44, 0x00, 0x00, 0x00, 0x1e, 0x00, 0x00, 0x00,
    0x00, 0x00, 0x00, 0x09, 0x80, 0x00, 0x00, 0x00, 0x04, 0x00, 0x00, 0x00,
    0xff, 0xff, 0xff, 0xff, 0x06, 0x00, 0x00, 0x00, 0x06, 0x00, 0x00, 0x00,
    0x20, 0x00, 0x00, 0x00, 0x9c, 0xd8, 0xff, 0xff, 0x08, 0x00, 0x00, 0x00,
    0x10, 0x00, 0x00, 0x00, 0x01, 0x00, 0x00, 0x00, 0xf9, 0xff, 0xff, 0xff,
    0xff, 0xff, 0xff, 0xff, 0x01, 0x00, 0x00, 0x00, 0x3c, 0xa0, 0x78, 0x3d,
    0x40, 0x00, 0x00, 0x00, 0x66, 0x75, 0x6e, 0x63, 0x74, 0x69, 0x6f, 0x6e,
    0x61, 0x6c, 0x5f, 0x37, 0x30, 0x5f, 0x31, 0x2f, 0x73, 0x65, 0x70, 0x61,
    0x72, 0x61, 0x62, 0x6c, 0x65, 0x5f, 0x63, 0x6f, 0x6e, 0x76, 0x32, 0x64,
    0x5f, 0x36, 0x31, 0x5f, 0x31, 0x2f, 0x73, 0x65, 0x70, 0x61, 0x72, 0x61,
    0x62, 0x6c, 0x65, 0x5f, 0x63, 0x6f, 0x6e, 0x76, 0x32, 0x64, 0x2f, 0x64,
    0x65, 0x70, 0x74, 0x68, 0x77, 0x69, 0x73, 0x65, 0x00, 0x00, 0x00, 0x00,
    0x04, 0x00, 0x00, 0x00, 0x01, 0x00, 0x00, 0x00, 0x06, 0x00, 0x00, 0x00,
    0x06, 0x00, 0x00, 0x00, 0x20, 0x00, 0x00, 0x00, 0x62, 0xd9, 0xff, 0xff,
    0x00, 0x00, 0x00, 0x01, 0x18, 0x00, 0x00, 0x00, 0x28, 0x00, 0x00, 0x00,
    0x48, 0x00, 0x00, 0x00, 0x1d, 0x00, 0x00, 0x00, 0x00, 0x00, 0x00, 0x09,
    0x00, 0x01, 0x00, 0x00, 0x04, 0x00, 0x00, 0x00, 0xff, 0xff, 0xff, 0xff,
    0x06, 0x00, 0x00, 0x00, 0x06, 0x00, 0x00, 0x00, 0x20, 0x00, 0x00, 0x00,
    0x4c, 0xd9, 0xff, 0xff, 0x08, 0x00, 0x00, 0x00, 0x14, 0x00, 0x00, 0x00,
    0x01, 0x00, 0x00, 0x00, 0x80, 0xff, 0xff, 0xff, 0xff, 0xff, 0xff, 0xff,
    0x00, 0x00, 0x00, 0x00, 0x01, 0x00, 0x00, 0x00, 0xc1, 0xc0, 0xc0, 0x3c,
    0xbe, 0x00, 0x00, 0x00, 0x66, 0x75, 0x6e, 0x63, 0x74, 0x69, 0x6f, 0x6e,
    0x61, 0x6c, 0x5f, 0x37, 0x30, 0x5f, 0x31, 0x2f, 0x73, 0x65, 0x70, 0x61,
    0x72, 0x61, 0x62, 0x6c, 0x65, 0x5f, 0x63, 0x6f, 0x6e, 0x76, 0x32, 0x64,
    0x5f, 0x36, 0x30, 0x5f, 0x31, 0x2f, 0x52, 0x65, 0x6c, 0x75, 0x36, 0x3b,
    0x66, 0x75, 0x6e, 0x63, 0x74, 0x69, 0x6f, 0x6e, 0x61, 0x6c, 0x5f, 0x37,
    0x30, 0x5f, 0x31, 0x2f, 0x73, 0x65, 0x70, 0x61, 0x72, 0x61, 0x62, 0x6c,
    0x65, 0x5f, 0x63, 0x6f, 0x6e, 0x76, 0x32, 0x64, 0x5f, 0x36, 0x30, 0x5f,
    0x31, 0x2f, 0x42, 0x69, 0x61, 0x73, 0x41, 0x64, 0x64, 0x3b, 0x66, 0x75,
    0x6e, 0x63, 0x74, 0x69, 0x6f, 0x6e, 0x61, 0x6c, 0x5f, 0x37, 0x30, 0x5f,
    0x31, 0x2f, 0x73, 0x65, 0x70, 0x61, 0x72, 0x61, 0x62, 0x6c, 0x65, 0x5f,
    0x63, 0x6f, 0x6e, 0x76, 0x32, 0x64, 0x5f, 0x36, 0x30, 0x5f, 0x31, 0x2f,
    0x73, 0x65, 0x70, 0x61, 0x72, 0x61, 0x62, 0x6c, 0x65, 0x5f, 0x63, 0x6f,
    0x6e, 0x76, 0x32, 0x64, 0x3b, 0x66, 0x75, 0x6e, 0x63, 0x74, 0x69, 0x6f,
    0x6e, 0x61, 0x6c, 0x5f, 0x37, 0x30, 0x5f, 0x31, 0x2f, 0x73, 0x65, 0x70,
    0x61, 0x72, 0x61, 0x62, 0x6c, 0x65, 0x5f, 0x63, 0x6f, 0x6e, 0x76, 0x32,
    0x64, 0x5f, 0x36, 0x30, 0x5f, 0x31, 0x2f, 0x53, 0x71, 0x75, 0x65, 0x65,
    0x7a, 0x65, 0x00, 0x00, 0x04, 0x00, 0x00, 0x00, 0x01, 0x00, 0x00, 0x00,
    0x06, 0x00, 0x00, 0x00, 0x06, 0x00, 0x00, 0x00, 0x20, 0x00, 0x00, 0x00,
    0x92, 0xda, 0xff, 0xff, 0x00, 0x00, 0x00, 0x01, 0x18, 0x00, 0x00, 0x00,
    0x28, 0x00, 0x00, 0x00, 0x44, 0x00, 0x00, 0x00, 0x1c, 0x00, 0x00, 0x00,
    0x00, 0x00, 0x00, 0x09, 0x80, 0x00, 0x00, 0x00, 0x04, 0x00, 0x00, 0x00,
    0xff, 0xff, 0xff, 0xff, 0x06, 0x00, 0x00, 0x00, 0x06, 0x00, 0x00, 0x00,
    0x20, 0x00, 0x00, 0x00, 0x7c, 0xda, 0xff, 0xff, 0x08, 0x00, 0x00, 0x00,
    0x10, 0x00, 0x00, 0x00, 0x01, 0x00, 0x00, 0x00, 0xf9, 0xff, 0xff, 0xff,
    0xff, 0xff, 0xff, 0xff, 0x01, 0x00, 0x00, 0x00, 0x4c, 0x94, 0x10, 0x3d,
    0x40, 0x00, 0x00, 0x00, 0x66, 0x75, 0x6e, 0x63, 0x74, 0x69, 0x6f, 0x6e,
    0x61, 0x6c, 0x5f, 0x37, 0x30, 0x5f, 0x31, 0x2f, 0x73, 0x65, 0x70, 0x61,
    0x72, 0x61, 0x62, 0x6c, 0x65, 0x5f, 0x63, 0x6f, 0x6e, 0x76, 0x32, 0x64,
    0x5f, 0x36, 0x30, 0x5f, 0x31, 0x2f, 0x73, 0x65, 0x70, 0x61, 0x72, 0x61,
    0x62, 0x6c, 0x65, 0x5f, 0x63, 0x6f, 0x6e, 0x76, 0x32, 0x64, 0x2f, 0x64,
    0x65, 0x70, 0x74, 0x68, 0x77, 0x69, 0x73, 0x65, 0x00, 0x00, 0x00, 0x00,
    0x04, 0x00, 0x00, 0x00, 0x01, 0x00, 0x00, 0x00, 0x06, 0x00, 0x00, 0x00,
    0x06, 0x00, 0x00, 0x00, 0x20, 0x00, 0x00, 0x00, 0x42, 0xdb, 0xff, 0xff,
    0x00, 0x00, 0x00, 0x01, 0x18, 0x00, 0x00, 0x00, 0x28, 0x00, 0x00, 0x00,
    0x48, 0x00, 0x00, 0x00, 0x1b, 0x00, 0x00, 0x00, 0x00, 0x00, 0x00, 0x09,
    0x00, 0x01, 0x00, 0x00, 0x04, 0x00, 0x00, 0x00, 0xff, 0xff, 0xff, 0xff,
    0x06, 0x00, 0x00, 0x00, 0x06, 0x00, 0x00, 0x00, 0x20, 0x00, 0x00, 0x00,
    0x2c, 0xdb, 0xff, 0xff, 0x08, 0x00, 0x00, 0x00, 0x14, 0x00, 0x00, 0x00,
    0x01, 0x00, 0x00, 0x00, 0x80, 0xff, 0xff, 0xff, 0xff, 0xff, 0xff, 0xff,
    0x00, 0x00, 0x00, 0x00, 0x01, 0x00, 0x00, 0x00, 0xc1, 0xc0, 0xc0, 0x3c,
    0xbe, 0x00, 0x00, 0x00, 0x66, 0x75, 0x6e, 0x63, 0x74, 0x69, 0x6f, 0x6e,
    0x61, 0x6c, 0x5f, 0x37, 0x30, 0x5f, 0x31, 0x2f, 0x73, 0x65, 0x70, 0x61,
    0x72, 0x61, 0x62, 0x6c, 0x65, 0x5f, 0x63, 0x6f, 0x6e, 0x76, 0x32, 0x64,
    0x5f, 0x35, 0x39, 0x5f, 0x31, 0x2f, 0x52, 0x65, 0x6c, 0x75, 0x36, 0x3b,
    0x66, 0x75, 0x6e, 0x63, 0x74, 0x69, 0x6f, 0x6e, 0x61, 0x6c, 0x5f, 0x37,
    0x30, 0x5f, 0x31, 0x2f, 0x73, 0x65, 0x70, 0x61, 0x72, 0x61, 0x62, 0x6c,
    0x65, 0x5f, 0x63, 0x6f, 0x6e, 0x76, 0x32, 0x64, 0x5f, 0x35, 0x39, 0x5f,
    0x31, 0x2f, 0x42, 0x69, 0x61, 0x73, 0x41, 0x64, 0x64, 0x3b, 0x66, 0x75,
    0x6e, 0x63, 0x74, 0x69, 0x6f, 0x6e, 0x61, 0x6c, 0x5f, 0x37, 0x30, 0x5f,
    0x31, 0x2f, 0x73, 0x65, 0x70, 0x61, 0x72, 0x61, 0x62, 0x6c, 0x65, 0x5f,
    0x63, 0x6f, 0x6e, 0x76, 0x32, 0x64, 0x5f, 0x35, 0x39, 0x5f, 0x31, 0x2f,
    0x73, 0x65, 0x70, 0x61, 0x72, 0x61, 0x62, 0x6c, 0x65, 0x5f, 0x63, 0x6f,
    0x6e, 0x76, 0x32, 0x64, 0x3b, 0x66, 0x75, 0x6e, 0x63, 0x74, 0x69, 0x6f,
    0x6e, 0x61, 0x6c, 0x5f, 0x37, 0x30, 0x5f, 0x31, 0x2f, 0x73, 0x65, 0x70,
    0x61, 0x72, 0x61, 0x62, 0x6c, 0x65, 0x5f, 0x63, 0x6f, 0x6e, 0x76, 0x32,
    0x64, 0x5f, 0x35, 0x39, 0x5f, 0x31, 0x2f, 0x53, 0x71, 0x75, 0x65, 0x65,
    0x7a, 0x65, 0x00, 0x00, 0x04, 0x00, 0x00, 0x00, 0x01, 0x00, 0x00, 0x00,
    0x06, 0x00, 0x00, 0x00, 0x06, 0x00, 0x00, 0x00, 0x20, 0x00, 0x00, 0x00,
    0x72, 0xdc, 0xff, 0xff, 0x00, 0x00, 0x00, 0x01, 0x18, 0x00, 0x00, 0x00,
    0x28, 0x00, 0x00, 0x00, 0x44, 0x00, 0x00, 0x00, 0x1a, 0x00, 0x00, 0x00,
    0x00, 0x00, 0x00, 0x09, 0x80, 0x00, 0x00, 0x00, 0x04, 0x00, 0x00, 0x00,
    0xff, 0xff, 0xff, 0xff, 0x06, 0x00, 0x00, 0x00, 0x06, 0x00, 0x00, 0x00,
    0x10, 0x00, 0x00, 0x00, 0x5c, 0xdc, 0xff, 0xff, 0x08, 0x00, 0x00, 0x00,
    0x10, 0x00, 0x00, 0x00, 0x01, 0x00, 0x00, 0x00, 0x11, 0x00, 0x00, 0x00,
    0x00, 0x00, 0x00, 0x00, 0x01, 0x00, 0x00, 0x00, 0x9f, 0x97, 0x90, 0x3d,
    0x40, 0x00, 0x00, 0x00, 0x66, 0x75, 0x6e, 0x63, 0x74, 0x69, 0x6f, 0x6e,
    0x61, 0x6c, 0x5f, 0x37, 0x30, 0x5f, 0x31, 0x2f, 0x73, 0x65, 0x70, 0x61,
    0x72, 0x61, 0x62, 0x6c, 0x65, 0x5f, 0x63, 0x6f, 0x6e, 0x76, 0x32, 0x64,
    0x5f, 0x35, 0x39, 0x5f, 0x31, 0x2f, 0x73, 0x65, 0x70, 0x61, 0x72, 0x61,
    0x62, 0x6c, 0x65, 0x5f, 0x63, 0x6f, 0x6e, 0x76, 0x32, 0x64, 0x2f, 0x64,
    0x65, 0x70, 0x74, 0x68, 0x77, 0x69, 0x73, 0x65, 0x00, 0x00, 0x00, 0x00,
    0x04, 0x00, 0x00, 0x00, 0x01, 0x00, 0x00, 0x00, 0x06, 0x00, 0x00, 0x00,
    0x06, 0x00, 0x00, 0x00, 0x10, 0x00, 0x00, 0x00, 0x22, 0xdd, 0xff, 0xff,
    0x00, 0x00, 0x00, 0x01, 0x18, 0x00, 0x00, 0x00, 0x28, 0x00, 0x00, 0x00,
    0x48, 0x00, 0x00, 0x00, 0x19, 0x00, 0x00, 0x00, 0x00, 0x00, 0x00, 0x09,
    0xd8, 0x00, 0x00, 0x00, 0x04, 0x00, 0x00, 0x00, 0xff, 0xff, 0xff, 0xff,
    0x0c, 0x00, 0x00, 0x00, 0x0c, 0x00, 0x00, 0x00, 0x10, 0x00, 0x00, 0x00,
    0x0c, 0xdd, 0xff, 0xff, 0x08, 0x00, 0x00, 0x00, 0x14, 0x00, 0x00, 0x00,
    0x01, 0x00, 0x00, 0x00, 0x80, 0xff, 0xff, 0xff, 0xff, 0xff, 0xff, 0xff,
    0x00, 0x00, 0x00, 0x00, 0x01, 0x00, 0x00, 0x00, 0xc1, 0xc0, 0xc0, 0x3c,
    0x96, 0x00, 0x00, 0x00, 0x66, 0x75, 0x6e, 0x63, 0x74, 0x69, 0x6f, 0x6e,
    0x61, 0x6c, 0x5f, 0x37, 0x30, 0x5f, 0x31, 0x2f, 0x63, 0x6f, 0x6e, 0x76,
    0x32, 0x64, 0x5f, 0x33, 0x32, 0x37, 0x5f, 0x31, 0x2f, 0x52, 0x65, 0x6c,
    0x75, 0x36, 0x3b, 0x66, 0x75, 0x6e, 0x63, 0x74, 0x69, 0x6f, 0x6e, 0x61,
    0x6c, 0x5f, 0x37, 0x30, 0x5f, 0x31, 0x2f, 0x63, 0x6f, 0x6e, 0x76, 0x32,
    0x64, 0x5f, 0x33, 0x32, 0x37, 0x5f, 0x31, 0x2f, 0x42, 0x69, 0x61, 0x73,
    0x41, 0x64, 0x64, 0x3b, 0x66, 0x75, 0x6e, 0x63, 0x74, 0x69, 0x6f, 0x6e,
    0x61, 0x6c, 0x5f, 0x37, 0x30, 0x5f, 0x31, 0x2f, 0x63, 0x6f, 0x6e, 0x76,
    0x32, 0x64, 0x5f, 0x33, 0x32, 0x37, 0x5f, 0x31, 0x2f, 0x63, 0x6f, 0x6e,
    0x76, 0x6f, 0x6c, 0x75, 0x74, 0x69, 0x6f, 0x6e, 0x3b, 0x66, 0x75, 0x6e,
    0x63, 0x74, 0x69, 0x6f, 0x6e, 0x61, 0x6c, 0x5f, 0x37, 0x30, 0x5f, 0x31,
    0x2f, 0x63, 0x6f, 0x6e, 0x76, 0x32, 0x64, 0x5f, 0x33, 0x32, 0x37, 0x5f,
    0x31, 0x2f, 0x53, 0x71, 0x75, 0x65, 0x65, 0x7a, 0x65, 0x31, 0x00, 0x00,
    0x04, 0x00, 0x00, 0x00, 0x01, 0x00, 0x00, 0x00, 0x0c, 0x00, 0x00, 0x00,
    0x0c, 0x00, 0x00, 0x00, 0x10, 0x00, 0x00, 0x00, 0x82, 0xde, 0xff, 0xff,
    0x00, 0x00, 0x00, 0x01, 0x14, 0x00, 0x00, 0x00, 0xe8, 0x00, 0x00, 0x00,
    0x18, 0x00, 0x00, 0x00, 0x00, 0x00, 0x00, 0x09, 0xf4, 0x00, 0x00, 0x00,
    0xfc, 0xdd, 0xff, 0xff, 0x08, 0x00, 0x00, 0x00, 0x8c, 0x00, 0x00, 0x00,
    0x10, 0x00, 0x00, 0x00, 0x00, 0x00, 0x00, 0x00, 0x00, 0x00, 0x00, 0x00,
    0x00, 0x00, 0x00, 0x00, 0x00, 0x00, 0x00, 0x00, 0x00, 0x00, 0x00, 0x00,
    0x00, 0x00, 0x00, 0x00, 0x00, 0x00, 0x00, 0x00, 0x00, 0x00, 0x00, 0x00,
    0x00, 0x00, 0x00, 0x00, 0x00, 0x00, 0x00, 0x00, 0x00, 0x00, 0x00, 0x00,
    0x00, 0x00, 0x00, 0x00, 0x00, 0x00, 0x00, 0x00, 0x00, 0x00, 0x00, 0x00,
    0x00, 0x00, 0x00, 0x00, 0x00, 0x00, 0x00, 0x00, 0x00, 0x00, 0x00, 0x00,
    0x00, 0x00, 0x00, 0x00, 0x00, 0x00, 0x00, 0x00, 0x00, 0x00, 0x00, 0x00,
    0x00, 0x00, 0x00, 0x00, 0x00, 0x00, 0x00, 0x00, 0x00, 0x00, 0x00, 0x00,
    0x00, 0x00, 0x00, 0x00, 0x00, 0x00, 0x00, 0x00, 0x00, 0x00, 0x00, 0x00,
    0x00, 0x00, 0x00, 0x00, 0x00, 0x00, 0x00, 0x00, 0x00, 0x00, 0x00, 0x00,
    0x00, 0x00, 0x00, 0x00, 0x00, 0x00, 0x00, 0x00, 0x00, 0x00, 0x00, 0x00,
    0x00, 0x00, 0x00, 0x00, 0x10, 0x00, 0x00, 0x00, 0x3f, 0x7b, 0xc0, 0x3a,
    0xf5, 0xb2, 0x01, 0x3b, 0x8e, 0x9b, 0x43, 0x3b, 0x35, 0x4c, 0x82, 0x3b,
    0x38, 0x73, 0xca, 0x3a, 0xf9, 0x42, 0x44, 0x3b, 0xfc, 0x55, 0x9f, 0x3b,
    0x44, 0x6a, 0x97, 0x3b, 0xd0, 0x74, 0x52, 0x3b, 0xe0, 0xfe, 0xa9, 0x3a,
    0x0d, 0x56, 0xbd, 0x3a, 0x9c, 0x37, 0x40, 0x3b, 0x1d, 0x1e, 0xfb, 0x3a,
    0x79, 0x1c, 0x2f, 0x3b, 0x63, 0x07, 0x31, 0x3b, 0x26, 0x10, 0x41, 0x3b,
    0x13, 0x00, 0x00, 0x00, 0x74, 0x66, 0x6c, 0x2e, 0x70, 0x73, 0x65, 0x75,
    0x64, 0x6f, 0x5f, 0x71, 0x63, 0x6f, 0x6e, 0x73, 0x74, 0x32, 0x31, 0x00,
    0x04, 0x00, 0x00, 0x00, 0x10, 0x00, 0x00, 0x00, 0x03, 0x00, 0x00, 0x00,
    0x03, 0x00, 0x00, 0x00, 0x0a, 0x00, 0x00, 0x00, 0xa2, 0xdf, 0xff, 0xff,
    0x00, 0x00, 0x00, 0x01, 0x14, 0x00, 0x00, 0x00, 0xe8, 0x00, 0x00, 0x00,
    0x17, 0x00, 0x00, 0x00, 0x00, 0x00, 0x00, 0x02, 0xf4, 0x00, 0x00, 0x00,
    0x1c, 0xdf, 0xff, 0xff, 0x08, 0x00, 0x00, 0x00, 0x8c, 0x00, 0x00, 0x00,
    0x10, 0x00, 0x00, 0x00, 0x00, 0x00, 0x00, 0x00, 0x00, 0x00, 0x00, 0x00,
    0x00, 0x00, 0x00, 0x00, 0x00, 0x00, 0x00, 0x00, 0x00, 0x00, 0x00, 0x00,
    0x00, 0x00, 0x00, 0x00, 0x00, 0x00, 0x00, 0x00, 0x00, 0x00, 0x00, 0x00,
    0x00, 0x00, 0x00, 0x00, 0x00, 0x00, 0x00, 0x00, 0x00, 0x00, 0x00, 0x00,
    0x00, 0x00, 0x00, 0x00, 0x00, 0x00, 0x00, 0x00, 0x00, 0x00, 0x00, 0x00,
    0x00, 0x00, 0x00, 0x00, 0x00, 0x00, 0x00, 0x00, 0x00, 0x00, 0x00, 0x00,
    0x00, 0x00, 0x00, 0x00, 0x00, 0x00, 0x00, 0x00, 0x00, 0x00, 0x00, 0x00,
    0x00, 0x00, 0x00, 0x00, 0x00, 0x00, 0x00, 0x00, 0x00, 0x00, 0x00, 0x00,
    0x00, 0x00, 0x00, 0x00, 0x00, 0x00, 0x00, 0x00, 0x00, 0x00, 0x00, 0x00,
    0x00, 0x00, 0x00, 0x00, 0x00, 0x00, 0x00, 0x00, 0x00, 0x00, 0x00, 0x00,
    0x00, 0x00, 0x00, 0x00, 0x00, 0x00, 0x00, 0x00, 0x00, 0x00, 0x00, 0x00,
    0x00, 0x00, 0x00, 0x00, 0x10, 0x00, 0x00, 0x00, 0x7c, 0x3c, 0xc1, 0x36,
    0x2b, 0x35, 0x02, 0x37, 0xef, 0x5f, 0x44, 0x37, 0x05, 0xcf, 0x82, 0x37,
    0x77, 0x3e, 0xcb, 0x36, 0x02, 0x08, 0x45, 0x37, 0xf3, 0xf5, 0x9f, 0x37,
    0x47, 0x02, 0x98, 0x37, 0x19, 0x48, 0x53, 0x37, 0x8a, 0xa9, 0xaa, 0x36,
    0x22, 0x14, 0xbe, 0x36, 0x95, 0xf8, 0x40, 0x37, 0x38, 0x1a, 0xfc, 0x36,
    0x46, 0xcc, 0x2f, 0x37, 0x1d, 0xb9, 0x31, 0x37, 0xf9, 0xd1, 0x41, 0x37,
    0x13, 0x00, 0x00, 0x00, 0x74, 0x66, 0x6c, 0x2e, 0x70, 0x73, 0x65, 0x75,
    0x64, 0x6f, 0x5f, 0x71, 0x63, 0x6f, 0x6e, 0x73, 0x74, 0x32, 0x30, 0x00,
    0x01, 0x00, 0x00, 0x00, 0x10, 0x00, 0x00, 0x00, 0xb6, 0xe0, 0xff, 0xff,
    0x00, 0x00, 0x00, 0x01, 0x14, 0x00, 0x00, 0x00, 0xec, 0x00, 0x00, 0x00,
    0x16, 0x00, 0x00, 0x00, 0x00, 0x00, 0x00, 0x09, 0xf8, 0x00, 0x00, 0x00,
    0xca, 0xf0, 0xff, 0xff, 0x03, 0x00, 0x00, 0x00, 0x08, 0x00, 0x00, 0x00,
    0x8c, 0x00, 0x00, 0x00, 0x10, 0x00, 0x00, 0x00, 0x00, 0x00, 0x00, 0x00,
    0x00, 0x00, 0x00, 0x00, 0x00, 0x00, 0x00, 0x00, 0x00, 0x00, 0x00, 0x00,
    0x00, 0x00, 0x00, 0x00, 0x00, 0x00, 0x00, 0x00, 0x00, 0x00, 0x00, 0x00,
    0x00, 0x00, 0x00, 0x00, 0x00, 0x00, 0x00, 0x00, 0x00, 0x00, 0x00, 0x00,
    0x00, 0x00, 0x00, 0x00, 0x00, 0x00, 0x00, 0x00, 0x00, 0x00, 0x00, 0x00,
    0x00, 0x00, 0x00, 0x00, 0x00, 0x00, 0x00, 0x00, 0x00, 0x00, 0x00, 0x00,
    0x00, 0x00, 0x00, 0x00, 0x00, 0x00, 0x00, 0x00, 0x00, 0x00, 0x00, 0x00,
    0x00, 0x00, 0x00, 0x00, 0x00, 0x00, 0x00, 0x00, 0x00, 0x00, 0x00, 0x00,
    0x00, 0x00, 0x00, 0x00, 0x00, 0x00, 0x00, 0x00, 0x00, 0x00, 0x00, 0x00,
    0x00, 0x00, 0x00, 0x00, 0x00, 0x00, 0x00, 0x00, 0x00, 0x00, 0x00, 0x00,
    0x00, 0x00, 0x00, 0x00, 0x00, 0x00, 0x00, 0x00, 0x00, 0x00, 0x00, 0x00,
    0x00, 0x00, 0x00, 0x00, 0x00, 0x00, 0x00, 0x00, 0x10, 0x00, 0x00, 0x00,
    0xca, 0xb9, 0xaf, 0x3a, 0xef, 0x2b, 0x02, 0x3b, 0x85, 0x78, 0x23, 0x3b,
    0x3b, 0x82, 0x68, 0x3b, 0x1d, 0xbb, 0xaa, 0x3a, 0x98, 0xc7, 0x38, 0x3b,
    0xe4, 0x13, 0x85, 0x3b, 0x0e, 0xc2, 0x3f, 0x3b, 0x84, 0x87, 0x32, 0x3b,
    0x1b, 0x70, 0xbd, 0x3a, 0x83, 0x20, 0x9f, 0x3a, 0x27, 0xfc, 0x99, 0x3b,
    0x1b, 0x83, 0x01, 0x3b, 0xd3, 0x2d, 0xed, 0x3a, 0xb6, 0xae, 0x00, 0x3b,
    0x67, 0x9d, 0x82, 0x3b, 0x13, 0x00, 0x00, 0x00, 0x74, 0x66, 0x6c, 0x2e,
    0x70, 0x73, 0x65, 0x75, 0x64, 0x6f, 0x5f, 0x71, 0x63, 0x6f, 0x6e, 0x73,
    0x74, 0x31, 0x39, 0x00, 0x04, 0x00, 0x00, 0x00, 0x01, 0x00, 0x00, 0x00,
    0x03, 0x00, 0x00, 0x00, 0x03, 0x00, 0x00, 0x00, 0x10, 0x00, 0x00, 0x00,
    0xda, 0xe1, 0xff, 0xff, 0x00, 0x00, 0x00, 0x01, 0x14, 0x00, 0x00, 0x00,
    0xe4, 0x00, 0x00, 0x00, 0x15, 0x00, 0x00, 0x00, 0x00, 0x00, 0x00, 0x02,
    0xf0, 0x00, 0x00, 0x00, 0x54, 0xe1, 0xff, 0xff, 0x08, 0x00, 0x00, 0x00,
